{
  "version": "1.0",
  "truncation": null,
  "padding": null,
  "added_tokens": [
    {
      "id": 0,
      "content": "<|endoftext|>",
      "single_word": false,
      "lstrip": false,
      "rstrip": false,
      "normalized": false,
      "special": true
    },
    {
      "id": 1,
      "content": "<|im_start|>",
      "single_word": false,
      "lstrip": false,
      "rstrip": false,
      "normalized": false,
      "special": true
    },
    {
      "id": 2,
      "content": "<|im_end|>",
      "single_word": false,
      "lstrip": false,
      "rstrip": false,
      "normalized": false,
      "special": true
    }
  ],
  "normalizer": null,
  "pre_tokenizer": {
    "type": "ByteLevel",
    "add_prefix_space": false,
    "trim_offsets": true,
    "use_regex": true
  },
  "post_processor": null,
  "decoder": {
    "type": "ByteLevel",
    "add_prefix_space": true,
    "trim_offsets": true,
    "use_regex": true
  },
  "model": {
    "type": "BPE",
    "dropout": null,
    "unk_token": null,
    "continuing_subword_prefix": null,
    "end_of_word_suffix": null,
    "fuse_unk": false,
    "byte_fallback": false,
    "ignore_merges": false,
    "vocab": {
      "<|endoftext|>": 0,
      "<|im_start|>": 1,
      "<|im_end|>": 2,
      "!": 3,
      "\"": 4,
      "#": 5,
      "$": 6,
      "%": 7,
      "&": 8,
      "'": 9,
      "(": 10,
      ")": 11,
      "*": 12,
      "+": 13,
      ",": 14,
      "-": 15,
      ".": 16,
      "/": 17,
      "0": 18,
      "1": 19,
      "2": 20,
      "3": 21,
      "4": 22,
      "5": 23,
      "6": 24,
      "7": 25,
      "8": 26,
      "9": 27,
      ":": 28,
      ";": 29,
      "<": 30,
      "=": 31,
      ">": 32,
      "?": 33,
      "@": 34,
      "A": 35,
      "B": 36,
      "C": 37,
      "D": 38,
      "E": 39,
      "F": 40,
      "G": 41,
      "H": 42,
      "I": 43,
      "J": 44,
      "K": 45,
      "L": 46,
      "M": 47,
      "N": 48,
      "O": 49,
      "P": 50,
      "Q": 51,
      "R": 52,
      "S": 53,
      "T": 54,
      "U": 55,
      "V": 56,
      "W": 57,
      "X": 58,
      "Y": 59,
      "Z": 60,
      "[": 61,
      "\\": 62,
      "]": 63,
      "^": 64,
      "_": 65,
      "`": 66,
      "a": 67,
      "b": 68,
      "c": 69,
      "d": 70,
      "e": 71,
      "f": 72,
      "g": 73,
      "h": 74,
      "i": 75,
      "j": 76,
      "k": 77,
      "l": 78,
      "m": 79,
      "n": 80,
      "o": 81,
      "p": 82,
      "q": 83,
      "r": 84,
      "s": 85,
      "t": 86,
      "u": 87,
      "v": 88,
      "w": 89,
      "x": 90,
      "y": 91,
      "z": 92,
      "{": 93,
      "|": 94,
      "}": 95,
      "~": 96,
      "¡": 97,
      "¢": 98,
      "£": 99,
      "¤": 100,
      "¥": 101,
      "¦": 102,
      "§": 103,
      "¨": 104,
      "©": 105,
      "ª": 106,
      "«": 107,
      "¬": 108,
      "®": 109,
      "¯": 110,
      "°": 111,
      "±": 112,
      "²": 113,
      "³": 114,
      "´": 115,
      "µ": 116,
      "¶": 117,
      "·": 118,
      "¸": 119,
      "¹": 120,
      "º": 121,
      "»": 122,
      "¼": 123,
      "½": 124,
      "¾": 125,
      "¿": 126,
      "À": 127,
      "Á": 128,
      "Â": 129,
      "Ã": 130,
      "Ä": 131,
      "Å": 132,
      "Æ": 133,
      "Ç": 134,
      "È": 135,
      "É": 136,
      "Ê": 137,
      "Ë": 138,
      "Ì": 139,
      "Í": 140,
      "Î": 141,
      "Ï": 142,
      "Ð": 143,
      "Ñ": 144,
      "Ò": 145,
      "Ó": 146,
      "Ô": 147,
      "Õ": 148,
      "Ö": 149,
      "×": 150,
      "Ø": 151,
      "Ù": 152,
      "Ú": 153,
      "Û": 154,
      "Ü": 155,
      "Ý": 156,
      "Þ": 157,
      "ß": 158,
      "à": 159,
      "á": 160,
      "â": 161,
      "ã": 162,
      "ä": 163,
      "å": 164,
      "æ": 165,
      "ç": 166,
      "è": 167,
      "é": 168,
      "ê": 169,
      "ë": 170,
      "ì": 171,
      "í": 172,
      "î": 173,
      "ï": 174,
      "ð": 175,
      "ñ": 176,
      "ò": 177,
      "ó": 178,
      "ô": 179,
      "õ": 180,
      "ö": 181,
      "÷": 182,
      "ø": 183,
      "ù": 184,
      "ú": 185,
      "û": 186,
      "ü": 187,
      "ý": 188,
      "þ": 189,
      "ÿ": 190,
      "Ā": 191,
      "ā": 192,
      "Ă": 193,
      "ă": 194,
      "Ą": 195,
      "ą": 196,
      "Ć": 197,
      "ć": 198,
      "Ĉ": 199,
      "ĉ": 200,
      "Ċ": 201,
      "ċ": 202,
      "Č": 203,
      "č": 204,
      "Ď": 205,
      "ď": 206,
      "Đ": 207,
      "đ": 208,
      "Ē": 209,
      "ē": 210,
      "Ĕ": 211,
      "ĕ": 212,
      "Ė": 213,
      "ė": 214,
      "Ę": 215,
      "ę": 216,
      "Ě": 217,
      "ě": 218,
      "Ĝ": 219,
      "ĝ": 220,
      "Ğ": 221,
      "ğ": 222,
      "Ġ": 223,
      "ġ": 224,
      "Ģ": 225,
      "ģ": 226,
      "Ĥ": 227,
      "ĥ": 228,
      "Ħ": 229,
      "ħ": 230,
      "Ĩ": 231,
      "ĩ": 232,
      "Ī": 233,
      "ī": 234,
      "Ĭ": 235,
      "ĭ": 236,
      "Į": 237,
      "į": 238,
      "İ": 239,
      "ı": 240,
      "Ĳ": 241,
      "ĳ": 242,
      "Ĵ": 243,
      "ĵ": 244,
      "Ķ": 245,
      "ķ": 246,
      "ĸ": 247,
      "Ĺ": 248,
      "ĺ": 249,
      "Ļ": 250,
      "ļ": 251,
      "Ľ": 252,
      "ľ": 253,
      "Ŀ": 254,
      "ŀ": 255,
      "Ł": 256,
      "ł": 257,
      "Ń": 258,
      "ä¸": 259,
      "ï¼": 260,
      "ãĢ": 261,
      "im": 262,
      "<|": 263,
      "|>": 264,
      "ãĢĤ": 265,
      "çļ": 266,
      "çļĦ": 267,
      "ï¼Į": 268,
      "åı": 269,
      "ä»": 270,
      "äº": 271,
      "è¯": 272,
      "æľ": 273,
      "æĪ": 274,
      "ar": 275,
      "en": 276,
      "st": 277,
      "end": 278,
      "art": 279,
      "start": 280,
      "Ġ<|": 281,
      "æĸ": 282,
      "ä¸Ģ": 283,
      "è¿": 284,
      "å¤": 285,
      "ä½": 286,
      "åħ": 287,
      "æĺ": 288,
      "ãĢĤ<|": 289,
      "å®": 290,
      "åŃ": 291,
      "åĲ": 292,
      "ï¼ļ": 293,
      "æĪĳ": 294,
      "çĶ": 295,
      "ä¹": 296,
      "åľ": 297,
      "ä¸ª": 298,
      "åĪ": 299,
      "ç»": 300,
      "æĺ¯": 301,
      "æĸĩ": 302,
      "åĬ": 303,
      "å°": 304,
      "åı¥": 305,
      "ä»¥": 306,
      "åĨ": 307,
      "åŃĲ": 308,
      "ä¸ĭ": 309,
      "ä¸Ń": 310,
      "æľī": 311,
      "åľ¨": 312,
      "æĹ": 313,
      "è¿Ļ": 314,
      "åĽ": 315,
      "é¢": 316,
      "ãĢģ": 317,
      "äºĨ": 318,
      "å¸": 319,
      "å¥": 320,
      "éĹ": 321,
      "åĩ": 322,
      "åĴ": 323,
      "ä¸º": 324,
      "éĩ": 325,
      "è®": 326,
      "åı¥åŃĲ": 327,
      "å¾": 328,
      "æı": 329,
      "å¤©": 330,
      "åĴĮ": 331,
      "æł": 332,
      "äºº": 333,
      "ä¸Ģä¸ª": 334,
      "åį": 335,
      "ĥ½": 336,
      "è¡": 337,
      "ä¸į": 338,
      "æĪĲ": 339,
      "åº": 340,
      "âĢ": 341,
      "ï¼Ł": 342,
      "æĿ": 343,
      "æ°": 344,
      "é¢ĺ": 345,
      "å½": 346,
      "å¹": 347,
      "æŃ": 348,
      "éĿ": 349,
      "åİ": 350,
      "ä¼": 351,
      "æıĲ": 352,
      "æī": 353,
      "è¦": 354,
      "å·": 355,
      "è¦ģ": 356,
      "æľ¬": 357,
      "åĩº": 358,
      "çĶŁ": 359,
      "ç«": 360,
      "èĥ½": 361,
      "ä»ĸ": 362,
      "ç»Ļ": 363,
      "æĥ": 364,
      "ä½ł": 365,
      "åĮ": 366,
      "éĢ": 367,
      "æĽ": 368,
      "æĢ": 369,
      "å¯": 370,
      "ç§": 371,
      "çİ": 372,
      "æĦ": 373,
      "æĬ": 374,
      "è¯·": 375,
      "çī": 376,
      "å¥½": 377,
      "çĽ": 378,
      "çŃ": 379,
      "æŀ": 380,
      "åĨĻ": 381,
      "åı¯": 382,
      "å¼": 383,
      "æĻ": 384,
      "è¯į": 385,
      "æķ": 386,
      "éĹ®": 387,
      "åĳ": 388,
      "åĵ": 389,
      "å®ļ": 390,
      "åħ¶": 391,
      "è§": 392,
      "ä¸Ĭ": 393,
      "ä»¥ä¸ĭ": 394,
      "è¯Ń": 395,
      "æ³": 396,
      "ç®": 397,
      "æĸĩæľ¬": 398,
      "ä¿": 399,
      "æĶ": 400,
      "çĶ¨": 401,
      "è¾": 402,
      "åħ³": 403,
      "æĽ´": 404,
      "è¡Į": 405,
      "ä¾": 406,
      "ç«ł": 407,
      "å¿": 408,
      "æ¬": 409,
      "æ°Ķ": 410,
      "æĤ": 411,
      "æĸĩç«ł": 412,
      "ä»¬": 413,
      "äºİ": 414,
      "æį": 415,
      "èĢ": 416,
      "æµ": 417,
      "åĪ°": 418,
      "éĶ": 419,
      "å¾Ī": 420,
      "å°Ĩ": 421,
      "ä¹Ī": 422,
      "åĸ": 423,
      "æ²": 424,
      "æĸ°": 425,
      "æĭ": 426,
      "çľ": 427,
      "çĲ": 428,
      "é£": 429,
      "èµ": 430,
      "æİ": 431,
      "æĿ¥": 432,
      "ä½¿": 433,
      "éĩį": 434,
      "æ´": 435,
      "æľĢ": 436,
      "æ¸": 437,
      "æĤ¨": 438,
      "åıĸ": 439,
      "éĿ¢": 440,
      "çº": 441,
      "æĹ¶": 442,
      "ä½ĵ": 443,
      "åİ»": 444,
      "å±": 445,
      "¦Ĥ": 446,
      "çŁ": 447,
      "åı¯ä»¥": 448,
      "âĢĿ": 449,
      "ä¼ļ": 450,
      "èĩ": 451,
      "åŃ¦": 452,
      "åľ°": 453,
      "å¤§": 454,
      "å¯¹": 455,
      "æĺİ": 456,
      "æ¯": 457,
      "âĢľ": 458,
      "éĹ®é¢ĺ": 459,
      "è°": 460,
      "ç±": 461,
      "éľ": 462,
      "ç»Ļå®ļ": 463,
      "æį®": 464,
      "çĶµ": 465,
      "æ±": 466,
      "åĲį": 467,
      "è´": 468,
      "åĸľ": 469,
      "åģ": 470,
      "çĦ": 471,
      "å¸¸": 472,
      "ä»Ģ": 473,
      "çĤ": 474,
      "ä»Ģä¹Ī": 475,
      "åĬ¨": 476,
      "å¦Ĥ": 477,
      "æ¬¢": 478,
      "æ³ķ": 479,
      "æĥħ": 480,
      "åĬł": 481,
      "å½±": 482,
      "çŃĶ": 483,
      "è¯Ŀ": 484,
      "è¿Ļä¸ª": 485,
      "ä¾Ľ": 486,
      "çĶŁæĪĲ": 487,
      "çī©": 488,
      "åŁ": 489,
      "å·¥": 490,
      "æĮ": 491,
      "å¤ļ": 492,
      "çĦ¶": 493,
      "æıĲä¾Ľ": 494,
      "æŃ£": 495,
      "éĻ": 496,
      "ä½ľ": 497,
      "è¿Ľ": 498,
      "åĽ½": 499,
      "ç®Ģ": 500,
      "å®ŀ": 501,
      "ç¯": 502,
      "ä¸»": 503,
      "åĪĨ": 504,
      "æĦŁ": 505,
      "å®¶": 506,
      "éģ": 507,
      "è½": 508,
      "æł¹": 509,
      "å¹¶": 510,
      "ç±»": 511,
      "éĺ": 512,
      "åĸľæ¬¢": 513,
      "éľĢ": 514,
      "ä»¥ä¸ĭåı¥åŃĲ": 515,
      "å¤©æ°Ķ": 516,
      "çİ°": 517,
      "æłĩ": 518,
      "ç¯ĩ": 519,
      "æł¹æį®": 520,
      "é«": 521,
      "æīĢ": 522,
      "äºĽ": 523,
      "èģ": 524,
      "é«ĺ": 525,
      "èī": 526,
      "èĩª": 527,
      "åī": 528,
      "ç¾": 529,
      "æģ": 530,
      "å°ı": 531,
      "é¦": 532,
      "åĲĮ": 533,
      "ä»İ": 534,
      "æĦı": 535,
      "åıĳ": 536,
      "æŀľ": 537,
      "åĽł": 538,
      "çľĭ": 539,
      "è¶": 540,
      "åįķ": 541,
      "èĬ": 542,
      "çĽ¸": 543,
      "éĿŀ": 544,
      "å®ĥ": 545,
      "ä¸ŃçļĦ": 546,
      "éľĢè¦ģ": 547,
      "æĶ¹": 548,
      "éĩĮ": 549,
      "æĸ¹": 550,
      "éĤ": 551,
      "æ¡": 552,
      "çĤ¹": 553,
      "æĥ³": 554,
      "é¡": 555,
      "ä½Ĩ": 556,
      "ä¹ī": 557,
      "åħ¬": 558,
      "éĽ": 559,
      "æĪĸ": 560,
      "æ²¡": 561,
      "éĶĻ": 562,
      "æıĲåıĸ": 563,
      "å¾Ĺ": 564,
      "è¿ĩ": 565,
      "è¯Ĺ": 566,
      "çĶµå½±": 567,
      "å¥½çļĦ": 568,
      "ç¾İ": 569,
      "å½ĵ": 570,
      "æĪĳä»¬": 571,
      "ç©": 572,
      "å¸®": 573,
      "éĿŀå¸¸": 574,
      "åĬĽ": 575,
      "æĹł": 576,
      "è¿Ľè¡Į": 577,
      "çĲĨ": 578,
      "è¡¨": 579,
      "åºĶ": 580,
      "ç¼": 581,
      "åŃĹ": 582,
      "ç¬": 583,
      "çķ": 584,
      "è¿°": 585,
      "åĽŀ": 586,
      "æŁ": 587,
      "ä¹ĭ": 588,
      "çļĦåı¥åŃĲ": 589,
      "å¹´": 590,
      "ä»Ĭ": 591,
      "æľº": 592,
      "ä½¿åħ¶": 593,
      "æĻº": 594,
      "åĲĹ": 595,
      "çŃī": 596,
      "ï¼Ł<|": 597,
      "æķ°": 598,
      "è·": 599,
      "è¨": 600,
      "æ®": 601,
      "è¿ĺ": 602,
      "èī²": 603,
      "å¸Ĥ": 604,
      "åĢ": 605,
      "åĵª": 606,
      "ä¿Ŀ": 607,
      "åº¦": 608,
      "å»": 609,
      "çĸ": 610,
      "èĭ": 611,
      "ç»ı": 612,
      "ä¿¡": 613,
      "è¨Ģ": 614,
      "éĹ´": 615,
      "æĹ¥": 616,
      "ï¼ģ": 617,
      "ç¿": 618,
      "æĻºèĥ½": 619,
      "å¿ĥ": 620,
      "ç³": 621,
      "åīį": 622,
      "é£İ": 623,
      "äºĭ": 624,
      "åı¥è¯Ŀ": 625,
      "å¥¹": 626,
      "è§£": 627,
      "æłĩé¢ĺ": 628,
      "æ¡Ī": 629,
      "éļ": 630,
      "èĲ": 631,
      "ä¸¤": 632,
      "éķ": 633,
      "çĭ": 634,
      "æ²¡æľī": 635,
      "å®ŀä½ĵ": 636,
      "éĥ": 637,
      "çĲĥ": 638,
      "éĤ£": 639,
      "æĢ§": 640,
      "ç§į": 641,
      "åĵģ": 642,
      "èį": 643,
      "å¼Ģ": 644,
      "æ°´": 645,
      "ä¸ī": 646,
      "åĪ«": 647,
      "çĪ": 648,
      "ä½¿åħ¶æĽ´": 649,
      "éģĵ": 650,
      "è¯¥": 651,
      "éĥ½": 652,
      "æ®µ": 653,
      "åĮħ": 654,
      "æµ·": 655,
      "è¯´": 656,
      "ä½ķ": 657,
      "åŀ": 658,
      "æĸĩç«łä¸Ń": 659,
      "åĮĸ": 660,
      "æģ¯": 661,
      "è°¢": 662,
      "çĿ": 663,
      "å»º": 664,
      "æ¯Ķ": 665,
      "åĲİ": 666,
      "åįķè¯į": 667,
      "å¤ª": 668,
      "çĥ": 669,
      "åĳĬ": 670,
      "è¢": 671,
      "åĲĪ": 672,
      "èµ·": 673,
      "èĤ": 674,
      "éķ¿": 675,
      "ä»Ĭå¤©": 676,
      "éĩįåĨĻ": 677,
      "ç¡": 678,
      "åħ¥": 679,
      "ç¨": 680,
      "æ´ģ": 681,
      "ä¹¦": 682,
      "ç»Ļå®ļçļĦ": 683,
      "äººå·¥": 684,
      "æ·": 685,
      "çŃĶæ¡Ī": 686,
      "æ¶": 687,
      "ç½": 688,
      "ãĢĤâĢĿ": 689,
      "æĬĢ": 690,
      "å±±": 691,
      "äººå·¥æĻºèĥ½": 692,
      "çĻ": 693,
      "åĲ«": 694,
      "çĶŁæĪĲä¸Ģä¸ª": 695,
      "åħ·": 696,
      "ç¤": 697,
      "ä¸İ": 698,
      "ä¸ĭéĿ¢": 699,
      "ä¹ł": 700,
      "åķ": 701,
      "å¢": 702,
      "åıĺ": 703,
      "é£Ł": 704,
      "å°½": 705,
      "ç´": 706,
      "åĲĥ": 707,
      "åĽłä¸º": 708,
      "ç®Ģæ´ģ": 709,
      "éĥ¨": 710,
      "è¿Ļç¯ĩ": 711,
      "ä»£": 712,
      "ä¿¡æģ¯": 713,
      "åĿ": 714,
      "çŁŃ": 715,
      "å®¹": 716,
      "æİ¨": 717,
      "ç¼ĸ": 718,
      "é¦ĸ": 719,
      "åŁİ": 720,
      "éĢī": 721,
      "æ¸¸": 722,
      "çŁ¥": 723,
      "ç¡®": 724,
      "èĢħ": 725,
      "çĽ®": 726,
      "ç¿»": 727,
      "åħ³äºİ": 728,
      "åħ¨": 729,
      "èĻ": 730,
      "ä¹Ĳ": 731,
      "è¯¯": 732,
      "æıı": 733,
      "ä¸ļ": 734,
      "æĸŃ": 735,
      "éĢļ": 736,
      "éĶ®": 737,
      "åĨħ": 738,
      "ä»»": 739,
      "è¾¾": 740,
      "æĢĿ": 741,
      "è®©": 742,
      "åħ³éĶ®": 743,
      "åı¤": 744,
      "è¯ĳ": 745,
      "é¤": 746,
      "ç³»": 747,
      "åĽŀçŃĶ": 748,
      "çİ¯": 749,
      "è¢«": 750,
      "å¼ı": 751,
      "çĮ": 752,
      "è®®": 753,
      "å§": 754,
      "ç¿»è¯ĳ": 755,
      "ä¸ĸ": 756,
      "é¤Ĳ": 757,
      "æŀģ": 758,
      "åĬ©": 759,
      "éŁ": 760,
      "è®¡": 761,
      "èģĶ": 762,
      "åŀĭ": 763,
      "æııè¿°": 764,
      "æ»": 765,
      "ä¸»é¢ĺ": 766,
      "éĶĻè¯¯": 767,
      "ä½į": 768,
      "ç¥": 769,
      "ç§ĳ": 770,
      "èĪ": 771,
      "æĭ¬": 772,
      "æ¼": 773,
      "åĪĹ": 774,
      "æĺ¯ä¸Ģ": 775,
      "é¥": 776,
      "èĢĮ": 777,
      "æ±Ĥ": 778,
      "å¤Ħ": 779,
      "ç»Ļåĩº": 780,
      "è®º": 781,
      "é»": 782,
      "è¾ĵ": 783,
      "ç»ĵ": 784,
      "åıª": 785,
      "ä¸ĢäºĽ": 786,
      "è¯ī": 787,
      "ä¹Ł": 788,
      "çĶ±": 789,
      "ä¸¤ä¸ª": 790,
      "åŃ¦ä¹ł": 791,
      "é¡¹": 792,
      "é©": 793,
      "è¿ĳ": 794,
      "ä»¶": 795,
      "çī¹": 796,
      "æĺŁ": 797,
      "èĬ±": 798,
      "åİŁ": 799,
      "åĬ¡": 800,
      "æ´»": 801,
      "æľĪ": 802,
      "åĳĬè¯ī": 803,
      "æŃĮ": 804,
      "çģ": 805,
      "çĿĢ": 806,
      "å°ĳ": 807,
      "çł": 808,
      "æĳ": 809,
      "å£": 810,
      "åľº": 811,
      "åģ¥": 812,
      "æĺ¯ä»Ģä¹Ī": 813,
      "æŃ¥": 814,
      "é¢Ĩ": 815,
      "æ¸ħ": 816,
      "çĹ": 817,
      "æµģ": 818,
      "ç®¡": 819,
      "çĪ±": 820,
      "çķĮ": 821,
      "è½¦": 822,
      "æĬ¥": 823,
      "å®Į": 824,
      "å·²": 825,
      "æĻļ": 826,
      "å°±": 827,
      "åŃĺ": 828,
      "æľª": 829,
      "åı¸": 830,
      "ä½¿çĶ¨": 831,
      "æĢ»": 832,
      "ç¨ĭ": 833,
      "è¯Ĩ": 834,
      "ä½¿åħ¶æĽ´åĬł": 835,
      "ä¸Ģä¸ĭ": 836,
      "éĢĤ": 837,
      "æīĢæľī": 838,
      "æł¼": 839,
      "å½¢": 840,
      "åĳĬè¯īæĪĳ": 841,
      "åĮĹ": 842,
      "æľ¯": 843,
      "åĲ¦": 844,
      "æĹħ": 845,
      "åĪĽ": 846,
      "çĭĹ": 847,
      "èİ": 848,
      "æī¾": 849,
      "é¢Ħ": 850,
      "ç©º": 851,
      "é¸": 852,
      "åĮ»": 853,
      "éĹ»": 854,
      "åĨ³": 855,
      "èº": 856,
      "æ¨": 857,
      "ãĢĭ": 858,
      "ãĢĬ": 859,
      "åºĶçĶ¨": 860,
      "ä»ĸä»¬": 861,
      "è¯ķ": 862,
      "ä¹°": 863,
      "éĽ¨": 864,
      "éĴ": 865,
      "äºĶ": 866,
      "æĥħæĦŁ": 867,
      "æĮģ": 868,
      "åŁŁ": 869,
      "éŁ³": 870,
      "åŁİå¸Ĥ": 871,
      "æĻ¯": 872,
      "ãĢĤ\"": 873,
      "äº§": 874,
      "åģļ": 875,
      "ç»Ħ": 876,
      "æľŁ": 877,
      "ä¹īè¯į": 878,
      "æ¯ı": 879,
      "å¿«": 880,
      "æĸĩç«łä¸ŃæıĲåıĸ": 881,
      "éĺ³": 882,
      "ä¸Ģç¯ĩ": 883,
      "ä¸ĸçķĮ": 884,
      "æīĭ": 885,
      "èı": 886,
      "å¦Ĥæŀľ": 887,
      "è¯·éĹ®": 888,
      "èº«": 889,
      "åĽŃ": 890,
      "ç»ĻæĪĳ": 891,
      "æĶ¹åĨĻ": 892,
      "èĲ½": 893,
      "å¸®åĬ©": 894,
      "çļĦå¤©æ°Ķ": 895,
      "æĮĩ": 896,
      "è¥": 897,
      "åħ¬åı¸": 898,
      "åĪ¤": 899,
      "æļ": 900,
      "éĩı": 901,
      "æŃ¤": 902,
      "è¯Ħ": 903,
      "äº¬": 904,
      "å¦Ĥä½ķ": 905,
      "åĻ": 906,
      "ä½łçļĦ": 907,
      "ï¼ļâĢľ": 908,
      "ç¦": 909,
      "èĬĤ": 910,
      "éħ": 911,
      "æ£": 912,
      "èĦ": 913,
      "ä¸ŃåĽ½": 914,
      "å¤ĸ": 915,
      "åı·": 916,
      "æ¸©": 917,
      "ç¿»è¯ĳæĪĲ": 918,
      "çľŁ": 919,
      "å±ķ": 920,
      "ç«ĭ": 921,
      "é¢ĨåŁŁ": 922,
      "ãĢĤ\\": 923,
      "æł·": 924,
      "è¯»": 925,
      "è¥¿": 926,
      "åįģ": 927,
      "è¯Ńè¨Ģ": 928,
      "è¯Ńæ³ķ": 929,
      "éĩĳ": 930,
      "åŃĺåľ¨": 931,
      "æ¶Ī": 932,
      "åĪĨç±»": 933,
      "æĶ¾": 934,
      "ä¸Ģåı¥è¯Ŀ": 935,
      "èĥ": 936,
      "æŁ¥": 937,
      "è®¾": 938,
      "åĻ¨": 939,
      "çİ°åľ¨": 940,
      "æĪĳçļĦ": 941,
      "æĬĬ": 942,
      "æĺ¨": 943,
      "æĹ¶éĹ´": 944,
      "å»ºè®®": 945,
      "åĪ¤æĸŃ": 946,
      "ç»Ń": 947,
      "å¹³": 948,
      "åº·": 949,
      "åħ³éĶ®è¯į": 950,
      "æĸ°éĹ»": 951,
      "åħī": 952,
      "äºĨä¸Ģ": 953,
      "åıĹ": 954,
      "æį¢": 955,
      "å¢ĥ": 956,
      "æĺĵ": 957,
      "åıį": 958,
      "ç®Ĺ": 959,
      "å·¥ä½ľ": 960,
      "åĪ©": 961,
      "åħ´": 962,
      "çº¦": 963,
      "åĮħæĭ¬": 964,
      "æĹłæ³ķ": 965,
      "è¶£": 966,
      "çı": 967,
      "äº¤": 968,
      "ç§ĭ": 969,
      "çĮ«": 970,
      "äºĮ": 971,
      "çº¢": 972,
      "åİĨ": 973,
      "æĹ©": 974,
      "æ¨¡": 975,
      "è¡¨è¾¾": 976,
      "è¿Ļåı¥è¯Ŀ": 977,
      "æĺ¯ä¸Ģä¸ª": 978,
      "åģ¥åº·": 979,
      "å¸®æĪĳ": 980,
      "æº": 981,
      "åĪ¶": 982,
      "æ¢": 983,
      "åı£": 984,
      "ç¬¬": 985,
      "å½ĵçĦ¶": 986,
      "æľį": 987,
      "åĳ¨": 988,
      "è±": 989,
      "éĩįæĸ°": 990,
      "å°½ç®¡": 991,
      "çĬ": 992,
      "è¦ģæ±Ĥ": 993,
      "åħ¶ä»ĸ": 994,
      "è½¬": 995,
      "è¿ĺæĺ¯": 996,
      "åĳ¢": 997,
      "åı²": 998,
      "ç§¯": 999,
      "åıĬ": 1000,
      "éª": 1001,
      "æĺ¯åĲ¦": 1002,
      "è¿Ļç¯ĩæĸĩç«ł": 1003,
      "æĺİå¤©": 1004,
      "æĺ¥": 1005,
      "åĨħå®¹": 1006,
      "æīĵ": 1007,
      "åĮĹäº¬": 1008,
      "æľĽ": 1009,
      "çĸĹ": 1010,
      "çĻ½": 1011,
      "åĲ¬": 1012,
      "çļĦéĹ®é¢ĺ": 1013,
      "åıĭ": 1014,
      "å§ĭ": 1015,
      "å®ī": 1016,
      "çĥŃ": 1017,
      "åĢĻ": 1018,
      "è¾ĳ": 1019,
      "èķ": 1020,
      "ç§°": 1021,
      "è¾ĵåħ¥": 1022,
      "åı¯èĥ½": 1023,
      "åĮº": 1024,
      "éĩįåĨĻä»¥ä¸ĭåı¥åŃĲ": 1025,
      "æĪĳåĸľæ¬¢": 1026,
      "æĬĢæľ¯": 1027,
      "éļı": 1028,
      "æ¬¡": 1029,
      "åĶ": 1030,
      "çĶ±äºİ": 1031,
      "åĨį": 1032,
      "èıľ": 1033,
      "å²": 1034,
      "åĵį": 1035,
      "åĩł": 1036,
      "è§Ĥ": 1037,
      "æŃ£åľ¨": 1038,
      "åĪ°äºĨ": 1039,
      "åĽĽ": 1040,
      "æĦıæĢĿ": 1041,
      "éĹ¨": 1042,
      "è§ģ": 1043,
      "çħ": 1044,
      "éļ¾": 1045,
      "åĬ¨çī©": 1046,
      "ä¿®": 1047,
      "ä¸Ģæ®µ": 1048,
      "å¤ı": 1049,
      "æĢģ": 1050,
      "åı¤è¯Ĺ": 1051,
      "å®¢": 1052,
      "è¿Ĳ": 1053,
      "åħ·ä½ĵ": 1054,
      "å³": 1055,
      "çŁ¥éģĵ": 1056,
      "æł¹æį®ç»Ļå®ļçļĦ": 1057,
      "çĹħ": 1058,
      "åĲĳ": 1059,
      "èĢĥ": 1060,
      "æ·±": 1061,
      "ä¸ľ": 1062,
      "è§ī": 1063,
      "éĵ": 1064,
      "èĩªçĦ¶": 1065,
      "ä»·": 1066,
      "èµĽ": 1067,
      "å¤´": 1068,
      "å·²ç»ı": 1069,
      "åºı": 1070,
      "ç²": 1071,
      "æķħ": 1072,
      "åĳĺ": 1073,
      "å®ĥä»¬": 1074,
      "å¼ł": 1075,
      "æĺİäºĨ": 1076,
      "åģĩ": 1077,
      "æĪĳæĥ³": 1078,
      "èĢģ": 1079,
      "ä½¿åħ¶æĽ´åĬłç®Ģæ´ģ": 1080,
      "Â·": 1081,
      "æĺ¨å¤©": 1082,
      "é©¬": 1083,
      "èįĲ": 1084,
      "æĿ¡": 1085,
      "èĭ±": 1086,
      "æĪ·": 1087,
      "æĬ½": 1088,
      "æĳĺ": 1089,
      "çİĭ": 1090,
      "å¤į": 1091,
      "æİĴ": 1092,
      "ç¼ĸè¾ĳ": 1093,
      "èĮ": 1094,
      "åĵªäºĽ": 1095,
      "ĊĊ": 1096,
      "è·¯": 1097,
      "è¯ĨåĪ«": 1098,
      "æİ¨èįĲ": 1099,
      "æīį": 1100,
      "æľĢè¿ĳ": 1101,
      "ä¾ĭ": 1102,
      "ä¸Ģé¦ĸ": 1103,
      "åĳ³": 1104,
      "å¤Ł": 1105,
      "åİ»äºĨ": 1106,
      "ç¤º": 1107,
      "åįĹ": 1108,
      "ç»Ł": 1109,
      "åħĭ": 1110,
      "çĽ¸åħ³": 1111,
      "\"<|": 1112,
      "ä»½": 1113,
      "å·±": 1114,
      "åİħ": 1115,
      "å¸¦": 1116,
      "éĢīé¡¹": 1117,
      "åĬŁ": 1118,
      "çĽ¸åĲĮ": 1119,
      "å½±åĵį": 1120,
      "ä»¥ä¸ĭæĸĩæľ¬": 1121,
      "éĢł": 1122,
      "ç§¯æŀģ": 1123,
      "æĢİ": 1124,
      "éĩįè¦ģ": 1125,
      "å®ĮæĪĲ": 1126,
      "æľªæĿ¥": 1127,
      "ä¸»è¦ģ": 1128,
      "å¯¼": 1129,
      "çİ¯ä¿Ŀ": 1130,
      "æĸ¯": 1131,
      "å¼ķ": 1132,
      "è°¢è°¢": 1133,
      "åįİ": 1134,
      "åħ³ç³»": 1135,
      "æİ¥": 1136,
      "å³°": 1137,
      "ä¼ł": 1138,
      "çİ¯å¢ĥ": 1139,
      "è·ĳ": 1140,
      "å°Ĩä»¥ä¸ĭåı¥åŃĲ": 1141,
      "èĳ": 1142,
      "åıĳå±ķ": 1143,
      "æ»¡": 1144,
      "çīĩ": 1145,
      "è´¨": 1146,
      "æĪĳä¼ļ": 1147,
      "æ¦Ĥ": 1148,
      "äºĳ": 1149,
      "åĩı": 1150,
      "çºł": 1151,
      "æĬ½åıĸ": 1152,
      "é¦Ļ": 1153,
      "èĩªå·±": 1154,
      "äººåĲį": 1155,
      "æĬ¤": 1156,
      "åħ¬åĽŃ": 1157,
      "æľºåĻ¨": 1158,
      "åķĨ": 1159,
      "åıĤ": 1160,
      "é¤Ĳåİħ": 1161,
      "è®¤": 1162,
      "æ¼Ķ": 1163,
      "åĩĨ": 1164,
      "ä¸Ģä¸ªåı¥åŃĲ": 1165,
      "åĪĴ": 1166,
      "èĭ¹": 1167,
      "èĻ½": 1168,
      "æŃ£ç¡®": 1169,
      "å¡": 1170,
      "ä¸ºæĤ¨": 1171,
      "è£": 1172,
      "èĭ¹æŀľ": 1173,
      "åĳ½": 1174,
      "çħ§": 1175,
      "éŁ³ä¹Ĳ": 1176,
      "é£ŀ": 1177,
      "è§Ĩ": 1178,
      "è¿Ļä¸ªåı¥åŃĲ": 1179,
      "èģĬ": 1180,
      "å¤ľ": 1181,
      "ç¤¾": 1182,
      "è¶³": 1183,
      "ç½ĳ": 1184,
      "ä¸ĩ": 1185,
      "æĶ¿": 1186,
      "æľĢé«ĺ": 1187,
      "æŀĲ": 1188,
      "å¹¿": 1189,
      "æºĲ": 1190,
      "çĶŁæ´»": 1191,
      "æķĻ": 1192,
      "åĮħåĲ«": 1193,
      "æĿİ": 1194,
      "å¦": 1195,
      "åĥ": 1196,
      "åħ¨çĲĥ": 1197,
      "æľīè¶£": 1198,
      "ä»ĸçļĦ": 1199,
      "æķ°æį®": 1200,
      "æĽ´åĬł": 1201,
      "åĮ»çĸĹ": 1202,
      "æĪĺ": 1203,
      "æĸĩç«łä¸ŃæıĲåıĸåĩº": 1204,
      "äººç±»": 1205,
      "è¶ħ": 1206,
      "æīĢä»¥": 1207,
      "æĪĳåı¯ä»¥": 1208,
      "æķ´": 1209,
      "çłĶ": 1210,
      "è¯·æıĲä¾Ľ": 1211,
      "æīĢæľīçļĦ": 1212,
      "æĦŁåĪ°": 1213,
      "å¥³": 1214,
      "åĲĮä¹īè¯į": 1215,
      "åĪĨæŀĲ": 1216,
      "åı¶": 1217,
      "ç´¢": 1218,
      "æĳĺè¦ģ": 1219,
      "è®°": 1220,
      "è´Ń": 1221,
      "ä»»åĬ¡": 1222,
      "æĭ©": 1223,
      "ä¸įåĲĮ": 1224,
      "æĸ°çļĦ": 1225,
      "æİ¢": 1226,
      "ç¬ĳ": 1227,
      "ä¸įåŃĺåľ¨": 1228,
      "åĨµ": 1229,
      "ç¾İåĽ½": 1230,
      "åİĨåı²": 1231,
      "åĽ¾": 1232,
      "ç©¶": 1233,
      "ä¸ºä»Ģä¹Ī": 1234,
      "ä¸½": 1235,
      "åĲįç§°": 1236,
      "éĢīæĭ©": 1237,
      "åºĶè¯¥": 1238,
      "åĭ": 1239,
      "ä¸¤ä¸ªåı¥åŃĲ": 1240,
      "æķ£": 1241,
      "åħĥ": 1242,
      "å¾Īå¤ļ": 1243,
      "å¼º": 1244,
      "è¯Ħè®º": 1245,
      "æķĪ": 1246,
      "è¾¹": 1247,
      "æĢİä¹Ī": 1248,
      "ä½Ĩæĺ¯": 1249,
      "ä¸Ķ": 1250,
      "ä¸įåŃĺåľ¨å®ŀä½ĵ": 1251,
      "ç»Ĩ": 1252,
      "æĹħæ¸¸": 1253,
      "çļĦæĸĩæľ¬": 1254,
      "ä¸ĸçķĮä¸Ĭ": 1255,
      "èĥ½å¤Ł": 1256,
      "æħ": 1257,
      "çļĦä¿¡æģ¯": 1258,
      "èĻ½çĦ¶": 1259,
      "æĪ¿": 1260,
      "è±¡": 1261,
      "æ³¨": 1262,
      "å£°": 1263,
      "æĸĻ": 1264,
      "ç±»åŀĭ": 1265,
      "ç®Ģåįķ": 1266,
      "äº§åĵģ": 1267,
      "ç¬¦": 1268,
      "æľĭ": 1269,
      "åĨĻä¸Ģä¸ª": 1270,
      "é»Ħ": 1271,
      "èİ·": 1272,
      "çİ°ä»£": 1273,
      "å¸Į": 1274,
      "åŁº": 1275,
      "æľīåħ³": 1276,
      "æĪĳä¸į": 1277,
      "æ¯ĶèµĽ": 1278,
      "ç»ŃåĨĻ": 1279,
      "æ¨¡åŀĭ": 1280,
      "å¤ĩ": 1281,
      "åħ±": 1282,
      "è¿ĺæľī": 1283,
      "åĵªä¸ª": 1284,
      "èįī": 1285,
      "é¥®": 1286,
      "çģ«": 1287,
      "èķ´": 1288,
      "èĩ´": 1289,
      "æĪĳå¾Ī": 1290,
      "ä»į": 1291,
      "ä¸Ńç«ĭ": 1292,
      "éĤ£ä¹Ī": 1293,
      "è½»": 1294,
      "å¤±": 1295,
      "ä¸īä¸ª": 1296,
      "çİ©": 1297,
      "æľĭåıĭ": 1298,
      "æµĭ": 1299,
      "æĲ": 1300,
      "ç§ĳæĬĢ": 1301,
      "èµ°": 1302,
      "çĽ´": 1303,
      "æĸ¹å¼ı": 1304,
      "èķ´åĲ«": 1305,
      "çĽ¾": 1306,
      "éĺŁ": 1307,
      "éĢļè¿ĩ": 1308,
      "å°Ķ": 1309,
      "è¯¢": 1310,
      "ä¾¿": 1311,
      "æĬ½åıĸåĩº": 1312,
      "ä¼¼": 1313,
      "çŁĽ": 1314,
      "æĶ¶": 1315,
      "æĭ¼": 1316,
      "çŁĽçĽ¾": 1317,
      "è®¸": 1318,
      "åĥı": 1319,
      "åĴĸ": 1320,
      "ç¥ŀ": 1321,
      "æłĳ": 1322,
      "æĤ¨çļĦ": 1323,
      "æĽ¿": 1324,
      "å·´": 1325,
      "çļĦäºº": 1326,
      "åºĹ": 1327,
      "ä¼ĺ": 1328,
      "æŀĹ": 1329,
      "èĩ³": 1330,
      "åķ¡": 1331,
      "åĨ·": 1332,
      "åĴĸåķ¡": 1333,
      "åŃ£": 1334,
      "ä½łèĥ½": 1335,
      "åĦ": 1336,
      "çłĶç©¶": 1337,
      "ä»¤": 1338,
      "çĭ¬": 1339,
      "æ¹": 1340,
      "æĪĲè¯Ń": 1341,
      "å¾Īå¥½": 1342,
      "é¦Ĩ": 1343,
      "ï¼ģ<|": 1344,
      "é¸Ł": 1345,
      "è®¡åĪĴ": 1346,
      "æĬ±": 1347,
      "æŀĦ": 1348,
      "è®¡ç®Ĺ": 1349,
      "æŁĵ": 1350,
      "æ²»": 1351,
      "é²": 1352,
      "æĸ¹éĿ¢": 1353,
      "ç¦»": 1354,
      "æ°ĳ": 1355,
      "èĽ": 1356,
      "å°Ĩåħ¶": 1357,
      "åł": 1358,
      "æĪĸèĢħ": 1359,
      "æļĸ": 1360,
      "çª": 1361,
      "çļĦæĸĩç«ł": 1362,
      "é¢ĦæĬ¥": 1363,
      "å·ŀ": 1364,
      "åĨ³å®ļ": 1365,
      "è®²": 1366,
      "è¿ĻäºĽ": 1367,
      "éĥ¨çĶµå½±": 1368,
      "èī²çļĦ": 1369,
      "æĸĩä¸Ń": 1370,
      "ç¢": 1371,
      "åĲ§": 1372,
      "é±": 1373,
      "ç±³": 1374,
      "ãĢĤâĢĿ<|": 1375,
      "çĲĨè§£": 1376,
      "æ´»åĬ¨": 1377,
      "é±¼": 1378,
      "å¿ħ": 1379,
      "æĭ¼åĨĻ": 1380,
      "å±ŀ": 1381,
      "æĭī": 1382,
      "å°ıè¯´": 1383,
      "å¸ĥ": 1384,
      "ä½İ": 1385,
      "å¸ĮæľĽ": 1386,
      "åĲĦ": 1387,
      "æĮī": 1388,
      "ä¸ĭåĪĹ": 1389,
      "å¨": 1390,
      "åĦ¿": 1391,
      "å¤§çļĦ": 1392,
      "ï¼ī": 1393,
      "ä¿ĿæĬ¤": 1394,
      "æľĹ": 1395,
      "20": 1396,
      "å½ĵçĦ¶åı¯ä»¥": 1397,
      "çĻ¾": 1398,
      "çŁŃè¯Ń": 1399,
      "è¾ĵåĩº": 1400,
      "å¢ŀ": 1401,
      "èµĦ": 1402,
      "æķħäºĭ": 1403,
      "ç»Ļå®ļçļĦåı¥åŃĲ": 1404,
      "åĬª": 1405,
      "æĽ²": 1406,
      "è¿ľ": 1407,
      "ç§ĳåŃ¦": 1408,
      "ï¼Ī": 1409,
      "æĹħè¡Į": 1410,
      "åĬªåĬĽ": 1411,
      "æĸ¹æ³ķ": 1412,
      "æ²³": 1413,
      "éĻ¢": 1414,
      "åıĪ": 1415,
      "æĸĩè¨Ģ": 1416,
      "çļĦçĶµå½±": 1417,
      "10": 1418,
      "æĽ´å¤ļ": 1419,
      "åıĳçİ°": 1420,
      "çĨ": 1421,
      "æĸĩè¨Ģæĸĩ": 1422,
      "æıĲé«ĺ": 1423,
      "è¯ĹæŃĮ": 1424,
      "æĩ": 1425,
      "çļĦæłĩé¢ĺ": 1426,
      "æĸĩåŃĹ": 1427,
      "ä»ĭ": 1428,
      "åĨĽ": 1429,
      "æ¥": 1430,
      "é«ĺåħ´": 1431,
      "è¯Ńæ³ķéĶĻè¯¯": 1432,
      "çĬ¶": 1433,
      "éĢŁ": 1434,
      "åģĩè®¾": 1435,
      "æľīä»Ģä¹Ī": 1436,
      "æī¾åĪ°": 1437,
      "ä¿®æĶ¹": 1438,
      "è¡£": 1439,
      "éĻ©": 1440,
      "åīįæıĲ": 1441,
      "è¿ĲåĬ¨": 1442,
      "è°ģ": 1443,
      "å¤ªéĺ³": 1444,
      "æľįåĬ¡": 1445,
      "æĽ¿æį¢": 1446,
      "äºļ": 1447,
      "è´Ł": 1448,
      "éļıæĹ¶": 1449,
      "ç®ĢçŁŃ": 1450,
      "çĳ": 1451,
      "æ¸ħæĻ": 1452,
      "ä»»ä½ķ": 1453,
      "æ¢¦": 1454,
      "å¸Ī": 1455,
      "è¶Ĭ": 1456,
      "ç»¿": 1457,
      "æĴ": 1458,
      "æ¦Ĥæĭ¬": 1459,
      "é¾": 1460,
      "é£İæł¼": 1461,
      "çļĦè¯Ń": 1462,
      "å£«": 1463,
      "ä¿ĿæĮģ": 1464,
      "èĤ²": 1465,
      "æĹ©ä¸Ĭ": 1466,
      "çļĦåºĶçĶ¨": 1467,
      "æĸ½": 1468,
      "èĵ": 1469,
      "åľ°çĲĥ": 1470,
      "æĢ»ç»ĵ": 1471,
      "éĻ¤": 1472,
      "è§£åĨ³": 1473,
      "æıĲä¾Ľä¸Ģä¸ª": 1474,
      "çľĭçĶµå½±": 1475,
      "ç½®": 1476,
      "ç»Ŀ": 1477,
      "æŃī": 1478,
      "åıĺåĮĸ": 1479,
      "åĪĻ": 1480,
      "é¢ĺçĽ®": 1481,
      "æ±Ł": 1482,
      "ç²¾": 1483,
      "åŃ©": 1484,
      "ä¸Ģèµ·": 1485,
      "å¾·": 1486,
      "æİ¨çĲĨ": 1487,
      "åĸĿ": 1488,
      "é¥Ń": 1489,
      "ç»ĩ": 1490,
      "Ġåħ¶": 1491,
      "é£Łçī©": 1492,
      "ä¸¾": 1493,
      "ä¸įèĥ½": 1494,
      "çĶ»": 1495,
      "éħĴ": 1496,
      "éĩĬ": 1497,
      "æĿ¯": 1498,
      "è®¨": 1499,
      "æł¡": 1500,
      "æ±¡": 1501,
      "è¯·åĳĬè¯īæĪĳ": 1502,
      "çıŃ": 1503,
      "æĬ±æŃī": 1504,
      "åį³": 1505,
      "äº®": 1506,
      "å·§": 1507,
      "é¡º": 1508,
      "æ®µèĲ½": 1509,
      "åįĥ": 1510,
      "è§Ħ": 1511,
      "çķħ": 1512,
      "åı°": 1513,
      "éĨ": 1514,
      "èµ·æĿ¥": 1515,
      "çİĩ": 1516,
      "çļĦåľ°": 1517,
      "åħ·æľī": 1518,
      "ä»İè¿Ļç¯ĩ": 1519,
      "æĥħåĨµ": 1520,
      "åĩıå°ĳ": 1521,
      "ç´ł": 1522,
      "ä¸ªäºº": 1523,
      "ä½¿åħ¶æĽ´åĬłç®Ģæ´ģæĺİäºĨ": 1524,
      "ç»į": 1525,
      "æĪĳä»¬çļĦ": 1526,
      "åħĪ": 1527,
      "èĦĳ": 1528,
      "æ¤": 1529,
      "æĪĲåĬŁ": 1530,
      "èĳĹ": 1531,
      "æ²Ļ": 1532,
      "çİ°ä»£æĸĩ": 1533,
      "æľ¬ä¹¦": 1534,
      "å¼Ģå§ĭ": 1535,
      "å¯Ĵ": 1536,
      "éĿĴ": 1537,
      "åĢ¼": 1538,
      "è°ĥ": 1539,
      "åĲįåŃĹ": 1540,
      "æľĢé«ĺçļĦ": 1541,
      "è¯·ä½ł": 1542,
      "ç¿»è¯ĳæĪĲæĸĩè¨Ģæĸĩ": 1543,
      "äººä»¬": 1544,
      "ç©¿": 1545,
      "è®¤ä¸º": 1546,
      "ç¿»è¯ĳæĪĲçİ°ä»£æĸĩ": 1547,
      "è¿Ļéĥ¨çĶµå½±": 1548,
      "å½¢å®¹": 1549,
      "ä¸ĭéĿ¢çļĦåı¥åŃĲ": 1550,
      "æıĲåıĸåĩº": 1551,
      "åĨ°": 1552,
      "æ±¡æŁĵ": 1553,
      "åľ¨å®¶": 1554,
      "æ¯į": 1555,
      "ä¹ĭéĹ´": 1556,
      "æ¸ħæĻ°": 1557,
      "ä¸įéĶĻ": 1558,
      "éĺħ": 1559,
      "å°Ŀ": 1560,
      "æķ£æŃ¥": 1561,
      "ç»Ħç»ĩ": 1562,
      "æĶ¯": 1563,
      "ä¸Ģåı¥": 1564,
      "æ¯ıå¤©": 1565,
      "ä¸ĭèģĶ": 1566,
      "æĸĩæľ¬ä¸Ń": 1567,
      "ç»ĵæŀľ": 1568,
      "è¾ĥ": 1569,
      "åıĤåĬł": 1570,
      "éĻį": 1571,
      "é»ĳ": 1572,
      "ç¼ĸåĨĻ": 1573,
      "çīĽ": 1574,
      "é¹": 1575,
      "ä¸ŃçļĦå®ŀä½ĵ": 1576,
      "éĩİ": 1577,
      "æĿ¾": 1578,
      "åħ³ç³»åĪ¤æĸŃ": 1579,
      "ä¸Ńç«ĭçŃĶæ¡Ī": 1580,
      "æİ¨çĲĨåħ³ç³»åĪ¤æĸŃ": 1581,
      "AI": 1582,
      "åįĩ": 1583,
      "æŁĲ": 1584,
      "æĹ¶åĢĻ": 1585,
      "æŃ£éĿ¢": 1586,
      "å¾®": 1587,
      "å®ŀä½ĵè¯ĨåĪ«": 1588,
      "è®¸å¤ļ": 1589,
      "è¿Ļæĺ¯ä¸Ģ": 1590,
      "å¤ļå°ĳ": 1591,
      "è½¬æį¢": 1592,
      "å¾Ģ": 1593,
      "èħ": 1594,
      "æĪı": 1595,
      "æ°ĶåĢĻ": 1596,
      "å¤ĦçĲĨ": 1597,
      "ä½łå¥½": 1598,
      "äº«": 1599,
      "åıĸæ¶Ī": 1600,
      "ä»ĭç»į": 1601,
      "æīįèĥ½": 1602,
      "å°ıæĺİ": 1603,
      "éªĮ": 1604,
      "è¯ŃæĢģ": 1605,
      "ä¸įæĺ¯": 1606,
      "çŁ³": 1607,
      "ä»¥åıĬ": 1608,
      "éĢģ": 1609,
      "çļĦåįķè¯į": 1610,
      "åĬ¨è¯ŃæĢģ": 1611,
      "èº«ä½ĵ": 1612,
      "åħ¶ä¸Ń": 1613,
      "æ´²": 1614,
      "éĤ®": 1615,
      "æµİ": 1616,
      "å½Ĵ": 1617,
      "è§Ĵ": 1618,
      "éĿĻ": 1619,
      "çĦ¶åĲİ": 1620,
      "å°Ĩä»¥ä¸ĭ": 1621,
      "å¤©çļĦ": 1622,
      "âĢĿãĢĤ": 1623,
      "åįĪ": 1624,
      "çº¿": 1625,
      "æ³³": 1626,
      "å¯¼èĩ´": 1627,
      "åĩºå¤Ħ": 1628,
      "ç»Ļåĩºä¸Ģä¸ª": 1629,
      "è¿Ļæ®µ": 1630,
      "ä¸Ńæĸĩ": 1631,
      "è¡¨è¾¾äºĨ": 1632,
      "è¿İ": 1633,
      "ï¼Ľ": 1634,
      "å±ħ": 1635,
      "å¾ħ": 1636,
      "éĢĤåĲĪ": 1637,
      "æ°´æŀľ": 1638,
      "ä¹ĭä¸Ģ": 1639,
      "åıįä¹īè¯į": 1640,
      "éĺħè¯»": 1641,
      "æľºåĻ¨åŃ¦ä¹ł": 1642,
      "å°¼": 1643,
      "åĲ¸": 1644,
      "åĸĦ": 1645,
      "æĪĲè¯Ńåĩºå¤Ħ": 1646,
      "æľĿ": 1647,
      "æ¬¾": 1648,
      "çłģ": 1649,
      "æ½": 1650,
      "æĪĲä¸º": 1651,
      "çºłéĶĻ": 1652,
      "èģĮ": 1653,
      "åī§": 1654,
      "çĿ¡": 1655,
      "èĽĭ": 1656,
      "èŀ": 1657,
      "è·ĳæŃ¥": 1658,
      "ç«Ļ": 1659,
      "è®©æĪĳ": 1660,
      "åħħ": 1661,
      "æķ°åŃĹ": 1662,
      "åºľ": 1663,
      "æĸĩåĮĸ": 1664,
      "çķĻ": 1665,
      "èĻĳ": 1666,
      "æ£Ģ": 1667,
      "èĵĿ": 1668,
      "é¼": 1669,
      "èĥľ": 1670,
      "æ¸¸æ³³": 1671,
      "å±ŀäºİ": 1672,
      "ç»Ļå®ļä¸Ģä¸ª": 1673,
      "æİª": 1674,
      "å®ĥçļĦ": 1675,
      "æľĢåĸľæ¬¢": 1676,
      "ä¸ĭéĽ¨": 1677,
      "åĲįè¯į": 1678,
      "ä¸Ĭæµ·": 1679,
      "æĻļä¸Ĭ": 1680,
      "éģĩ": 1681,
      "å®³": 1682,
      "äºĨè§£": 1683,
      "äººçļĦ": 1684,
      "ä»įçĦ¶": 1685,
      "__": 1686,
      "è¿Ļå®¶": 1687,
      "åº§": 1688,
      "èĪŀ": 1689,
      "çĸ«": 1690,
      "ä¸Ģç¯ĩæĸĩç«ł": 1691,
      "ä¸Ģä»½": 1692,
      "å¿µ": 1693,
      "é¢ľ": 1694,
      "æ£Ĵ": 1695,
      "ä¸Ģç§į": 1696,
      "è¿Ļæĺ¯ä¸Ģä¸ª": 1697,
      "è¿Ļä¸ªéĹ®é¢ĺ": 1698,
      "æĻ´": 1699,
      "æ±ī": 1700,
      "éĶĢ": 1701,
      "æ»©": 1702,
      "é¥®é£Ł": 1703,
      "æ©": 1704,
      "æĤ¨éľĢè¦ģ": 1705,
      "çľ¼": 1706,
      "ç»ĥ": 1707,
      "è¿ŀ": 1708,
      "ç¾İä¸½": 1709,
      "åĵªéĩĮ": 1710,
      "æ¿": 1711,
      "åľ°çĤ¹": 1712,
      "çĶ±äºİå¤©æ°Ķ": 1713,
      "éĥ½æĺ¯": 1714,
      "å¯»": 1715,
      "åĿļ": 1716,
      "æĵ": 1717,
      "çīĮ": 1718,
      "ä»İæĸĩç«łä¸ŃæıĲåıĸåĩº": 1719,
      "çĵ": 1720,
      "æĪĳéľĢè¦ģ": 1721,
      "è¯įè¯Ń": 1722,
      "èĤī": 1723,
      "ä¼ļè®®": 1724,
      "ä½ľä¸º": 1725,
      "æµģçķħ": 1726,
      "éĴ±": 1727,
      "æĦıä¹ī": 1728,
      "æ¸©åº¦": 1729,
      "èĲ¥": 1730,
      "å¦Ĥæŀľä½ł": 1731,
      "ç¨ĭåºı": 1732,
      "ä½Ĩä»ĸ": 1733,
      "èŀį": 1734,
      "æīĭæľº": 1735,
      "åħ»": 1736,
      "èĩªå·±çļĦ": 1737,
      "è¿Ļæĺ¯": 1738,
      "ä¸Ģåıª": 1739,
      "éĺ³åħī": 1740,
      "æľ«": 1741,
      "æľĢé«ĺçļĦå±±": 1742,
      "çĶ¨æĪ·": 1743,
      "åĬ¿": 1744,
      "æ°Ķæ¸©": 1745,
      "åŃ¦çĶŁ": 1746,
      "æ±ĩ": 1747,
      "ä½³": 1748,
      "éĻħ": 1749,
      "æµª": 1750,
      "æĪĳæĹłæ³ķ": 1751,
      "æ±½": 1752,
      "ä¾ĭå¦Ĥ": 1753,
      "ç»Ī": 1754,
      "åħŃ": 1755,
      "è´¹": 1756,
      "éĽĨ": 1757,
      "ĥåľ": 1758,
      "ç¤¾ä¼ļ": 1759,
      "åĬŀ": 1760,
      "å¿Ļ": 1761,
      "çļĦä¸»é¢ĺ": 1762,
      "é¡»": 1763,
      "åŀĥåľ": 1764,
      "åŀĥåľ¾": 1765,
      "åĲ«ä¹ī": 1766,
      "ç¦ı": 1767,
      "éĺ²": 1768,
      "å¥ĩ": 1769,
      "çĶ·": 1770,
      "æ´ĭ": 1771,
      "æł¹æį®ä»¥ä¸ĭ": 1772,
      "æ¼«": 1773,
      "çĶ¨ä¸Ģåı¥è¯Ŀ": 1774,
      "çº½": 1775,
      "ç¬¬ä¸Ģ": 1776,
      "éĽª": 1777,
      "æıĲåĪ°": 1778,
      "è´ŁéĿ¢": 1779,
      "ä¼¤": 1780,
      "ç»ıæµİ": 1781,
      "å½¢å¼ı": 1782,
      "éĻĲ": 1783,
      "æģ¶": 1784,
      "çĸĳ": 1785,
      "èĶ": 1786,
      "çļĦäºĭ": 1787,
      "æĮīçħ§": 1788,
      "äº¤éĢļ": 1789,
      "ç½Ĺ": 1790,
      "çĤİ": 1791,
      "ä¹°äºĨ": 1792,
      "é¸¡": 1793,
      "çļĦå½±åĵį": 1794,
      "å®¤": 1795,
      "æĦŁè°¢": 1796,
      "æ·»": 1797,
      "åĽ°": 1798,
      "å¯Į": 1799,
      "ä¸ĬèģĶ": 1800,
      "ç¤¼": 1801,
      "çº½çº¦": 1802,
      "åĵĪ": 1803,
      "æĩĤ": 1804,
      "æİªæĸ½": 1805,
      "çļĦé£İæł¼": 1806,
      "æĭ¥": 1807,
      "ä¸Ģç»Ħ": 1808,
      "çļĦæĦıæĢĿ": 1809,
      "éĻĪ": 1810,
      "çºłæŃ£": 1811,
      "åĽłæŃ¤": 1812,
      "éĩĩ": 1813,
      "æĪĳåľ¨": 1814,
      "å¯Ĩ": 1815,
      "å½©": 1816,
      "æĺ¯ä¸Ģç§į": 1817,
      "æĬ¥éģĵ": 1818,
      "æ±½è½¦": 1819,
      "çŃĸ": 1820,
      "åŃ¦æł¡": 1821,
      "æĮĳ": 1822,
      "éº": 1823,
      "çİĽ": 1824,
      "å°Ŀè¯ķ": 1825,
      "åĽ´": 1826,
      "çĤ¼": 1827,
      "éĴŁ": 1828,
      "åª": 1829,
      "åĨĻè¯Ĺ": 1830,
      "çıł": 1831,
      "ä»·æł¼": 1832,
      "å¥¶": 1833,
      "çĸ¾": 1834,
      "æĥĬ": 1835,
      "ç¥¨": 1836,
      "æ¸¸æĪı": 1837,
      "è¯¦": 1838,
      "åħ¶ä¸ŃçļĦ": 1839,
      "æŁ¥è¯¢": 1840,
      "ä¸ĥ": 1841,
      "æİ¢ç´¢": 1842,
      "åħ«": 1843,
      "å®ĺ": 1844,
      "æ¶Īæŀģ": 1845,
      "æľ¨": 1846,
      "åĪļ": 1847,
      "æľĢé«ĺçļĦå±±å³°": 1848,
      "ç»ª": 1849,
      "æĺ¾": 1850,
      "éĤ®ä»¶": 1851,
      "æķĻèĤ²": 1852,
      "çĶŁæĪĲä¸Ģé¦ĸ": 1853,
      "å¹²": 1854,
      "äº²": 1855,
      "ä¼ģ": 1856,
      "åĨĻä¸Ģä¸ªæłĩé¢ĺ": 1857,
      "èīº": 1858,
      "æĥ³è¦ģ": 1859,
      "èľ": 1860,
      "æĪĳæĺ¨å¤©": 1861,
      "æĿĲ": 1862,
      "éĢĤå½ĵ": 1863,
      "æĪĳä»Ĭå¤©": 1864,
      "æ³¢": 1865,
      "åĪĽå»º": 1866,
      "ç»´": 1867,
      "çļĦä¸»è¦ģ": 1868,
      "è¿ĺæľīåħ¶ä»ĸ": 1869,
      "âĢĶ": 1870,
      "åĩĨç¡®": 1871,
      "çŃīçŃī": 1872,
      "èĲ¨": 1873,
      "ä»İæĸĩç«łä¸ŃæıĲåıĸ": 1874,
      "ç¼º": 1875,
      "æĭ¼åĨĻéĶĻè¯¯": 1876,
      "ä»Ĭå¤©å¤©æ°Ķ": 1877,
      "è¿Ļæľ¬ä¹¦": 1878,
      "çĶµè§Ĩ": 1879,
      "æł¹æį®æıĲä¾Ľ": 1880,
      "åİŁåĽł": 1881,
      "æĶ¹åıĺ": 1882,
      "æ°ĶåĢĻåıĺåĮĸ": 1883,
      "ç»ıå¸¸": 1884,
      "åħ·ä½ĵçļĦ": 1885,
      "æŃ£ç¡®çļĦ": 1886,
      "çľĭåĪ°": 1887,
      "èĢĥè¯ķ": 1888,
      "ç³ķ": 1889,
      "éŃ": 1890,
      "ä¹Ŀ": 1891,
      "çĽ®åīį": 1892,
      "åĩī": 1893,
      "åİŁå§ĭ": 1894,
      "é¾Ļ": 1895,
      "åıĳçĶŁ": 1896,
      "å¿«ä¹Ĳ": 1897,
      "åįļ": 1898,
      "ä½łåı¯ä»¥": 1899,
      "çº§": 1900,
      "éħį": 1901,
      "è¿½": 1902,
      "å¸Ĥåľº": 1903,
      "èİ·å¾Ĺ": 1904,
      "æĸĩä¸ŃæīĢæľīçļĦ": 1905,
      "åĿĲ": 1906,
      "æĬ½åıĸåĩºæĸĩä¸ŃæīĢæľīçļĦ": 1907,
      "æĬ½åıĸåĩºæĸĩä¸ŃæīĢæľīçļĦå®ŀä½ĵ": 1908,
      "åĽ½å®¶": 1909,
      "æ¿Ģ": 1910,
      "è£ħ": 1911,
      "å¥¥": 1912,
      "ä¸ĬçļĦ": 1913,
      "æĦŁè§ī": 1914,
      "åĪĿ": 1915,
      "æĤ¨åı¯ä»¥": 1916,
      "æĺĵäºİ": 1917,
      "è®¡ç®Ĺæľº": 1918,
      "ç¡®å®ļ": 1919,
      "æĸĩç«łä¸ŃçļĦ": 1920,
      "ä½įäºİ": 1921,
      "è¯Ĭ": 1922,
      "ç®ĢçŁŃçļĦ": 1923,
      "ç¬ĳè¯Ŀ": 1924,
      "å®īåħ¨": 1925,
      "ç¬¦åı·": 1926,
      "ä¸įå¥½": 1927,
      "æŃ»": 1928,
      "ãĢĤ'": 1929,
      "åį´": 1930,
      "æłĩçĤ¹": 1931,
      "è¯¦ç»Ĩ": 1932,
      "çĩ": 1933,
      "æĪĲä¸Ģä¸ª": 1934,
      "å²ģ": 1935,
      "Ġ\"": 1936,
      "ä¸ĵ": 1937,
      "ç³»ç»Ł": 1938,
      "çĪ±æĥħ": 1939,
      "å®£": 1940,
      "æ¥¼": 1941,
      "åħį": 1942,
      "åºŃ": 1943,
      "æĦī": 1944,
      "æĢ»æĺ¯": 1945,
      "æĲľ": 1946,
      "å¥¹çļĦ": 1947,
      "æ¹ĸ": 1948,
      "å¸Ŀ": 1949,
      "ç´¯": 1950,
      "çļĦè¯Ńè¨Ģ": 1951,
      "å¤ıå¤©": 1952,
      "æĻ®": 1953,
      "æŃĮæĽ²": 1954,
      "å¯¹äºİ": 1955,
      "ä¸¤ä¸ªåı¥åŃĲæĺ¯åĲ¦": 1956,
      "åķĬ": 1957,
      "èĪª": 1958,
      "é¡¹çĽ®": 1959,
      "èĳĹåĲį": 1960,
      "çīĪ": 1961,
      "è¡¨çİ°": 1962,
      "æ¤į": 1963,
      "æĶ¿åºľ": 1964,
      "äºĭä»¶": 1965,
      "åŃ¤": 1966,
      "ç®Ģæ´ģæĺİäºĨ": 1967,
      "æĸ°éĹ»æłĩé¢ĺ": 1968,
      "è´Ńçī©": 1969,
      "èĩªåĬ¨": 1970,
      "çļĦå¤©æ°Ķé¢ĦæĬ¥": 1971,
      "å½¢å®¹è¯į": 1972,
      "ä¸ĭæĸĩ": 1973,
      "ä¼Ĺ": 1974,
      "è¯·æıĲåıĸ": 1975,
      "äºĴ": 1976,
      "å°Ĩä¸ĭéĿ¢": 1977,
      "æĳĦ": 1978,
      "åİĭ": 1979,
      "éĺ¿": 1980,
      "äºī": 1981,
      "äºĨä¸Ģä¸ª": 1982,
      "å®Ŀ": 1983,
      "æĮĳæĪĺ": 1984,
      "å°ģ": 1985,
      "çł´": 1986,
      "çļĦè¯Ńä¹ī": 1987,
      "çĸ¾çĹħ": 1988,
      "çľŁçļĦ": 1989,
      "çĶµèĦĳ": 1990,
      "æķ°åŃ¦": 1991,
      "åĲĪéĢĤ": 1992,
      "éĿŀå¸¸å¥½": 1993,
      "è¯·éĹ®æĤ¨": 1994,
      "åĳ¨æľ«": 1995,
      "æ£ĢæŁ¥": 1996,
      "å°½ç®¡ä»ĸ": 1997,
      "è½¬æį¢ä¸º": 1998,
      "èĥ½åĬĽ": 1999,
      "æĬĬè¿Ļåı¥è¯Ŀ": 2000,
      "æ·»åĬł": 2001,
      "ä¸įçĶ¨": 2002,
      "é¢ľèī²": 2003,
      "ç¾İåĳ³": 2004,
      "åĬ¨è¯į": 2005,
      "è°¢è°¢ä½łçļĦ": 2006,
      "åħ¸": 2007,
      "åĨł": 2008,
      "æ¬¢è¿İ": 2009,
      "ä¸´": 2010,
      "è¯ģ": 2011,
      "å¾ĭ": 2012,
      "çľģ": 2013,
      "åĩºçİ°": 2014,
      "å®¢æ°Ķ": 2015,
      "éĶ»": 2016,
      "åŃĺåľ¨åĵªäºĽ": 2017,
      "æľīè¶£çļĦ": 2018,
      "ä½ı": 2019,
      "åĽ¢": 2020,
      "ä½ĨæĪĳ": 2021,
      "è¶³çĲĥ": 2022,
      "è§£éĩĬ": 2023,
      "åŃĺåľ¨åĵªäºĽå®ŀä½ĵ": 2024,
      "éĶ»çĤ¼": 2025,
      "00": 2026,
      "æĶ¹åĨĻä¸º": 2027,
      "æ°ı": 2028,
      "åĩĨå¤ĩ": 2029,
      "è´¨éĩı": 2030,
      "èĥ½æºĲ": 2031,
      "ä¸ĭåĪĹåı¥åŃĲ": 2032,
      "è¿Ł": 2033,
      "ä¸ĸçķĮä¸ĬæľĢé«ĺçļĦå±±å³°": 2034,
      "éĶĻåĪ«": 2035,
      "å¿ħé¡»": 2036,
      "çĶµåŃĲ": 2037,
      "éĶĻåĪ«åŃĹ": 2038,
      "ç¹": 2039,
      "åĲĪå¹¶": 2040,
      "è§īå¾Ĺ": 2041,
      "çĨĬ": 2042,
      "ç»Ļå®ļçļĦæĸĩæľ¬": 2043,
      "çļĦä¸Ģ": 2044,
      "è¯·ä¸º": 2045,
      "èĩªçĦ¶è¯Ńè¨Ģ": 2046,
      "å¦ĤæŀľæĤ¨": 2047,
      "åĪ¤æĸŃä¸ĭéĿ¢": 2048,
      "ä¸ľè¥¿": 2049,
      "æĥħç»ª": 2050,
      "ä¸įä¼ļ": 2051,
      "è¯įæ±ĩ": 2052,
      "çĹĩ": 2053,
      "åĩłä¸ª": 2054,
      "åĪ»": 2055,
      "ï¼ļ'": 2056,
      "åİŁåı¥": 2057,
      "çĽ¸åħ³çļĦ": 2058,
      "æłĩçĤ¹ç¬¦åı·": 2059,
      "æīĢåľ¨": 2060,
      "åĿĩ": 2061,
      "ç±»åĪ«": 2062,
      "è¿Ľè¡ĮæĶ¹åĨĻ": 2063,
      "éĩĳèŀį": 2064,
      "..": 2065,
      "çĽ¸åĲĮçļĦè¯Ńä¹ī": 2066,
      "åį°": 2067,
      "é£ĺ": 2068,
      "åĪ¤æĸŃä¸ĭéĿ¢ä¸¤ä¸ªåı¥åŃĲæĺ¯åĲ¦": 2069,
      "åĶ±": 2070,
      "è¡¨è¾¾äºĨçĽ¸åĲĮçļĦè¯Ńä¹ī": 2071,
      "åĪ¤æĸŃä¸ĭéĿ¢ä¸¤ä¸ªåı¥åŃĲæĺ¯åĲ¦è¡¨è¾¾äºĨçĽ¸åĲĮçļĦè¯Ńä¹ī": 2072,
      "èŃ": 2073,
      "ç¾İé£Ł": 2074,
      "è§ĤçĤ¹": 2075,
      "å¤«": 2076,
      "èĮĥ": 2077,
      "èĿ": 2078,
      "åľ°åĮº": 2079,
      "åĸľæ¬¢åĲĥ": 2080,
      "æ¯Ķå¦Ĥ": 2081,
      "åį¡": 2082,
      "æľĢå¤§çļĦ": 2083,
      "å¹»": 2084,
      "æĺĵäºİçĲĨè§£": 2085,
      "çģµ": 2086,
      "è´Ńä¹°": 2087,
      "æĿĤ": 2088,
      "çİī": 2089,
      "ç¼ĸè¾ĳä»¥ä¸ĭåı¥åŃĲ": 2090,
      "æ³¨æĦı": 2091,
      "è´µ": 2092,
      "å¼łä¸ī": 2093,
      "èĶ¬": 2094,
      "ç¼ĸç¨ĭ": 2095,
      "ä¹ħ": 2096,
      "å¸¦æĿ¥": 2097,
      "çĽĬ": 2098,
      "ç¬Ķ": 2099,
      "ä½ľèĢħ": 2100,
      "åħ´è¶£": 2101,
      "ï¼ŁâĢĿ": 2102,
      "æĺ¨æĻļ": 2103,
      "éĵ¶": 2104,
      "åı«": 2105,
      "è¯ĬæĸŃ": 2106,
      "åĨ¬": 2107,
      "çĽĽ": 2108,
      "åıĺæļĸ": 2109,
      "è¶ħå¸Ĥ": 2110,
      "ä½įç½®": 2111,
      "èķī": 2112,
      "åĶ®": 2113,
      "å¨ģ": 2114,
      "ç»§": 2115,
      "æĶ¹åĨĻæĪĲ": 2116,
      "éĤ£ä¸ª": 2117,
      "åħ¬åı¸çļĦ": 2118,
      "èĭ±æĸĩ": 2119,
      "æĺĵæĩĤ": 2120,
      "è·³": 2121,
      "è¢«åĬ¨è¯ŃæĢģ": 2122,
      "æ¼Ĥ": 2123,
      "èĴ": 2124,
      "å·¦": 2125,
      "èģª": 2126,
      "é¤ĲåİħçļĦ": 2127,
      "æĪĳæ²¡æľī": 2128,
      "æĸĩæľ¬ä¸ŃçļĦ": 2129,
      "æĥħæĦŁåĪĨæŀĲ": 2130,
      "æĹ¨": 2131,
      "å¾ģ": 2132,
      "åĪĹè¡¨": 2133,
      "æĲľç´¢": 2134,
      "åŃ©åŃĲ": 2135,
      "èĹ": 2136,
      "æĬ¥åĳĬ": 2137,
      "ä¼¦": 2138,
      "å¼Ĥ": 2139,
      "åįĬ": 2140,
      "äººå·¥æĻºèĥ½åľ¨": 2141,
      "æł¹æį®ç»Ļå®ļçļĦæĸĩæľ¬": 2142,
      "å©": 2143,
      "å¿ĺ": 2144,
      "çļĦæľĢ": 2145,
      "åľŁ": 2146,
      "æ¯Ķè¾ĥ": 2147,
      "åĮ»çĶŁ": 2148,
      "ä¸Ńå¿ĥ": 2149,
      "æĬķ": 2150,
      "ä¾Ŀ": 2151,
      "ãĢĤ\"<|": 2152,
      "é¦Ļèķī": 2153,
      "çļĦæĺ¯": 2154,
      "ç»Ļå®ļä¸Ģä¸ªåı¥åŃĲ": 2155,
      "å°±æĺ¯": 2156,
      "æĽ¾": 2157,
      "éĨĴ": 2158,
      "ä»¥ä¾¿": 2159,
      "åĿļæĮģ": 2160,
      "æĹ¥æľŁ": 2161,
      "é»İ": 2162,
      "äºĶè¨Ģ": 2163,
      "åĲĽ": 2164,
      "å¹¸": 2165,
      "åĪĽä½ľ": 2166,
      "ç©Ĩ": 2167,
      "é¡¿": 2168,
      "èĶ¬èıľ": 2169,
      "æľīå¾Īå¤ļ": 2170,
      "ç¹ģ": 2171,
      "å·®": 2172,
      "åıĮ": 2173,
      "åĲ¹": 2174,
      "åĤ": 2175,
      "èį¯": 2176,
      "èģĬå¤©": 2177,
      "æĢ»ç»Ł": 2178,
      "èī¯": 2179,
      "çī¹åĪ«": 2180,
      "æľĢåĸľæ¬¢çļĦ": 2181,
      "ä¹¡": 2182,
      "ä¸ĢçĽ´": 2183,
      "ä»¤äºº": 2184,
      "å½ĵåľ°": 2185,
      "å°½åĬĽ": 2186,
      "çŁ¥è¯Ĩ": 2187,
      "è¶ħè¿ĩ": 2188,
      "ç»ŃåĨĻåı¤è¯Ĺ": 2189,
      "é²ľ": 2190,
      "é¢ĳ": 2191,
      "å½ķ": 2192,
      "æĽ´æŃ£": 2193,
      "è·Ł": 2194,
      "ä¸įåĲĮçļĦ": 2195,
      "è®¨è®º": 2196,
      "åĨľ": 2197,
      "å°ıæĹ¶": 2198,
      "åĪĹåĩº": 2199,
      "åĵģçīĮ": 2200,
      "æĦ¿": 2201,
      "åģľ": 2202,
      "èĸ": 2203,
      "åı³": 2204,
      "åĵ¦": 2205,
      "æĺ¯çļĦ": 2206,
      "æĶ¹ä¸º": 2207,
      "æĭ¿": 2208,
      "æĻ¯çĤ¹": 2209,
      "èĪĴ": 2210,
      "é©¾": 2211,
      "å¼ĢæĶ¾": 2212,
      "è¿Ļæł·": 2213,
      "è¡£æľį": 2214,
      "æī¾åĩº": 2215,
      "èĢĥèĻĳ": 2216,
      "æĬ«": 2217,
      "çĸ²": 2218,
      "éĥ¨åĪĨ": 2219,
      "èģªæĺİ": 2220,
      "æĹ¥æľ¬": 2221,
      "éĵģ": 2222,
      "æ¯Ľ": 2223,
      "è¯Ħä»·": 2224,
      "åı¤è¯ĹçĶŁæĪĲ": 2225,
      "æĺŁæľŁ": 2226,
      "è¡Ĺ": 2227,
      "åı¦": 2228,
      "è¯Ŀé¢ĺ": 2229,
      "ä»¿": 2230,
      "ä¸¥": 2231,
      "è¯¾": 2232,
      "èģļ": 2233,
      "èĭ±è¯Ń": 2234,
      "çļĦåħ³éĶ®è¯į": 2235,
      "å¢ŀåĬł": 2236,
      "ç©ºæ°Ķ": 2237,
      "çļĦçŃĶæ¡Ī": 2238,
      "åĩ»": 2239,
      "æ³Ľ": 2240,
      "å½ĵåīį": 2241,
      "åħ¨çĲĥåıĺæļĸ": 2242,
      "ä¸ºæĤ¨æıĲä¾Ľ": 2243,
      "æĢİä¹Īæł·": 2244,
      "è¿ĩåİ»": 2245,
      "ä»£çłģ": 2246,
      "ç¥Ŀ": 2247,
      "åģ¥èº«": 2248,
      "çªģ": 2249,
      "æĿĳ": 2250,
      "ä¹ĭéĹ´çļĦ": 2251,
      "å¿Ĺ": 2252,
      "æ²¹": 2253,
      "è½¯": 2254,
      "å®ŀçİ°": 2255,
      "çī¹å®ļ": 2256,
      "éĹ®åı¥": 2257,
      "ä¸Ģæ®µæĸĩæľ¬": 2258,
      "æľºåĻ¨äºº": 2259,
      "çļĦä¸»": 2260,
      "çĥŁ": 2261,
      "è®¢": 2262,
      "å¤©æ°Ķé¢ĦæĬ¥": 2263,
      "éĢļå¸¸": 2264,
      "çĽ¸åıį": 2265,
      "æµ·æ»©": 2266,
      "åĹ": 2267,
      "æĸĩæľ¬éĶĻè¯¯": 2268,
      "æĸ°éĹ»æĬ¥éģĵ": 2269,
      "çļĦæĹ¶åĢĻ": 2270,
      "è¿Ļé¦ĸ": 2271,
      "ä»Ĭå¤©çļĦå¤©æ°Ķ": 2272,
      "åĪĽå»ºä¸Ģä¸ª": 2273,
      "æŃ¢": 2274,
      "ä¼ģä¸ļ": 2275,
      "æĽ´å¥½": 2276,
      "æħ¢": 2277,
      "å¤§åĪ©": 2278,
      "å·§åħĭ": 2279,
      "ç§ĺ": 2280,
      "å·§åħĭåĬĽ": 2281,
      "å®ľ": 2282,
      "ç§Ģ": 2283,
      "ç»ĻæĪĳä¸Ģä¸ª": 2284,
      "éĩįæĸ°ç¼ĸåĨĻ": 2285,
      "ä»İè¿Ļç¯ĩæĸĩç«łä¸ŃæıĲåıĸåĩº": 2286,
      "æ°¸": 2287,
      "è¡ĮæĺŁ": 2288,
      "éĻĦ": 2289,
      "è®ºæĸĩ": 2290,
      "æ²»çĸĹ": 2291,
      "çĶľ": 2292,
      "çıłç©Ĩ": 2293,
      "çıłç©ĨæľĹ": 2294,
      "å¯¹èģĶ": 2295,
      "è®¾è®¡": 2296,
      "åĪ¶ä½ľ": 2297,
      "äº«åıĹ": 2298,
      "æľīåĵªäºĽ": 2299,
      "çİĽå³°": 2300,
      "çıłç©ĨæľĹçİĽå³°": 2301,
      "çļĦéĩįè¦ģ": 2302,
      "åı¤è¯Ĺç»ŃåĨĻ": 2303,
      "åľ¨å®¶éĩĮ": 2304,
      "é¢Ħæµĭ": 2305,
      "åĪĩ": 2306,
      "éĿŀå¸¸æĦŁè°¢": 2307,
      "çļĦåŁİå¸Ĥ": 2308,
      "æµ·æ´ĭ": 2309,
      "æİ§": 2310,
      "ï¼ļãĢĬ": 2311,
      "çĻ»": 2312,
      "æĮģç»Ń": 2313,
      "åħ¬åĽŃéĩĮ": 2314,
      "æĮĩå®ļ": 2315,
      "æŃ¦": 2316,
      "ä½Ļ": 2317,
      "å±Ģ": 2318,
      "çĽ®æłĩ": 2319,
      "åĳ¼": 2320,
      "åħ°": 2321,
      "éĽħ": 2322,
      "å¥ĭ": 2323,
      "æĭĶ": 2324,
      "åĲĮæĹ¶": 2325,
      "æ¼Ĥäº®": 2326,
      "å°ļ": 2327,
      "æıĲåĩº": 2328,
      "åıĺå¾Ĺ": 2329,
      "éĩįæĸ°åĨĻ": 2330,
      "æ¶ĪæŀģçŃĶæ¡Ī": 2331,
      "æĹ§": 2332,
      "ç®¡çĲĨ": 2333,
      "å·´é»İ": 2334,
      "é©¶": 2335,
      "ä»ĸä»¬çļĦ": 2336,
      "æľīæķĪ": 2337,
      "ç¬¬äºĮ": 2338,
      "èĩªçĦ¶è¯Ńè¨Ģå¤ĦçĲĨ": 2339,
      "ç³ĸ": 2340,
      "æķĳ": 2341,
      "åĺ": 2342,
      "è¦ģåİ»": 2343,
      "ç®Ģæĺİ": 2344,
      "çĶ¨äºİ": 2345,
      "å¤§åŃ¦": 2346,
      "ç¯®": 2347,
      "æ©Ļ": 2348,
      "âĢĿãĢĤ<|": 2349,
      "å¹¶ä¸Ķ": 2350,
      "äººå·¥æĻºèĥ½çļĦ": 2351,
      "å®«": 2352,
      "æ²ī": 2353,
      "ç±į": 2354,
      "åı¤ä»£": 2355,
      "è°¢è°¢ä½ł": 2356,
      "ä»ĸåľ¨": 2357,
      "èĮ¶": 2358,
      "ä¹°äºĨä¸Ģ": 2359,
      "å°Ĩä»¥ä¸ĭæĸĩæľ¬": 2360,
      "ç»ĵæŀĦ": 2361,
      "è´£": 2362,
      "æļ´": 2363,
      "è¿ĻéĩĮ": 2364,
      "åľºæĻ¯": 2365,
      "è¸": 2366,
      "ä¸Ģæ¬¡": 2367,
      "ä¼ĳ": 2368,
      "æĭ¥æľī": 2369,
      "ä¸ĭæĿ¥": 2370,
      "é¡ºåºı": 2371,
      "åĬ£": 2372,
      "ä¸ºä»¥ä¸ĭ": 2373,
      "éľĢæ±Ĥ": 2374,
      "èª": 2375,
      "åĢĭ": 2376,
      "åĽłä¸ºå¤©æ°Ķ": 2377,
      "ç±»åŀĭçļĦ": 2378,
      "åĲ¸å¼ķ": 2379,
      "åĭĩ": 2380,
      "æł¹æį®è¾ĵåħ¥": 2381,
      "æĪĳåİ»": 2382,
      "å¥ĸ": 2383,
      "éĢĤå½ĵçļĦ": 2384,
      "å¯¹ä»¥ä¸ĭåı¥åŃĲ": 2385,
      "é£Łåĵģ": 2386,
      "æĪĳéĿŀå¸¸": 2387,
      "çĥ¤": 2388,
      "åĪĽæĦı": 2389,
      "æĤ²": 2390,
      "ç¾¤": 2391,
      "æ¸Ĳ": 2392,
      "æĸ¹æ¡Ī": 2393,
      "æİĴåĪĹ": 2394,
      "åĨĴ": 2395,
      "èĭ¦": 2396,
      "ä½¿å¾Ĺ": 2397,
      "æ¯Ĵ": 2398,
      "æĸĩç«łä¸ŃæıĲåĪ°": 2399,
      "åŁºäºİ": 2400,
      "åį«": 2401,
      "çŃ¾": 2402,
      "çķ¥": 2403,
      "çĽ¸ä¼¼": 2404,
      "æĪĳå°Ĩ": 2405,
      "èĩªçĶ±": 2406,
      "è¿Ķ": 2407,
      "çĽĳ": 2408,
      "ç´§": 2409,
      "çªĹ": 2410,
      "æĶ¹æŃ£": 2411,
      "ä¸ĢæĿ¡": 2412,
      "å®Įæķ´": 2413,
      "ä½łèĥ½å¸®æĪĳ": 2414,
      "ä¸°": 2415,
      "æĺ¯åľ¨": 2416,
      "è®Ń": 2417,
      "èīºæľ¯": 2418,
      "æĦīå¿«": 2419,
      "Ġå¥½çļĦ": 2420,
      "è¾Ĩ": 2421,
      "çºª": 2422,
      "åŃĹæ¯į": 2423,
      "è¡ĮåĬ¨": 2424,
      "æĪĳæŃ£åľ¨": 2425,
      "åĪĽéĢł": 2426,
      "GP": 2427,
      "çļĦåħ³éĶ®": 2428,
      "çĪ¶": 2429,
      "åĶĲ": 2430,
      "åħµ": 2431,
      "æ´¾": 2432,
      "äººå·¥æĻºèĥ½æĬĢæľ¯": 2433,
      "æľīä¸Ģä¸ª": 2434,
      "ä¸Ģå®ļ": 2435,
      "éľ²": 2436,
      "GPT": 2437,
      "çĶŁåĳ½": 2438,
      "è¿Ļç§į": 2439,
      "æĪ¿éĹ´": 2440,
      "è´¥": 2441,
      "çģ¾": 2442,
      "çĹĽ": 2443,
      "å®Ī": 2444,
      "äº§çĶŁ": 2445,
      "ç½ĳç«Ļ": 2446,
      "ç§ĳåŃ¦å®¶": 2447,
      "ä¸ºä¸Ģç¯ĩ": 2448,
      "å·¨": 2449,
      "æĬ«èĲ¨": 2450,
      "æģĲ": 2451,
      "ç¤¾äº¤": 2452,
      "éŀ": 2453,
      "èĥĮ": 2454,
      "åı£åı·": 2455,
      "å¾ĹåĪ°": 2456,
      "ç»§ç»Ń": 2457,
      "å®¶åºŃ": 2458,
      "å¡ĳ": 2459,
      "ä¸ĭåįĪ": 2460,
      "Ġ-": 2461,
      "çļĩ": 2462,
      "å°ıçĭĹ": 2463,
      "è°·": 2464,
      "å¹¿æ³Ľ": 2465,
      "ä¹³": 2466,
      "èģĶç³»": 2467,
      "è¿·": 2468,
      "çīĽå¥¶": 2469,
      "æ¬§": 2470,
      "æģ¶åĬ£": 2471,
      "ä¼´": 2472,
      "çŁŃæĸĩ": 2473,
      "ä¸Ģæľ¬": 2474,
      "è·Ŀ": 2475,
      "éĹŃ": 2476,
      "ï¼ļ\"": 2477,
      "è¯Ńè¨Ģæ¨¡åŀĭ": 2478,
      "å¹¿åĳĬ": 2479,
      "åıĸæ¶ĪäºĨ": 2480,
      "åĪĺ": 2481,
      "åĲĦç§į": 2482,
      "æĢ§çļĦ": 2483,
      "å¯»æī¾": 2484,
      "ä¸ºç»Ļå®ļçļĦ": 2485,
      "å¤©ç©º": 2486,
      "åĬŁèĥ½": 2487,
      "çĸ«æĥħ": 2488,
      "åºĬ": 2489,
      "å®¹æĺĵ": 2490,
      "æĺ¯åĵª": 2491,
      "çĶŁæĹ¥": 2492,
      "æĬĢå·§": 2493,
      "ä»Ģä¹Īæĺ¯": 2494,
      "æŀĿ": 2495,
      "ç¿°": 2496,
      "æıĲåĪ°äºĨ": 2497,
      "éĩįè¦ģçļĦ": 2498,
      "èŃ¦": 2499,
      "åºķ": 2500,
      "çĶŁæĪĲä¸Ģä¸ªæłĩé¢ĺ": 2501,
      "è¯¥åı¥åŃĲ": 2502,
      "åĿĹ": 2503,
      "åı¯çĪ±": 2504,
      "ç§ĳå¹»": 2505,
      "å¤ıåŃ£": 2506,
      "æ¼Ķåĳĺ": 2507,
      "åĪł": 2508,
      "éĿ©": 2509,
      "çľł": 2510,
      "éģ¿": 2511,
      "éģį": 2512,
      "æĪĳæĥ³çŁ¥éģĵ": 2513,
      "çĤİçĥŃ": 2514,
      "è©": 2515,
      "æ¯ıä¸ª": 2516,
      "äºĶä¸ª": 2517,
      "æ¬²": 2518,
      "æ±ł": 2519,
      "çļĦåºĶçĶ¨é¢ĨåŁŁ": 2520,
      "ä»ĸå¾Ī": 2521,
      "50": 2522,
      "åĸ»": 2523,
      "å¸®æĤ¨": 2524,
      "æĻ´æľĹ": 2525,
      "å´": 2526,
      "çŃĳ": 2527,
      "æ¨¡ä»¿": 2528,
      "æĸĩæľ¬çºłéĶĻ": 2529,
      "çº³": 2530,
      "çĥĪ": 2531,
      "æ·ĭ": 2532,
      "æĿ¡ä»¶": 2533,
      "æľīäºĽ": 2534,
      "è°ĵ": 2535,
      "æ¤įçī©": 2536,
      "éĩįåĨĻä¸º": 2537,
      "èĻļ": 2538,
      "çĶŁçī©": 2539,
      "æĽ´å¤ļçļĦ": 2540,
      "ä¸Ģä½į": 2541,
      "å®ł": 2542,
      "æł·çļĦ": 2543,
      "æĿĥ": 2544,
      "è¯·éļıæĹ¶": 2545,
      "éĴĪ": 2546,
      "æĪ·å¤ĸ": 2547,
      "å®ĩ": 2548,
      "æĢĢ": 2549,
      "ç¼ĵ": 2550,
      "çī©åĵģ": 2551,
      "çļĦæĸ°": 2552,
      "ä»ĺ": 2553,
      "è¡Įä¸ļ": 2554,
      "éªĳ": 2555,
      "éĻĪè¿°": 2556,
      "æĦıå¤§åĪ©": 2557,
      "åĳ½åĲį": 2558,
      "è¯¢éĹ®": 2559,
      "æĬ½åıĸåĩºæĸĩä¸ŃæīĢæľīçļĦå®ŀä½ĵä¸įåŃĺåľ¨å®ŀä½ĵ": 2560,
      "æĺ¯å¤ļå°ĳ": 2561,
      "åģı": 2562,
      "åĪ©çĶ¨": 2563,
      "çļĦåĲĮä¹īè¯į": 2564,
      "ä¸įå®¢æ°Ķ": 2565,
      "é£İéĻ©": 2566,
      "éĢĲ": 2567,
      "æĻ¨": 2568,
      "çļ®": 2569,
      "åĬ³": 2570,
      "éĩįè¿°": 2571,
      "èĢĮä¸Ķ": 2572,
      "æĪĳåĸľæ¬¢åĲĥ": 2573,
      "å¡Ķ": 2574,
      "åħħæ»¡": 2575,
      "éĶĢåĶ®": 2576,
      "ç¯®çĲĥ": 2577,
      "èµĦæºĲ": 2578,
      "éĩİé¤Ĳ": 2579,
      "éĩĩåıĸ": 2580,
      "åľ°æĸ¹": 2581,
      "éľĢè¦ģæĪĳ": 2582,
      "æµĭè¯ķ": 2583,
      "ä»ħ": 2584,
      "ç»Ŀåı¥": 2585,
      "æĽ´ç®Ģæ´ģ": 2586,
      "èĭı": 2587,
      "ç»ľ": 2588,
      "éľľ": 2589,
      "è§£çŃĶ": 2590,
      "è¶ĭ": 2591,
      "è¡Įä¸º": 2592,
      "ä¸ĭéĿ¢è¿Ļä¸ªåı¥åŃĲ": 2593,
      "è®©äºº": 2594,
      "åĪº": 2595,
      "ä¸Ĭæĸĩ": 2596,
      "æµ·æĭĶ": 2597,
      "åĲ¬èµ·æĿ¥": 2598,
      "å¹¶è¾ĵåĩº": 2599,
      "å¤ªéĺ³ç³»": 2600,
      "çļĦåľ°æĸ¹": 2601,
      "é½": 2602,
      "åİ»åħ¬åĽŃ": 2603,
      "ä¸Ģå®¶": 2604,
      "çĶŁäº§": 2605,
      "èĥ½åĲ¦": 2606,
      "âĢĿï¼Į": 2607,
      "æ¾": 2608,
      "éĽ¶": 2609,
      "ãĢĤâĢľ": 2610,
      "æĥħèĬĤ": 2611,
      "çº¢èī²": 2612,
      "å®Ĺ": 2613,
      "æł¸": 2614,
      "ä¸Ĭè¿°": 2615,
      "èĻİ": 2616,
      "å¡«": 2617,
      "âĢ¦": 2618,
      "è´¢": 2619,
      "æĺł": 2620,
      "åı¯èĥ½ä¼ļ": 2621,
      "ä¹ĺ": 2622,
      "ç§ĭå¤©": 2623,
      "çļĦäºĭæĥħ": 2624,
      "ä¸Ģéĥ¨": 2625,
      "èİ·åıĸ": 2626,
      "åŃ£èĬĤ": 2627,
      "æĽ°": 2628,
      "æİī": 2629,
      "æľĢå¥½çļĦ": 2630,
      "æĶ¯æĮģ": 2631,
      "çīĻ": 2632,
      "åĽŀå®¶": 2633,
      "æĽ´ç®Ģåįķ": 2634,
      "è¿Ľè¡ĮçºłéĶĻ": 2635,
      "çľŁæĺ¯": 2636,
      "çļĦæĸ¹æ³ķ": 2637,
      "çĶ°": 2638,
      "èĳĹåĲįçļĦ": 2639,
      "ä½ľçĶ¨": 2640,
      "èİĵ": 2641,
      "é©¾é©¶": 2642,
      "19": 2643,
      "ä½ľåĵģ": 2644,
      "éĺ´": 2645,
      "æĸ¹éĿ¢çļĦ": 2646,
      "å»¶": 2647,
      "çİ°åľ¨è¯·ä½ł": 2648,
      "åĮ»çĸĹé¢ĨåŁŁ": 2649,
      "æĦŁåĪ°éĿŀå¸¸": 2650,
      "æľīçĤ¹": 2651,
      "çĬ¶åĨµ": 2652,
      "éĢŁåº¦": 2653,
      "æ£®": 2654,
      "çĶŁæĢģ": 2655,
      "çļĦåĲ«ä¹ī": 2656,
      "æĪĳåİ»äºĨ": 2657,
      "èĤ¡": 2658,
      "åĮ»åŃ¦": 2659,
      "å®¾": 2660,
      "éļĲ": 2661,
      "æĴŃ": 2662,
      "å¿Ĩ": 2663,
      "è·Ŀç¦»": 2664,
      "è°Ī": 2665,
      "éĤ£éĩĮ": 2666,
      "èİ«": 2667,
      "è¯·éĹ®ä½ł": 2668,
      "è¿Ļå®¶é¤ĲåİħçļĦ": 2669,
      "éĻĦè¿ĳ": 2670,
      "çļĦåĲįç§°": 2671,
      "æ¢ħ": 2672,
      "åĽ¾ä¹¦": 2673,
      "84": 2674,
      "åķĨåĵģ": 2675,
      "åªĴ": 2676,
      "çļĦé¦ĸ": 2677,
      "æ³°": 2678,
      "æĳĦæ°ı": 2679,
      "æĽ´å¥½åľ°": 2680,
      "åį±": 2681,
      "åĪłéĻ¤": 2682,
      "äººçī©": 2683,
      "è´§": 2684,
      "å¹´çļĦ": 2685,
      "å¯Ĥ": 2686,
      "ä¹İ": 2687,
      "è®¿": 2688,
      "åĩºéĹ¨": 2689,
      "éĿ¢åĮħ": 2690,
      "åĲĥäºĨ": 2691,
      "ä¸ºä¸Ģä¸ª": 2692,
      "æµĵ": 2693,
      "çĶµè¯Ŀ": 2694,
      "åľĨ": 2695,
      "é¢Ŀ": 2696,
      "ä¸ºäºĨ": 2697,
      "åĵº": 2698,
      "åĽ½éĻħ": 2699,
      "å·Ŀ": 2700,
      "å²Ľ": 2701,
      "è¯Ńåı¥": 2702,
      "å¯¹æĸĩæľ¬éĶĻè¯¯": 2703,
      "çº¦ç¿°": 2704,
      "å°½ç®¡å¤©æ°Ķ": 2705,
      "å¯¹æĸĩæľ¬éĶĻè¯¯è¿Ľè¡Į": 2706,
      "å¾ĪæĬ±æŃī": 2707,
      "éģĹ": 2708,
      "èĦī": 2709,
      "å¯ĴåĨ·": 2710,
      "è¿ĶåĽŀ": 2711,
      "ä¸ŃæĢ§": 2712,
      "èµı": 2713,
      "ç±»ä¼¼": 2714,
      "å®ģ": 2715,
      "åĽ°éļ¾": 2716,
      "åĵ¥": 2717,
      "èĭ¥": 2718,
      "å°Ħ": 2719,
      "å¹½": 2720,
      "éĹ®æĪĳ": 2721,
      "ç¾İä¸½çļĦ": 2722,
      "ä¸ĢæĿ¯": 2723,
      "ç»©": 2724,
      "éĹ²": 2725,
      "éķ¿çļĦ": 2726,
      "è¿Ļæĺ¯ä¸Ģç¯ĩ": 2727,
      "åĢĴ": 2728,
      "æ¯Ķåĸ»": 2729,
      "ä¹¦ç±į": 2730,
      "åİĭåĬĽ": 2731,
      "çļĦæĥħæĦŁ": 2732,
      "çº·": 2733,
      "åĪĨåĪ«": 2734,
      "åĿ¦": 2735,
      "çĮ®": 2736,
      "åĵºä¹³": 2737,
      "æĿ¿": 2738,
      "æĶ¾æĿ¾": 2739,
      "ç½ĳç»ľ": 2740,
      "å®łçī©": 2741,
      "æĪĳå¾Īé«ĺåħ´": 2742,
      "å»ºçŃĳ": 2743,
      "ä¸ºä½ł": 2744,
      "ç§ĭå¤©çļĦ": 2745,
      "å¦Ī": 2746,
      "ä¸ºä»¥ä¸ĭåı¥åŃĲ": 2747,
      "åĪ°è¾¾": 2748,
      "æĸ°éĹ»æĸĩç«ł": 2749,
      "é£İåĲ¹": 2750,
      "èĪ¬": 2751,
      "çĵľ": 2752,
      "ä½ĵéªĮ": 2753,
      "åįģåĪĨ": 2754,
      "æıĲç¤º": 2755,
      "å¯¹è¯Ŀ": 2756,
      "æķ¦": 2757,
      "æĭŁ": 2758,
      "è¡¨ç¤º": 2759,
      "ä¸įæĸŃ": 2760,
      "å®ļä¹ī": 2761,
      "éŀĭ": 2762,
      "è¶ĭåĬ¿": 2763,
      "è¡¡": 2764,
      "æ¡¥": 2765,
      "å¿ĥçĲĨ": 2766,
      "é¤Ĳé¦Ĩ": 2767,
      "çĳľ": 2768,
      "âĢĶâĢĶ": 2769,
      "å¡ĳæĸĻ": 2770,
      "åİ¿": 2771,
      "æľĢæĸ°": 2772,
      "æīĵç®Ĺ": 2773,
      "ä¸ĸçķĮä¸ĬæľĢ": 2774,
      "ä»ĸåĸľæ¬¢": 2775,
      "æĶ¹åĨĻä»¥ä¸ĭåı¥åŃĲ": 2776,
      "åĨĻä½ľ": 2777,
      "æ´Ĺ": 2778,
      "å¼Ģå¿ĥ": 2779,
      "è¡Ģ": 2780,
      "ä¸įè¦ģ": 2781,
      "ä¼½": 2782,
      "æĤ¦": 2783,
      "ä»Ĭå¤©çļĦ": 2784,
      "æĿĢ": 2785,
      "çĬ¯": 2786,
      "æķĪçİĩ": 2787,
      "å°Ĩåħ¶ä¸ŃçļĦ": 2788,
      "ä¸»åĬ¨è¯ŃæĢģ": 2789,
      "æł¹æį®ç»Ļå®ļçļĦåı¥åŃĲ": 2790,
      "æĪĳä¸įçŁ¥éģĵ": 2791,
      "æŁĲä¸ª": 2792,
      "æĺ¯ä»Ģä¹ĪæĦıæĢĿ": 2793,
      "äº¦": 2794,
      "æĥ¯": 2795,
      "è¡ĮçļĦ": 2796,
      "å·¦åı³": 2797,
      "ç³Ł": 2798,
      "æ·ĩ": 2799,
      "å§Ĩ": 2800,
      "æĶ»": 2801,
      "è¿ĳä¹īè¯į": 2802,
      "åĳ½åĲįå®ŀä½ĵè¯ĨåĪ«": 2803,
      "æĤ£": 2804,
      "æ´Ľ": 2805,
      "èĹı": 2806,
      "äººçĶŁ": 2807,
      "çģ¯": 2808,
      "åĪĽæĸ°": 2809,
      "çĬ¹": 2810,
      "åĲ¯": 2811,
      "æĢĿèĢĥ": 2812,
      "çĦ¦": 2813,
      "åģ¥åº·çļĦ": 2814,
      "ä»İè¿Ļç¯ĩæĸĩç«łä¸ŃæıĲåıĸ": 2815,
      "èĽĭç³ķ": 2816,
      "ä¹Ķ": 2817,
      "æĸĩåŃ¦": 2818,
      "ç§»": 2819,
      "æĶ¹åĸĦ": 2820,
      "ä¹ĭåīį": 2821,
      "åĩºæĿ¥": 2822,
      "éĸ": 2823,
      "å¥½çľĭ": 2824,
      "éķĩ": 2825,
      "ä¸Ģå¤©": 2826,
      "ä¸ĬçıŃ": 2827,
      "åı¯ä»¥å¸®åĬ©": 2828,
      "åĿı": 2829,
      "çī¹çĤ¹": 2830,
      "èģĮä¸ļ": 2831,
      "åĽ¾ä¹¦é¦Ĩ": 2832,
      "æĳĦæ°ıåº¦": 2833,
      "åĵºä¹³åĬ¨çī©": 2834,
      "çļĦåĨħå®¹": 2835,
      "æŀ«": 2836,
      "æķ¢": 2837,
      "æĽ´æĶ¹": 2838,
      "å¹³åĿĩ": 2839,
      "æľĢè¿ĳçļĦ": 2840,
      "å¾Īé«ĺåħ´": 2841,
      "æĭĤ": 2842,
      "åī¯": 2843,
      "åıªæľī": 2844,
      "GPTæ¨¡åŀĭ": 2845,
      "åºŁ": 2846,
      "å¯Ł": 2847,
      "åħ³éĶ®åŃĹ": 2848,
      "è¯ĨåĪ«åĩº": 2849,
      "åĨ°æ·ĩ": 2850,
      "äº¡": 2851,
      "èĩªè¡Į": 2852,
      "æĽ¿æį¢ä¸º": 2853,
      "åĨ°æ·ĩæ·ĭ": 2854,
      "æī§": 2855,
      "æļĹ": 2856,
      "çĬ¬": 2857,
      "ä¼łç»Ł": 2858,
      "æĪĳä¼ļå°½åĬĽ": 2859,
      "çīĪæľ¬": 2860,
      "ç«¯": 2861,
      "çĳľä¼½": 2862,
      "å¿ĥæĥħ": 2863,
      "åłĤ": 2864,
      "åªĴä½ĵ": 2865,
      "åľ¨åħ¬åĽŃéĩĮ": 2866,
      "éŁµ": 2867,
      "æĹ©é¤Ĳ": 2868,
      "åľ¨åĵªéĩĮ": 2869,
      "æĦŁåıĹ": 2870,
      "éķ¿åº¦": 2871,
      "çĶŁæĪĲä¸Ģä¸ªä¸İ": 2872,
      "è¯·çĶ¨ä¸Ģåı¥è¯Ŀ": 2873,
      "åı¯æĮģç»Ń": 2874,
      "æĬĢèĥ½": 2875,
      "åı¤è¯Ĺè¯į": 2876,
      "è²": 2877,
      "å¯¿": 2878,
      "å§ĵ": 2879,
      "¡èĲ": 2880,
      "é¡¾": 2881,
      "åīįå¾Ģ": 2882,
      "ç®Ĺæ³ķ": 2883,
      "é¼ł": 2884,
      "ä½¿åħ¶æĽ´åĬłæµģçķħ": 2885,
      "æĸĹ": 2886,
      "èµ¢": 2887,
      "èĢģå¸Ī": 2888,
      "å¹¸ç¦ı": 2889,
      "ç»¿èī²": 2890,
      "ç»ıåİĨ": 2891,
      "åªļ": 2892,
      "ä»Ĺ": 2893,
      "å°Ĩå®ĥä»¬": 2894,
      "ä»ĬæĻļ": 2895,
      "åıĹæ¬¢è¿İ": 2896,
      "åįı": 2897,
      "æĭħ": 2898,
      "âĢĿ<|": 2899,
      "è®©æĪĳä»¬": 2900,
      "çľŁå¥½": 2901,
      "Ġå½ĵçĦ¶åı¯ä»¥": 2902,
      "ä¸įåĸľæ¬¢": 2903,
      "æ³ķåĽ½": 2904,
      "èĬ±åĽŃ": 2905,
      "åĩºåİ»": 2906,
      "éĢĹ": 2907,
      "æİĴæĶ¾": 2908,
      "å°Ĩä»¥ä¸ĭåı¥åŃĲä¸ŃçļĦ": 2909,
      "çļĦè¯Ŀ": 2910,
      "åľ£": 2911,
      "æĺ¯çıłç©ĨæľĹçİĽå³°": 2912,
      "ä»£è¡¨": 2913,
      "ç»Ļä½ł": 2914,
      "çļĦæĹ¶éĹ´": 2915,
      "åľ¨è¿Ļä¸ª": 2916,
      "ä¸įçŁ¥éģĵ": 2917,
      "çĽĸ": 2918,
      "ä¸ĭæĸĩä¸Ń": 2919,
      "è¿ĩç¨ĭ": 2920,
      "ĠâĢľ": 2921,
      "æ°§": 2922,
      "å¹´è½»": 2923,
      "åŃ¤çĭ¬": 2924,
      "æĺ¯è°ģ": 2925,
      "æĪĳä»¬åı¯ä»¥": 2926,
      "èĭĹ": 2927,
      "ç»ĻæĪĳæİ¨èįĲ": 2928,
      "æ·±åº¦": 2929,
      "ç¬¦åĲĪ": 2930,
      "æ±¤": 2931,
      "è®²è¿°": 2932,
      "ç«¹": 2933,
      "ç¢§": 2934,
      "åĨĻä¸Ģé¦ĸ": 2935,
      "éĩĮçļĦ": 2936,
      "æĪĳä»¬éľĢè¦ģ": 2937,
      "åĢŁ": 2938,
      "çĽ®çļĦåľ°": 2939,
      "æ¯ıä¸ªäºº": 2940,
      "æĬĺ": 2941,
      "ä¾ĭåŃĲ": 2942,
      "èĮĥåĽ´": 2943,
      "è½¯ä»¶": 2944,
      "å±Ĥ": 2945,
      "èįīèİĵ": 2946,
      "æłĩçŃ¾": 2947,
      "è¿Ļç¯ĩæĸĩç«łä¸Ń": 2948,
      "è¿ĺæľīåħ¶ä»ĸéĹ®é¢ĺ": 2949,
      "848": 2950,
      "åĩºèī²": 2951,
      "ç»ĦæĪĲ": 2952,
      "è±Ĩ": 2953,
      "å¦Ļ": 2954,
      "éĨī": 2955,
      "è½¬åĮĸ": 2956,
      "åı¤è¯Ĺè¯įç»ŃåĨĻ": 2957,
      "æĦģ": 2958,
      "ä¸»è¯Ń": 2959,
      "ä½¿åħ¶æĽ´ç®Ģæ´ģ": 2960,
      "æĢ¥": 2961,
      "æ¬£": 2962,
      "çİ¯å¢ĥä¿ĿæĬ¤": 2963,
      "åĢ¼å¾Ĺ": 2964,
      "çļĦå»ºè®®": 2965,
      "ä¸ŃæıĲåıĸ": 2966,
      "å¾Ħ": 2967,
      "æĿ°": 2968,
      "æĪĳå·²ç»ı": 2969,
      "çĹħæ¯Ĵ": 2970,
      "ä¹łæĥ¯": 2971,
      "ä¸ĭæĸĩä¸ŃåŃĺåľ¨åĵªäºĽå®ŀä½ĵ": 2972,
      "ä¸įåı¯": 2973,
      "éĢĢ": 2974,
      "ä¸Ĭä¸ĭæĸĩ": 2975,
      "åİ»çľĭçĶµå½±": 2976,
      "èĤ¯": 2977,
      "è®Ńç»ĥ": 2978,
      "åħ³æ³¨": 2979,
      "åľ°åĲį": 2980,
      "æķ°éĩı": 2981,
      "çļĦå½¢å¼ı": 2982,
      "ä¸ªåŃĹ": 2983,
      "å¹¶æıĲä¾Ľ": 2984,
      "æľĢä½İ": 2985,
      "è¯ĨåĪ«åĩºä¸Ĭæĸĩ": 2986,
      "ä¸Ŀ": 2987,
      "å°Ĭ": 2988,
      "å¥Ĺ": 2989,
      "æŃ£å¼ı": 2990,
      "é¸£": 2991,
      "æ¹¿": 2992,
      "è¿Ļé¡¹": 2993,
      "è¯·å¸®æĪĳ": 2994,
      "çĶµå½±éĻ¢": 2995,
      "ä¿Ŀåģ¥": 2996,
      "æİĴåºı": 2997,
      "ç³Łç³ķ": 2998,
      "è¯ĨåĪ«åĩºä¸Ĭæĸĩä¸ŃçļĦå®ŀä½ĵ": 2999,
      "âĦ": 3000,
      "è¯Ńæ³ķåĴĮ": 3001,
      "çļĦä¸»æĹ¨": 3002,
      "æľĢç»Ī": 3003,
      "æ¡Į": 3004,
      "è¿Ľè¡ĮåĪĨç±»": 3005,
      "âĦĥ": 3006,
      "èį£": 3007,
      "ç¥ĸ": 3008,
      "å§Ķ": 3009,
      "è¦ģæ±Ĥå¯¹": 3010,
      "æ¥ļ": 3011,
      "ä¸įçĶ¨è°¢": 3012,
      "çļĦå¥½": 3013,
      "éĻĨ": 3014,
      "æ¸©æļĸ": 3015,
      "åģ¥åº·é¥®é£Ł": 3016,
      "ä¹±": 3017,
      "åľ¨ä¸ŃåĽ½": 3018,
      "æĸ¹åĲĳ": 3019,
      "ä¼ĺç§Ģ": 3020,
      "30": 3021,
      "çº¸": 3022,
      "è¢ĭ": 3023,
      "çĶŁæĪĲä¸Ģä¸ªåĮħåĲ«": 3024,
      "åĽŀçŃĶè¿Ļä¸ªéĹ®é¢ĺ": 3025,
      "éĴĪå¯¹": 3026,
      "è¡¥": 3027,
      "ä¸įçĽ¸åĲĮ": 3028,
      "ç½ª": 3029,
      "éĢļé¡º": 3030,
      "äººåĲįåĴĮ": 3031,
      "åĵªç§į": 3032,
      "æĿ¨": 3033,
      "æĥ³æ³ķ": 3034,
      "æīĵå¼Ģ": 3035,
      "å°¤": 3036,
      "å¿§": 3037,
      "æİĮ": 3038,
      "æ´ŀ": 3039,
      "äºĭæĥħ": 3040,
      "ç´«": 3041,
      "åĮĹäº¬çļĦå¤©æ°Ķ": 3042,
      "è¡¨æł¼": 3043,
      "ä¸Ģæ®µæĸĩåŃĹ": 3044,
      "å¥½äºĨ": 3045,
      "å¼ĥ": 3046,
      "è¯Ńæ°Ķ": 3047,
      "|>âĢľ": 3048,
      "ä¸Ģåľº": 3049,
      "æī¿": 3050,
      "åĽŀçŃĶéĹ®é¢ĺ": 3051,
      "æĶ¿çŃĸ": 3052,
      "æİ¢è®¨": 3053,
      "åĽłä¸ºå®ĥ": 3054,
      "é»ĺ": 3055,
      "åĢ¾": 3056,
      "åķĨåºĹ": 3057,
      "åº¦åģĩ": 3058,
      "ä¿®æŃ£": 3059,
      "åħ±åĲĮ": 3060,
      "å¸¸è§ģ": 3061,
      "èĩªè¡Įè½¦": 3062,
      "æĪĳæľĢè¿ĳ": 3063,
      "å®ŀæĹ¶": 3064,
      "æĢİä¹Īè¯´": 3065,
      "çļĦéĩįè¦ģæĢ§": 3066,
      "ä¸Ģæł·": 3067,
      "å¾Īæ£Ĵ": 3068,
      "æ¡ĥ": 3069,
      "æľºä¼ļ": 3070,
      "æ»ĳ": 3071,
      "è°±": 3072,
      "çĪ¬": 3073,
      "éĢłæĪĲ": 3074,
      "æİ§åĪ¶": 3075,
      "éĢĹåı·": 3076,
      "æľµ": 3077,
      "å¼Ł": 3078,
      "èģĶç½ĳ": 3079,
      "çĩķ": 3080,
      "å¼Ģåıĳ": 3081,
      "æľĢåĲİ": 3082,
      "ç§įç±»": 3083,
      "ä¸ĭéĿ¢è¿Ļåı¥è¯Ŀ": 3084,
      "æĬ½åıĸåĩºä¸ĭæĸĩ": 3085,
      "çļĦå°ı": 3086,
      "ä¸ĬéĿ¢": 3087,
      "è½½": 3088,
      "äºĮåįģ": 3089,
      "ä»Ļ": 3090,
      "è¡¨è¿°": 3091,
      "æ®ĭ": 3092,
      "æ¶ī": 3093,
      "æĬ½åıĸåĩºä¸ĭæĸĩä¸ŃçļĦå®ŀä½ĵ": 3094,
      "åĬ±": 3095,
      "å¿ł": 3096,
      "å¤§è±¡": 3097,
      "è°ľ": 3098,
      "è¿ĩäºĨ": 3099,
      "ç¼©": 3100,
      "åĲī": 3101,
      "æĭľ": 3102,
      "èĪªçıŃ": 3103,
      "çĨĬçĮ«": 3104,
      "ä¹ı": 3105,
      "æĺ¯æĪĳ": 3106,
      "å¹ħ": 3107,
      "ç«¥": 3108,
      "æŁ³": 3109,
      "çģ«è½¦": 3110,
      "æĬĬè¿Ļåı¥è¯Ŀç¿»è¯ĳæĪĲçİ°ä»£æĸĩ": 3111,
      "äºĶè¨Ģç»Ŀåı¥": 3112,
      "éģ¿åħį": 3113,
      "çļĦæĥħç»ª": 3114,
      "ä¸ĢäºĽåħ³äºİ": 3115,
      "é¼ĵ": 3116,
      "çļĦåĲįåŃĹ": 3117,
      "è¾ŀ": 3118,
      "å·¥æķ´": 3119,
      "çĶ³": 3120,
      "è¿Ļåıª": 3121,
      "æĺİåªļ": 3122,
      "ä½ľä¸ļ": 3123,
      "çĥ§": 3124,
      "éº¦": 3125,
      "ä»Ĺå·¥æķ´": 3126,
      "è¦ģæ±Ĥå¯¹ä»Ĺå·¥æķ´": 3127,
      "æľīæĦıä¹ī": 3128,
      "æĸĩæľ¬ä¸ŃçļĦå®ŀä½ĵ": 3129,
      "æĤ¨å¥½": 3130,
      "èĬ³": 3131,
      "èĨ": 3132,
      "æľ¬æĸĩ": 3133,
      "æ³Ĭ": 3134,
      "å¤ªç©º": 3135,
      "éħ¸": 3136,
      "ä½łéľĢè¦ģ": 3137,
      "å±ĭ": 3138,
      "è¯´æĺİ": 3139,
      "å¤įæĿĤ": 3140,
      "æĵį": 3141,
      "å°Ĩä¸ĭéĿ¢åı¥åŃĲ": 3142,
      "æ©ĻåŃĲ": 3143,
      "æµ®": 3144,
      "çľĭçľĭ": 3145,
      "æµ·è¾¹": 3146,
      "åĽłä¸ºæĪĳ": 3147,
      "å¿«éĢŁ": 3148,
      "è¯ŃéŁ³": 3149,
      "åį·": 3150,
      "éĥ½ä¼ļ": 3151,
      "æĬ½åıĸåĩºæĸĩæľ¬ä¸ŃçļĦå®ŀä½ĵ": 3152,
      "æĸĩæľ¬ä¸ŃåŃĺåľ¨åĵªäºĽå®ŀä½ĵ": 3153,
      "èĵĿèī²": 3154,
      "æĿĲæĸĻ": 3155,
      "ä¿ĥ": 3156,
      "å¸®ä½ł": 3157,
      "çıį": 3158,
      "æĴ°": 3159,
      "çļĦä¸īä¸ª": 3160,
      "åºĨ": 3161,
      "æī¬": 3162,
      "åĳ³éģĵ": 3163,
      "è¯·å¯¹": 3164,
      "ç»Ļå®ļæĸĩæľ¬": 3165,
      "ä¼¦æķ¦": 3166,
      "èģļä¼ļ": 3167,
      "æĤł": 3168,
      "çĪ½": 3169,
      "ä»Ĭå¹´": 3170,
      "æľīä»»ä½ķ": 3171,
      "ç®ĢåĮĸ": 3172,
      "æıĲåıĸä¸Ģä¸ĭ": 3173,
      "ä½¿åħ¶æĽ´åħ·": 3174,
      "å®ĮæĪĲäºĨ": 3175,
      "åĢĳ": 3176,
      "åĲİçļĦ": 3177,
      "å¤ıæĹ¥": 3178,
      "åĵªä¸ªåŁİå¸Ĥ": 3179,
      "éĩįæĸ°ç¼ĸåĨĻä»¥ä¸ĭåı¥åŃĲ": 3180,
      "ä¸ĢæŃ¥": 3181,
      "ç®±": 3182,
      "åıĸå¾Ĺ": 3183,
      "åįĸ": 3184,
      "ç§ģ": 3185,
      "èµŀ": 3186,
      "è¯»ä¹¦": 3187,
      "äººå·¥æĻºèĥ½çļĦåºĶçĶ¨é¢ĨåŁŁ": 3188,
      "èĪ¹": 3189,
      "æ¦Ĥå¿µ": 3190,
      "æıĲéĨĴ": 3191,
      "éľĩ": 3192,
      "æĦıè¯Ĩ": 3193,
      "ä½Ĩå¥¹": 3194,
      "é©¬æĭī": 3195,
      "æĬĬè¿Ļåı¥è¯Ŀç¿»è¯ĳæĪĲæĸĩè¨Ģæĸĩ": 3196,
      "è¯ļ": 3197,
      "æľīæīĢ": 3198,
      "è¯·ä»İæĸĩç«łä¸ŃæıĲåıĸåĩº": 3199,
      "å°Ĩåľ¨": 3200,
      "çĽ¸åºĶ": 3201,
      "èĩ³å°ĳ": 3202,
      "çĴ": 3203,
      "çļĦåıĳå±ķ": 3204,
      "ä¸Ģä¸ªäºº": 3205,
      "ä½łä¼ļ": 3206,
      "åĽłä¸ºä»ĸ": 3207,
      "åĮ»çĸĹä¿Ŀåģ¥": 3208,
      "éĻįä½İ": 3209,
      "æł¹æį®ä»¥ä¸ĭæĸĩæľ¬": 3210,
      "ç§ĭé£İ": 3211,
      "åł¡": 3212,
      "åĬ¨ä½ľ": 3213,
      "åĸĿåĴĸåķ¡": 3214,
      "æĪĳåĴĮ": 3215,
      "æĺ¯æĮĩ": 3216,
      "æĻļé¤Ĳ": 3217,
      "æºª": 3218,
      "åı¤ä»£æĢİä¹Īè¯´": 3219,
      "è¯·å°Ĩ": 3220,
      "æĺ¯ä¸Ģä½į": 3221,
      "è°¢è°¢ä½łçļĦå»ºè®®": 3222,
      "ä¸ĢåĲį": 3223,
      "æĪĳå¾Īåĸľæ¬¢": 3224,
      "é½Ĳ": 3225,
      "è¯·æĤ¨": 3226,
      "è¿Ļä¸ªåŁİå¸Ĥ": 3227,
      "æ½®": 3228,
      "ä¸§": 3229,
      "å¾Īæľī": 3230,
      "é¸¡èĽĭ": 3231,
      "è¿¹": 3232,
      "æ²Ļæ»©": 3233,
      "è¿Ļä¸¤ä¸ª": 3234,
      "è¯·ä»İ": 3235,
      "çļĦæķħäºĭ": 3236,
      "å¤§éĩı": 3237,
      "åĽłç´ł": 3238,
      "æī¼": 3239,
      "ä½łæĥ³": 3240,
      "çľĭèµ·æĿ¥": 3241,
      "æĪĳè®¤ä¸º": 3242,
      "äººæ°ĳ": 3243,
      "æ¶¦": 3244,
      "èĭ±åĽ½": 3245,
      "çĿ¡è§ī": 3246,
      "æĮĩåĩº": 3247,
      "æ¼Ķè®²": 3248,
      "æĺ¾ç¤º": 3249,
      "ä¸ŃçļĦè¯Ńæ³ķéĶĻè¯¯": 3250,
      "è¡¨æĺİ": 3251,
      "ç»ıéªĮ": 3252,
      "è¦ģæ±Ĥåħ·æľī": 3253,
      "èĪĴéĢĤ": 3254,
      "Ġå½ĵçĦ¶": 3255,
      "æıĲä¾ĽçļĦ": 3256,
      "çĭĹçļĦ": 3257,
      "å¹¶ä¸į": 3258,
      "å°ĺ": 3259,
      "æĻĭ": 3260,
      "æĤ¬": 3261,
      "æĿ¥è¶Ĭ": 3262,
      "çĶŁæĪĲä¸Ģåı¥": 3263,
      "ç¼ĸåĨĻä¸Ģä¸ª": 3264,
      "ç»ĨèĬĤ": 3265,
      "çĶµåŃĲéĤ®ä»¶": 3266,
      "æĢķ": 3267,
      "ç¢³": 3268,
      "ä¸įè¶ħè¿ĩ": 3269,
      "æŁ¥æī¾": 3270,
      "å²¸": 3271,
      "ç²ī": 3272,
      "çĸ«èĭĹ": 3273,
      "è¯·ç»ĻæĪĳ": 3274,
      "ç»ıåħ¸": 3275,
      "æĿŁ": 3276,
      "æŁĶ": 3277,
      "æĺ¯ä¸ª": 3278,
      "ä»·åĢ¼": 3279,
      "æĿİæĺİ": 3280,
      "çļĦæĸ¹å¼ı": 3281,
      "è¶ĬæĿ¥è¶Ĭ": 3282,
      "éĢĶ": 3283,
      "æ²¡æľīè¯Ńæ³ķéĶĻè¯¯": 3284,
      "æİ¥ä¸ĭæĿ¥": 3285,
      "ç©¿çĿĢ": 3286,
      "æĪĲç»©": 3287,
      "åĶ¯": 3288,
      "å®ĥä»¬çļĦ": 3289,
      "å°¾": 3290,
      "ä¸ĭåĳ¨": 3291,
      "ä¼ŀ": 3292,
      "åĪ¶éĢł": 3293,
      "åĭ¤": 3294,
      "æī¼è¦ģ": 3295,
      "åİļ": 3296,
      "è´Ŀ": 3297,
      "æĦŁåħ´è¶£": 3298,
      "æīĢä»¥æĪĳ": 3299,
      "ä¸įåıĺ": 3300,
      "èĢ³": 3301,
      "ä¸ŃåĽ½çļĦ": 3302,
      "çĿ¡çľł": 3303,
      "æĹı": 3304,
      "202": 3305,
      "ç¤¾äº¤åªĴä½ĵ": 3306,
      "18": 3307,
      "æĸĩç«łåĨħå®¹": 3308,
      "èĦļ": 3309,
      "æ¢¦æĥ³": 3310,
      "çļĦè¯ĹæŃĮ": 3311,
      "å®Įåħ¨": 3312,
      "æŁ¥çľĭ": 3313,
      "éļıæľº": 3314,
      "ä¸ĵä¸ļ": 3315,
      "éĽĦ": 3316,
      "ç®Ģæĺİæī¼è¦ģ": 3317,
      "è´£ä»»": 3318,
      "çµ": 3319,
      "æľĢä½³": 3320,
      "åħ¬éĩĮ": 3321,
      "è¯¥è¯Ħè®º": 3322,
      "å¤ªæ£Ĵ": 3323,
      "é¢Ħè®¢": 3324,
      "çº¢èī²çļĦ": 3325,
      "åĴª": 3326,
      "æĪĳåĸľæ¬¢åľ¨": 3327,
      "Ġåħ¶ä¸Ģ": 3328,
      "å¤ªæ£ĴäºĨ": 3329,
      "ä½Ľ": 3330,
      "è®¾å¤ĩ": 3331,
      "å¤ķ": 3332,
      "æģ©": 3333,
      "æĳĩ": 3334,
      "ä¸įå¤ª": 3335,
      "çī¹å¾ģ": 3336,
      "ç¿ł": 3337,
      "å±±èĦī": 3338,
      "å¼ķèµ·": 3339,
      "ç»ķ": 3340,
      "éĽ·": 3341,
      "å®Ļ": 3342,
      "åĪĨéĴŁ": 3343,
      "å®¶å±ħ": 3344,
      "åİŁå§ĭåı¥åŃĲ": 3345,
      "ä¸Ģä»¶": 3346,
      "æĥł": 3347,
      "çĦ¦èĻĳ": 3348,
      "éĹª": 3349,
      "ç¾İæĻ¯": 3350,
      "æ²³æµģ": 3351,
      "æŀ«åı¶": 3352,
      "åıĺæĪĲ": 3353,
      "é¾Ħ": 3354,
      "Ġåħ¶äºĮ": 3355,
      "ä¸Ģå¹´": 3356,
      "æĪĳçľĭ": 3357,
      "ä»¥ä¸ĭéĹ®é¢ĺ": 3358,
      "ä½¿å®ĥ": 3359,
      "èĩ£": 3360,
      "ç¾İå¥½çļĦ": 3361,
      "ä¹Łæĺ¯": 3362,
      "åŁºæľ¬": 3363,
      "éĵ¶è¡Į": 3364,
      "ä½ĵèĤ²": 3365,
      "å®ĩå®Ļ": 3366,
      "éĿŀå¸¸æľīè¶£": 3367,
      "èĤ¥": 3368,
      "æĪĳéĿŀå¸¸åĸľæ¬¢": 3369,
      "çĲ´": 3370,
      "çĤº": 3371,
      "å·¥åħ·": 3372,
      "æł¹æį®æīĢ": 3373,
      "éĥ½åı¯ä»¥": 3374,
      "è¿ª": 3375,
      "çĽĺ": 3376,
      "æ·¡": 3377,
      "å¢ŀéķ¿": 3378,
      "çŀ": 3379,
      "ç¨į": 3380,
      "çĻĮ": 3381,
      "éŁ©": 3382,
      "é¥¼": 3383,
      "å¯¹ä»¥ä¸ĭåı¥åŃĲè¿Ľè¡Į": 3384,
      "çļĦéŁ³ä¹Ĳ": 3385,
      "ä¸ªåįķè¯į": 3386,
      "åĨ²": 3387,
      "æĹ¢": 3388,
      "åĬłåħ¥": 3389,
      "åı¯èĥ½æĺ¯": 3390,
      "çļĦæĦıæĢĿæĺ¯ä»Ģä¹Ī": 3391,
      "åŃĻ": 3392,
      "è¿Ļä¸ªé¡¹çĽ®": 3393,
      "çĪ±å¥½": 3394,
      "ç®ĢåįķçļĦ": 3395,
      "èļ": 3396,
      "ãĢĮ": 3397,
      "ãĢį": 3398,
      "äº¿": 3399,
      "å®ŀä½ĵæĬ½åıĸ": 3400,
      "åĪĨç±»ä¸º": 3401,
      "è¿Ļç¯ĩæĸĩç«łä¸ŃçļĦ": 3402,
      "è¿Ļæ®µè¯Ŀ": 3403,
      "çĹĩçĬ¶": 3404,
      "æĭĽ": 3405,
      "å¤ļäºĳ": 3406,
      "åıĳå¸ĥ": 3407,
      "è¯ķè¯ķ": 3408,
      "éª¨": 3409,
      "åįļçī©": 3410,
      "æĸ°äº§åĵģ": 3411,
      "éĩįå¤į": 3412,
      "èĲ§": 3413,
      "ç¡®ä¿Ŀ": 3414,
      "éĺ³åħīæĺİåªļ": 3415,
      "çĸĳéĹ®åı¥": 3416,
      "è®©ä½ł": 3417,
      "åĮ»éĻ¢": 3418,
      "åħļ": 3419,
      "å©ļ": 3420,
      "æĺ¯åħ³äºİ": 3421,
      "èĥ½ä¸įèĥ½": 3422,
      "ç¾İå¥½": 3423,
      "ä¸Ģç¯ĩåħ³äºİ": 3424,
      "å®¢æĪ·": 3425,
      "å¾Īä¸įéĶĻ": 3426,
      "äºĭå®ŀ": 3427,
      "æ°´å¹³": 3428,
      "ä»ĭç»įäºĨ": 3429,
      "æľīæ²¡æľī": 3430,
      "å¥ı": 3431,
      "çĮ«åĴª": 3432,
      "å¾ĪåĨ·": 3433,
      "åĪĨäº«": 3434,
      "ç¦ģ": 3435,
      "å®£ä¼ł": 3436,
      "äºĴèģĶç½ĳ": 3437,
      "æĺ¥å¤©": 3438,
      "åİŁå§ĭæĸĩæľ¬": 3439,
      "è¯¸": 3440,
      "åĲĪçĲĨ": 3441,
      "æĸĩç«łä¸ŃæıĲåĪ°çļĦ": 3442,
      "å«": 3443,
      "åĬłå¼º": 3444,
      "è¯Ĺäºº": 3445,
      "ç¾İåħĥ": 3446,
      "å°Ĩä»¥ä¸ĭåı¥åŃĲæĶ¹åĨĻä¸º": 3447,
      "å¹ķ": 3448,
      "ä¼Ĭ": 3449,
      "ç«ŀ": 3450,
      "éĥ½æľī": 3451,
      "åı£åĳ³": 3452,
      "éĵ¾": 3453,
      "å¡ŀ": 3454,
      "è¹": 3455,
      "é£İæĻ¯": 3456,
      "æĺ¯ç¾İåĽ½": 3457,
      "åºĶçĶ¨ç¨ĭåºı": 3458,
      "åįİçĽĽ": 3459,
      "ä¸¥éĩį": 3460,
      "æĺ¯åĵªä¸ª": 3461,
      "ä¸ºæĪĳ": 3462,
      "æĮ¥": 3463,
      "ç»Ļåĩºä¸Ģä¸ªåı¥åŃĲ": 3464,
      "çº¦ä¸º": 3465,
      "é£ŀæľº": 3466,
      "é²¸": 3467,
      "åĪļåĪļ": 3468,
      "æ£®æŀĹ": 3469,
      "éĢı": 3470,
      "è°ĵè¯Ń": 3471,
      "è¿Ļåľº": 3472,
      "å¸®å¿Ļ": 3473,
      "å¥¹åĸľæ¬¢": 3474,
      "éº»": 3475,
      "åĲ´": 3476,
      "æĸĩæľ¬è¡¨è¾¾äºĨ": 3477,
      "çŃīé¢ĨåŁŁ": 3478,
      "å¢¨": 3479,
      "çĮľ": 3480,
      "æĺİå¤©çļĦå¤©æ°Ķ": 3481,
      "èĢį": 3482,
      "çī©è´¨": 3483,
      "ä¸¤ä¸ªåı¥åŃĲåĲĪå¹¶": 3484,
      "èĥĮæĻ¯": 3485,
      "ç£": 3486,
      "åĴĮæĪĳ": 3487,
      "ç¦»å¼Ģ": 3488,
      "è¯·çĶ¨": 3489,
      "åĨĻçļĦ": 3490,
      "åĬłä¸Ĭ": 3491,
      "é«ĺåº¦": 3492,
      "æ²¡éĹ®é¢ĺ": 3493,
      "è§Ĵèī²": 3494,
      "ä¸°å¯Į": 3495,
      "çļĨ": 3496,
      "é¢Ĺ": 3497,
      "æĿ¥èĩª": 3498,
      "è½®": 3499,
      "éĩįåĨĻä¸ĭéĿ¢çļĦåı¥åŃĲ": 3500,
      "åĲĥé¥Ń": 3501,
      "è¿Ļé¦ĸè¯Ĺ": 3502,
      "åįİçĽĽé¡¿": 3503,
      "éĹ®çŃĶ": 3504,
      "å¹¶æ²¡æľī": 3505,
      "æł¹æį®æıĲä¾ĽçļĦ": 3506,
      "å¥¥è¿Ĳ": 3507,
      "å¯¹æĸĩæľ¬éĶĻè¯¯è¿Ľè¡Įä¿®æĶ¹": 3508,
      "æľĥ": 3509,
      "æī¹": 3510,
      "ä»Ģä¹ĪæĥħæĦŁ": 3511,
      "æĥ³åİ»": 3512,
      "è¡¨è¾¾çļĦæĥħç»ª": 3513,
      "ä¾Ĩ": 3514,
      "å°Ĩä¼ļ": 3515,
      "å·¥ç¨ĭ": 3516,
      "ä¸ĭéĿ¢çļĦæĸĩæľ¬": 3517,
      "å¥Ķ": 3518,
      "åĸľåī§": 3519,
      "åģļåĩº": 3520,
      "å£°éŁ³": 3521,
      "æ·±åº¦åŃ¦ä¹ł": 3522,
      "è¯¥è¯Ħè®ºè¡¨è¾¾çļĦæĥħç»ª": 3523,
      "æĸĩæľ¬è¡¨è¾¾äºĨä»Ģä¹ĪæĥħæĦŁ": 3524,
      "è¯¥è¯Ħè®ºè¡¨è¾¾çļĦæĥħç»ªæĺ¯ä»Ģä¹Ī": 3525,
      "12": 3526,
      "æı¡": 3527,
      "å¤§å®¶": 3528,
      "ç¨³": 3529,
      "å°±åĥı": 3530,
      "åºĶçĶ¨é¢ĨåŁŁ": 3531,
      "åıĹåĪ°": 3532,
      "çĳŀ": 3533,
      "ä¸Ģä¸ªéĹ®é¢ĺ": 3534,
      "èµµ": 3535,
      "æīĢåľ¨çļĦåŁİå¸Ĥ": 3536,
      "éķľ": 3537,
      "å°½å¿«": 3538,
      "èĲ½åı¶": 3539,
      "æĮĩä»¤": 3540,
      "100": 3541,
      "äºĨå¾Īå¤ļ": 3542,
      "æ¯ıå¤©æĹ©ä¸Ĭ": 3543,
      "ä¸¹": 3544,
      "æľīåħ¶ä»ĸ": 3545,
      "åºĦ": 3546,
      "æ»¡æĦı": 3547,
      "ä¸¾è¡Į": 3548,
      "åį³ä½¿": 3549,
      "æ½ľ": 3550,
      "åİ»å¹´": 3551,
      "åĲĪéĢĤçļĦ": 3552,
      "åĳ¼åĲ¸": 3553,
      "å°Ĩä¸ĭéĿ¢çļĦåı¥åŃĲ": 3554,
      "ä»¥ä¸ĭåı¥åŃĲä¸Ń": 3555,
      "éĥİ": 3556,
      "ç¤ºä¾ĭ": 3557,
      "å¥³åŃ©": 3558,
      "åĽ¾åĥı": 3559,
      "æĽ´å¥½çļĦ": 3560,
      "åİŁæĸĩ": 3561,
      "æŃĮè¯į": 3562,
      "çİ©èĢį": 3563,
      "æ¬§æ´²": 3564,
      "æ³ª": 3565,
      "å£®": 3566,
      "å®£å¸ĥ": 3567,
      "è½¬åĮĸä¸º": 3568,
      "æĬķèµĦ": 3569,
      "æĬĹ": 3570,
      "åĲĮä¹ī": 3571,
      "å°½ç®¡å¥¹": 3572,
      "æĤ²ä¼¤": 3573,
      "æĸ¼": 3574,
      "ä¸ªæľĪ": 3575,
      "ä¸ºä¸Ģç¯ĩæĸĩç«ł": 3576,
      "æĥ«": 3577,
      "è¯·æıĲåıĸåĩº": 3578,
      "åĸľå¥½": 3579,
      "èĩªåĬ¨é©¾é©¶": 3580,
      "15": 3581,
      "åı¹": 3582,
      "æľīä¸Ģ": 3583,
      "æ³ī": 3584,
      "ç¡Ģ": 3585,
      "éģĩåĪ°äºĨ": 3586,
      "çĸ²æĥ«": 3587,
      "åħ´å¥ĭ": 3588,
      "ç»ĥä¹ł": 3589,
      "èĲ¥åħ»": 3590,
      "èµ¢å¾Ĺ": 3591,
      "ä¼¯": 3592,
      "ä½łåĸľæ¬¢": 3593,
      "è§ĦåĪĻ": 3594,
      "ä¸Ĭè¿°æĸĩæľ¬": 3595,
      "ï¼ģ\"<|": 3596,
      "åĵģç§į": 3597,
      "ä¸ĸçķĮæĿ¯": 3598,
      "æħ§": 3599,
      "åĴĮä¸Ģä¸ª": 3600,
      "å¯Ħ": 3601,
      "å¼¹": 3602,
      "èĢĢ": 3603,
      "å¦ĤæŃ¤": 3604,
      "çĿĽ": 3605,
      "æĭį": 3606,
      "åĲİçļĦåı¥åŃĲ": 3607,
      "åŁºç¡Ģ": 3608,
      "å°¤åħ¶": 3609,
      "åįļçī©é¦Ĩ": 3610,
      "å¹¶ç»Ļåĩº": 3611,
      "æľºåľº": 3612,
      "äºĨä¸Ģåıª": 3613,
      "çļĦè¯Ńæ°Ķ": 3614,
      "æĻĴ": 3615,
      "ä¸Ĭåįĩ": 3616,
      "æĢ§åĴĮ": 3617,
      "åĿĢ": 3618,
      "å¾Īéļ¾": 3619,
      "éĥģ": 3620,
      "çĪĨ": 3621,
      "ãĢĳ": 3622,
      "å®½": 3623,
      "åºĵ": 3624,
      "æĸ°çļĦåı¥åŃĲ": 3625,
      "æĪĳä¸įèĥ½": 3626,
      "ä¸ĸçķĮä¸ĬæľĢé«ĺçļĦå±±å³°æĺ¯çıłç©ĨæľĹçİĽå³°": 3627,
      "è¿Ľè¡Įæĳĺè¦ģ": 3628,
      "éĿł": 3629,
      "çĶµå½±è¯Ħè®º": 3630,
      "åĲĪä½ľ": 3631,
      "èĪŁ": 3632,
      "çĽ´æİ¥": 3633,
      "éĢļè¿ĩèĢĥè¯ķ": 3634,
      "æµªæ¼«": 3635,
      "åŀĥåľ¾åĪĨç±»": 3636,
      "ä»¥ä¾¿æĪĳ": 3637,
      "ä¸Ĭè¿°æĸĩæľ¬è¿Ľè¡ĮçºłéĶĻ": 3638,
      "çļĦå¤§": 3639,
      "å°į": 3640,
      "æľīåĬ©": 3641,
      "é¡¶": 3642,
      "è¾¾åĪ°": 3643,
      "æİ¥åıĹ": 3644,
      "å¤±è´¥": 3645,
      "ä¸²": 3646,
      "ãĢĲ": 3647,
      "çļĦç¬ĳè¯Ŀ": 3648,
      "æĺ¯çĶ±": 3649,
      "å¾Ĺå¾Ī": 3650,
      "çģ¾å®³": 3651,
      "è¿Ļä»¶": 3652,
      "éĺµ": 3653,
      "ç¾İçļĦ": 3654,
      "èį¡": 3655,
      "åĲ«æľī": 3656,
      "å¤ľæĻļ": 3657,
      "çº½çº¦å¸Ĥ": 3658,
      "åĨĴéĻ©": 3659,
      "æİĪ": 3660,
      "åĸľé©¬æĭī": 3661,
      "ä½łèĥ½åĳĬè¯īæĪĳ": 3662,
      "åĸľé©¬æĭīéĽħ": 3663,
      "ä¸ŃæľĢ": 3664,
      "éĩįçĤ¹": 3665,
      "æ¸¯": 3666,
      "ç»Ļå®ļä¸Ģåı¥è¯Ŀ": 3667,
      "æ³ķå¾ĭ": 3668,
      "ä¹Łå¾Ī": 3669,
      "æµģè¡Į": 3670,
      "æĥħæĦŁåĪĨç±»": 3671,
      "å¸®åĬ©æĤ¨": 3672,
      "ï¼īãĢĤ": 3673,
      "ï¼ĮâĢľ": 3674,
      "ä¸ºåħ¶": 3675,
      "æĿ¥è¯´": 3676,
      "æĹ¶ä»£": 3677,
      "æľªæĿ¥çļĦ": 3678,
      "èĳ¡èĲ": 3679,
      "éģĩåĪ°": 3680,
      "èĳ¡èĲĦ": 3681,
      "çļĦä¹¦": 3682,
      "çļĦåħ·ä½ĵ": 3683,
      "æĶ¹è¿Ľ": 3684,
      "å»ºç«ĭ": 3685,
      "æ¶īåıĬ": 3686,
      "å¸ģ": 3687,
      "çĿ£": 3688,
      "ç³»åĪĹ": 3689,
      "åŁĥ": 3690,
      "ç¾Ĭ": 3691,
      "è¶³å¤Ł": 3692,
      "èľľ": 3693,
      "äºĶè¨Ģè¯Ĺ": 3694,
      "çľĭäºĨ": 3695,
      "å½ĵæĪĳ": 3696,
      "ä½¿åħ¶æĽ´æĺĵäºİçĲĨè§£": 3697,
      "è¯·åĽŀçŃĶ": 3698,
      "åħ³éĶ®ä¿¡æģ¯": 3699,
      "å½¢æĪĲ": 3700,
      "æĺİç¡®": 3701,
      "è§£åĨ³æĸ¹æ¡Ī": 3702,
      "ç¼ºä¹ı": 3703,
      "å®ĭ": 3704,
      "åŃĲçļĦ": 3705,
      "åºĶå¯¹": 3706,
      "å¸®åĬ©ä½ł": 3707,
      "æĽ´åĬłç®Ģæ´ģ": 3708,
      "ç¶": 3709,
      "è¿Ļæ¬¡": 3710,
      "åŁ¹": 3711,
      "æ¢ģ": 3712,
      "æĳĺåıĸ": 3713,
      "çľ¼çĿĽ": 3714,
      "éľĢè¦ģå¸®åĬ©": 3715,
      "ä¸įè¿ĩ": 3716,
      "ä»ĸéĿŀå¸¸": 3717,
      "ä¿Ĺ": 3718,
      "å¾Īç´¯": 3719,
      "çĭ¬ç«ĭ": 3720,
      "å¥¥è¿Ĳä¼ļ": 3721,
      "æ¦": 3722,
      "åİ¨": 3723,
      "ä½¿ä¹ĭ": 3724,
      "å¤§çº¦": 3725,
      "æĺİçĻ½": 3726,
      "å¸¸å¸¸": 3727,
      "ç¤¼çī©": 3728,
      "çļĦåİŁåĽł": 3729,
      "ï¼Ł\"": 3730,
      "éĴ¢": 3731,
      "è·¯ä¸Ĭ": 3732,
      "çĨŁ": 3733,
      "çĵ¶": 3734,
      "åį°åº¦": 3735,
      "æĺ¯æŃ£ç¡®çļĦ": 3736,
      "éĿ¢ç§¯": 3737,
      "åĲįè¨Ģ": 3738,
      "çĭ®": 3739,
      "æľŁéĹ´": 3740,
      "èı²": 3741,
      "åķĨä¸ļ": 3742,
      "çĶŁæ´»æĸ¹å¼ı": 3743,
      "ä¼ĳæģ¯": 3744,
      "äººåĳĺ": 3745,
      "åĬĽéĩı": 3746,
      "æĻºèĥ½å®¶å±ħ": 3747,
      "æĹ©æĻ¨": 3748,
      "å¤ıå¤©çļĦ": 3749,
      "æĽ´åĬłç®Ģæ´ģæĺİäºĨ": 3750,
      "åĽ¢éĺŁ": 3751,
      "åı¯è¯»": 3752,
      "ç»Ļå®ļåı¥åŃĲ": 3753,
      "____": 3754,
      "åĲĪéĢĤçļĦæłĩé¢ĺ": 3755,
      "é¬": 3756,
      "è¯»èĢħ": 3757,
      "AIè¯Ńè¨Ģæ¨¡åŀĭ": 3758,
      "±ä¹Ĳ": 3759,
      "ĠæĪĳ": 3760,
      "åĬĽçļĦ": 3761,
      "æľºç¥¨": 3762,
      "éļĶ": 3763,
      "é²ģ": 3764,
      "|>\"": 3765,
      "è¿Ļä»½": 3766,
      "ä¸įèµ·": 3767,
      "éŃĶ": 3768,
      "ä¸ĢèĪ¬": 3769,
      "å¾Ĳ": 3770,
      "æĪĸçŁŃè¯Ń": 3771,
      "è¯¥æĸĩæľ¬": 3772,
      "çĥ¦": 3773,
      "ä»Ĭå¤©å¤©æ°ĶçľŁå¥½": 3774,
      "25": 3775,
      "çī©çĲĨ": 3776,
      "æ²¡æľīæıĲä¾Ľ": 3777,
      "æĢĿæĥ³": 3778,
      "åĬ©æīĭ": 3779,
      "ç¬¬ä¸ī": 3780,
      "é¹ħ": 3781,
      "çļĦæĳĺè¦ģ": 3782,
      "çĽŁ": 3783,
      "çĶ¨çļĦ": 3784,
      "è¯·éĹ®æĤ¨éľĢè¦ģ": 3785,
      "çļĦå¤©æ°ĶæĥħåĨµ": 3786,
      "èģĬèģĬ": 3787,
      "8848": 3788,
      "ä»¥ä¸Ĭ": 3789,
      "ä¸įå¾Ĺ": 3790,
      "æ»¡è¶³": 3791,
      "åĸľé©¬æĭīéĽħå±±èĦī": 3792,
      "åľ°ä¸Ĭ": 3793,
      "å¤ļä¸ª": 3794,
      "æİ¨åĩº": 3795,
      "çļĦåĲĹ": 3796,
      "æĸ°åĨł": 3797,
      "å·¥ä¸ļ": 3798,
      "èĻ«": 3799,
      "èĦı": 3800,
      "æ±īåł¡": 3801,
      "çĩĥ": 3802,
      "èį¯çī©": 3803,
      "æĪ´": 3804,
      "çĶ²": 3805,
      "åĴĮæĺĵäºİçĲĨè§£": 3806,
      "äººå¿ĥ": 3807,
      "ç§¦": 3808,
      "éĻĲåĪ¶": 3809,
      "æľīåĬ©äºİ": 3810,
      "æįŁ": 3811,
      "æıĲä¾Ľä¸ĢäºĽ": 3812,
      "çļĦæııè¿°": 3813,
      "è¯º": 3814,
      "ä»¥ä¸ĭæĺ¯": 3815,
      "åĢį": 3816,
      "è®¾ç½®": 3817,
      "è®°å½ķ": 3818,
      "è¿Ļæ®µæĸĩåŃĹ": 3819,
      "æł¸å¿ĥ": 3820,
      "å¾Īæľīè¶£": 3821,
      "æĺİæľĪ": 3822,
      "å¹´é¾Ħ": 3823,
      "æľºæŀĦ": 3824,
      "é¸Łç±»": 3825,
      "éĩĬä¹ī": 3826,
      "å½¼": 3827,
      "éĢĽ": 3828,
      "çĽ¸ä¿¡": 3829,
      "åĶ±æŃĮ": 3830,
      "ç»ĻæĤ¨": 3831,
      "ä¹ĭåĲİ": 3832,
      "æĻ¯èī²": 3833,
      "åĪ¶å®ļ": 3834,
      "åĬŀåħ¬": 3835,
      "æª": 3836,
      "åĩºåıĳ": 3837,
      "èį·": 3838,
      "æ¯ĶèµĽä¸Ń": 3839,
      "å®¾è¯Ń": 3840,
      "ä¸Ģå¼ł": 3841,
      "ç»ĺ": 3842,
      "ä¸įéľĢè¦ģ": 3843,
      "æľĢæĸ°çļĦ": 3844,
      "è¯Ĺåı¥": 3845,
      "ä»Ĭå¤©æĹ©ä¸Ĭ": 3846,
      "å¸®æĪĳæĥ³": 3847,
      "çļĦé£Łçī©": 3848,
      "æľĢå¥½": 3849,
      "æĺ¥é£İ": 3850,
      "ä¸ĢåĪĻ": 3851,
      "æľīå¤ļå°ĳ": 3852,
      "çī©ä½ĵ": 3853,
      "éĻµ": 3854,
      "å®ŀéĻħ": 3855,
      "èĤ´": 3856,
      "è¿Ļä½į": 3857,
      "ä¸įä»ħ": 3858,
      "éľŀ": 3859,
      "ãĢĭï¼Į": 3860,
      "è£Ļ": 3861,
      "æĿİåĽĽ": 3862,
      "åłª": 3863,
      "åħĪçĶŁ": 3864,
      "è¯·éļıæĹ¶åĳĬè¯īæĪĳ": 3865,
      "äºĪ": 3866,
      "æĹ¶æľŁ": 3867,
      "æŀģæĢ§": 3868,
      "çİ¯å¢ĥæ±¡æŁĵ": 3869,
      "æĿİåįİ": 3870,
      "ï¼ī<|": 3871,
      "éĢ»": 3872,
      "åįķè¯įçļĦ": 3873,
      "ç¥ŀç§ĺ": 3874,
      "ä½łæľīä»Ģä¹Ī": 3875,
      "çľĭäºĨä¸Ģ": 3876,
      "åĢ¦": 3877,
      "ç»ĦåĲĪ": 3878,
      "å¥³æĢ§": 3879,
      "è®²ä¸Ģä¸ª": 3880,
      "ç²¾ç¥ŀ": 3881,
      "éħĴåºĹ": 3882,
      "éĹ¹": 3883,
      "ä¸ºä¸Ģåı¥è¯Ŀ": 3884,
      "è®©å®ĥ": 3885,
      "å»ºè®®æĤ¨": 3886,
      "çĺ": 3887,
      "åŃ¸": 3888,
      "éĿ¢ä¸´": 3889,
      "è¯Ńæ³ķæŃ£ç¡®": 3890,
      "æĪĳæĥ³è¦ģ": 3891,
      "æĵįä½ľ": 3892,
      "çĶļ": 3893,
      "ä½¿åħ¶æĽ´ç®Ģæ´ģæĺİäºĨ": 3894,
      "è¯įè¯Ńæĺ¯ä»Ģä¹ĪæĦıæĢĿ": 3895,
      "è°ľè¯Ń": 3896,
      "æĪĳè§īå¾Ĺ": 3897,
      "èĩªæĪĳ": 3898,
      "äº¤æµģ": 3899,
      "æīĺ": 3900,
      "éĢĻ": 3901,
      "ä¸¤åı¥è¯Ŀ": 3902,
      "èİ±": 3903,
      "å¿ħè¦ģ": 3904,
      "çļĦæŃĮæĽ²": 3905,
      "åĩ¡": 3906,
      "æĤ¨çļĦéĹ®é¢ĺ": 3907,
      "åĮĹäº¬å¸Ĥ": 3908,
      "äººç±»çļĦ": 3909,
      "éľĢè¦ģæıĲä¾Ľ": 3910,
      "èĤº": 3911,
      "ä¸Ģé¡¹": 3912,
      "åħĶ": 3913,
      "æ¯ķ": 3914,
      "è´¡": 3915,
      "ç®Ģè¦ģ": 3916,
      "æĺ¯ä¸ĢåĲį": 3917,
      "æĮĩåįĹ": 3918,
      "æĹħæ¸¸æĻ¯çĤ¹": 3919,
      "é¥®æĸĻ": 3920,
      "çĶ·åŃ©": 3921,
      "ä¹ĥ": 3922,
      "å¸Ń": 3923,
      "åı¥åŃĲä¸Ń": 3924,
      "æĪĲä¸Ģåı¥è¯Ŀ": 3925,
      "éĢĬ": 3926,
      "æĥħå¢ĥ": 3927,
      "åıĳæĺİ": 3928,
      "å®īæİĴ": 3929,
      "çİĽä¸½": 3930,
      "äººåľ¨": 3931,
      "ä½¿åħ¶æĽ´åĬłæ¸ħæĻ°": 3932,
      "éĻĦè¿ĳçļĦ": 3933,
      "ä»ª": 3934,
      "ä¸ĢåĢĭ": 3935,
      "ç¾İåĽ½æĢ»ç»Ł": 3936,
      "ç¼ĵè§£": 3937,
      "æī§è¡Į": 3938,
      "å¤©ä¸ĭ": 3939,
      "åįł": 3940,
      "ï¼Ł\\": 3941,
      "æī©": 3942,
      "åĩºä¸Ģä¸ª": 3943,
      "å°ıçĮ«": 3944,
      "åŀĤ": 3945,
      "é¢Ĩå¯¼": 3946,
      "ä»ĸä»¬åľ¨": 3947,
      "åĵĪåĪ©": 3948,
      "åģ¥èº«æĪ¿": 3949,
      "è§Ī": 3950,
      "æĪĳä»¬åĨ³å®ļ": 3951,
      "å¤įåĲĪ": 3952,
      "çĶĺ": 3953,
      "è¡ĮæĶ¿": 3954,
      "æľĢå¤ļ": 3955,
      "åĲ¬éŁ³ä¹Ĳ": 3956,
      "è¿Ļæ®µæĸĩæľ¬": 3957,
      "èĿ¶": 3958,
      "çļĦåĬ¨çī©": 3959,
      "æĺ¯æŃ£éĿ¢": 3960,
      "åĽº": 3961,
      "åĩĢ": 3962,
      "äººåı£": 3963,
      "åĩºçĶŁ": 3964,
      "æĻĵ": 3965,
      "çĶ¨æĿ¥": 3966,
      "æ²¡æľīéĶĻè¯¯": 3967,
      "éĩįæĸ°æİĴåĪĹ": 3968,
      "åıĤä¸İ": 3969,
      "çĳŁ": 3970,
      "æķ¬": 3971,
      "åŃĹç¬¦": 3972,
      "å¾®é£İ": 3973,
      "åĨłåĨĽ": 3974,
      "ä¿ĥè¿Ľ": 3975,
      "æĪĳè¦ģ": 3976,
      "å¤ļæł·": 3977,
      "èĢģèĻİ": 3978,
      "è¿ŁåĪ°äºĨ": 3979,
      "è¯¾ç¨ĭ": 3980,
      "æľ±": 3981,
      "æĹ¥åŃĲ": 3982,
      "æĪ¿åŃĲ": 3983,
      "çłĶç©¶è¡¨æĺİ": 3984,
      "éĢ»è¾ĳ": 3985,
      "æĹĭ": 3986,
      "éĺ¶": 3987,
      "çĭĤ": 3988,
      "é¢Ħç®Ĺ": 3989,
      "æļ®": 3990,
      "èĥ¡": 3991,
      "æĹłæ³ķåĽŀçŃĶ": 3992,
      "çļĦåİĨåı²": 3993,
      "ä¸Ģæ¬¾": 3994,
      "å¢Ļ": 3995,
      "é¢Ħè®¡": 3996,
      "æŁ¥ä¸Ģä¸ĭ": 3997,
      "çĭ¬çī¹": 3998,
      "å°Ĩä»¥ä¸ĭä¸¤ä¸ªåı¥åŃĲåĲĪå¹¶": 3999,
      "è²Į": 4000,
      "æ¡ĮåŃĲ": 4001,
      "æĿľ": 4002,
      "åģ¶": 4003,
      "åĽłå¤©æ°Ķ": 4004,
      "ä¹ĲæĦı": 4005,
      "æĶ¾åľ¨": 4006,
      "å¹³è¡¡": 4007,
      "ä½Ĩæĺ¯æĪĳ": 4008,
      "æĦīæĤ¦": 4009,
      "å¹¶è¦ģæ±Ĥ": 4010,
      "èĪį": 4011,
      "åŃ¦ä¹łç¼ĸç¨ĭ": 4012,
      "è¡¨è¾¾æĸ¹å¼ı": 4013,
      "å®¡": 4014,
      "æĤ¨æĥ³": 4015,
      "èī³": 4016,
      "ä¿®æĶ¹ä»¥ä¸ĭåı¥åŃĲ": 4017,
      "æıĲä¾Ľä¸Ģä¸ªæłĩé¢ĺ": 4018,
      "\"ãĢĤ<|": 4019,
      "æķı": 4020,
      "å¿½": 4021,
      "æĹłèģĬ": 4022,
      "è¢ĸ": 4023,
      "åĵĪåĵĪ": 4024,
      "ä¸įçĶ¨å®¢æ°Ķ": 4025,
      "æĪĳæĺ¯ä¸Ģä¸ª": 4026,
      "æĺ¯ä¸ŃåĽ½": 4027,
      "è¿Ľåħ¥": 4028,
      "ç©·": 4029,
      "ç¼ĺ": 4030,
      "èµ·åºĬ": 4031,
      "æĢİæł·": 4032,
      "æķ´ä¸ª": 4033,
      "å¼ĢæĶ¾å¼ı": 4034,
      "èĤ¯å®ļ": 4035,
      "æĹĹ": 4036,
      "æĽ¼": 4037,
      "æīĢä»¥ä»ĸ": 4038,
      "åºĶè¯¥æĺ¯": 4039,
      "é¹¿": 4040,
      "éĿŀå¸¸æĦŁè°¢ä½łçļĦ": 4041,
      "ä¸ĢçĤ¹": 4042,
      "æĪĳæĺ¯": 4043,
      "æ±ģ": 4044,
      "ç¾½": 4045,
      "çľĭçĶµè§Ĩ": 4046,
      "æ¸ħåįķ": 4047,
      "èĦ¸": 4048,
      "åįļå®¢": 4049,
      "åı¯æĮģç»Ńåıĳå±ķ": 4050,
      "å¾ĪåĬªåĬĽ": 4051,
      "è¿Ľä¸ĢæŃ¥": 4052,
      "éĩĮéĿ¢": 4053,
      "å¸®åĪ°": 4054,
      "çŃīå¾ħ": 4055,
      "å»·": 4056,
      "æĹ¥å¸¸": 4057,
      "éļľ": 4058,
      "æīĵç¯®çĲĥ": 4059,
      "åĳĺå·¥": 4060,
      "å¿ĺè®°": 4061,
      "å°º": 4062,
      "ä¼°": 4063,
      "åİ»ä¸ĬçıŃ": 4064,
      "è´«": 4065,
      "åĬĽåĴĮ": 4066,
      "æĢ§éĹ®é¢ĺ": 4067,
      "é¢Ħéĺ²": 4068,
      "åºĶçĶ¨äºİ": 4069,
      "æĪĲè¯ŃéĩĬä¹ī": 4070,
      "æıĲåįĩ": 4071,
      "æıĲåıĸæĸĩç«łä¸ŃçļĦ": 4072,
      "å°Ĩä»¥ä¸ĭåı¥åŃĲéĩįåĨĻä¸º": 4073,
      "æķĪæŀľ": 4074,
      "èĲ¥éĶĢ": 4075,
      "è¿ħ": 4076,
      "ä¹Į": 4077,
      "ä¸ĭä¸Ģä¸ª": 4078,
      "ä»Ģä¹Īæł·çļĦ": 4079,
      "çİ°å®ŀ": 4080,
      "åħ¨åĽ½": 4081,
      "ä¸¤ä¸ªåįķè¯į": 4082,
      "éļ¾ä»¥": 4083,
      "ä½Ĩä»ĸè¿ĺæĺ¯": 4084,
      "çļĦé¦ĸéĥ½æĺ¯": 4085,
      "è¡«": 4086,
      "ä»ĸè¯´": 4087,
      "éĶ¦": 4088,
      "æ²Ł": 4089,
      "è·ĥ": 4090,
      "è§Ĩé¢ĳ": 4091,
      "æĪ·å¤ĸæ´»åĬ¨": 4092,
      "è¾Ľ": 4093,
      "åı¯ä»¥åľ¨": 4094,
      "ä¸»ä¹ī": 4095,
      "åī©": 4096,
      "åħ¬åħ±": 4097,
      "ç¬¬ä¸Ģä½į": 4098,
      "æĻºæħ§": 4099,
      "æĢĿå¿µ": 4100,
      "æĺ¯ä¸Ģéĥ¨": 4101,
      "åģļä»Ģä¹Ī": 4102,
      "çĥŃéĹ¨": 4103,
      "éĻĪè¿°åı¥": 4104,
      "åı¯è¯»æĢ§": 4105,
      "é³": 4106,
      "ä¸Ģçīĩ": 4107,
      "ä¾¯": 4108,
      "ç»ıè¿ĩ": 4109,
      "æĳ©": 4110,
      "å¼ºè°ĥ": 4111,
      "åĪĨåĪ«æĺ¯": 4112,
      "èĢĲ": 4113,
      "åıĳéĢģ": 4114,
      "ç¨İ": 4115,
      "çģŃ": 4116,
      "èĩªçĦ¶çģ¾å®³": 4117,
      "è½»æĿ¾": 4118,
      "èĵĿèī²çļĦ": 4119,
      "èİ·å¾ĹäºĨ": 4120,
      "ä»ģ": 4121,
      "åı¯ä»¥åĳĬè¯īæĪĳ": 4122,
      "å¯¹å¯¹èģĶ": 4123,
      "æłĩè¯Ń": 4124,
      "æĦıè§ģ": 4125,
      "çĭĹçĭĹ": 4126,
      "ç¬¬ä¸Ģä¸ª": 4127,
      "ä¿ĿæĬ¤çİ¯å¢ĥ": 4128,
      "è®¸å¤ļäºº": 4129,
      "èĸĦ": 4130,
      "åıĹæ¬¢è¿İçļĦ": 4131,
      "æļĤ": 4132,
      "äºļæ´²": 4133,
      "ä½Ĩä»ĸä»įçĦ¶": 4134,
      "åĲ¾": 4135,
      "æĢĸ": 4136,
      "è¿Ľè¡ĮæĥħæĦŁåĪĨæŀĲ": 4137,
      "åıªæĺ¯": 4138,
      "åįģäºĮ": 4139,
      "åıĭå¥½": 4140,
      "å¤®": 4141,
      "çĬ¶æĢģ": 4142,
      "æĸĩæľ¬ä¸ŃçļĦéĶĻè¯¯": 4143,
      "åľ¨æŃ¤": 4144,
      "è¯·æĬĬ": 4145,
      "ä¿Ħ": 4146,
      "æ²®": 4147,
      "èµ¶": 4148,
      "éģŃ": 4149,
      "ä½Ĩä¸į": 4150,
      "è®¿éĹ®": 4151,
      "åĴ¨": 4152,
      "æĸ°é²ľ": 4153,
      "çŁ¶": 4154,
      "åĲ¬åĪ°": 4155,
      "ä¸ĩçī©": 4156,
      "åĨľä¸ļ": 4157,
      "çªģçĦ¶": 4158,
      "åĲŁ": 4159,
      "æĿī": 4160,
      "è¯·æ±Ĥ": 4161,
      "æľĢå¤§": 4162,
      "ãĢĭãĢĤ<|": 4163,
      "æķ°æį®éĽĨ": 4164,
      "åİĨåı²ä¸Ĭ": 4165,
      "æŃ»äº¡": 4166,
      "æ¼Ĥäº®çļĦ": 4167,
      "ä¸ĭçļĦ": 4168,
      "ä¼Ł": 4169,
      "ä¾į": 4170,
      "å±ı": 4171,
      "åĽŀæĶ¶": 4172,
      "éķ¿åŁİ": 4173,
      "æ¢¨": 4174,
      "ä¸ĩéĩĮ": 4175,
      "æĪĳåı¯ä»¥ä¸ºæĤ¨": 4176,
      "æĽ´åħ·ä½ĵ": 4177,
      "ä¿ĿçķĻ": 4178,
      "å§ĵåĲį": 4179,
      "ä½łåľ¨": 4180,
      "åİ»è·ĳæŃ¥": 4181,
      "èĭį": 4182,
      "åĽłä¸ºå®ĥä»¬": 4183,
      "ä¸ľäº¬": 4184,
      "åıĤè§Ĥ": 4185,
      "éŁ³ä¹Ĳä¼ļ": 4186,
      "åį§": 4187,
      "ä½łæľĢåĸľæ¬¢çļĦ": 4188,
      "åĵ²": 4189,
      "è¾£": 4190,
      "èµĭ": 4191,
      "æĹ¶åħī": 4192,
      "èįĴ": 4193,
      "ç¾İåĳ³çļĦ": 4194,
      "è·ŁæĪĳ": 4195,
      "æģĲæĢĸ": 4196,
      "æĺı": 4197,
      "åįľ": 4198,
      "æĢĴ": 4199,
      "åĳĨ": 4200,
      "æİ¨è¿Ł": 4201,
      "éª¤": 4202,
      "åĪĽä½ľä¸Ģé¦ĸ": 4203,
      "éĢ¢": 4204,
      "åĲ¦å®ļ": 4205,
      "æ¨ª": 4206,
      "åįģå¹´": 4207,
      "èħ¾": 4208,
      "è¿Ļå®¶é¤Ĳåİħ": 4209,
      "èĴĻ": 4210,
      "âĢ¦âĢ¦": 4211,
      "ä¸ģ": 4212,
      "å¾¡": 4213,
      "ä¸įä½³": 4214,
      "è¾ħ": 4215,
      "åĨįçĶŁ": 4216,
      "å¦ĩ": 4217,
      "ä¸ĸçķĮä¸ĬæľĢå¤§çļĦ": 4218,
      "åĭĩæķ¢": 4219,
      "æĪĳçĪ±": 4220,
      "ä½łçŁ¥éģĵ": 4221,
      "æģĴ": 4222,
      "æĪĸä¸ŃæĢ§": 4223,
      "èĤ¤": 4224,
      "èĬĤçº¦": 4225,
      "èº«ä½ĵåģ¥åº·": 4226,
      "åī§æĥħ": 4227,
      "æł¹æį®æıĲä¾ĽçļĦæĸĩæľ¬": 4228,
      "æ·»åĬłä¸Ģä¸ª": 4229,
      "å®Įæķ´çļĦåı¥åŃĲ": 4230,
      "æĴ°åĨĻ": 4231,
      "åŃĶ": 4232,
      "è¿Ļä¹Ī": 4233,
      "æŀ¶": 4234,
      "è¿ĽæŃ¥": 4235,
      "ä»İèĢĮ": 4236,
      "æĹłéĻĲ": 4237,
      "çĸı": 4238,
      "æİĮæı¡": 4239,
      "è¯ŃéŁ³è¯ĨåĪ«": 4240,
      "æ²®ä¸§": 4241,
      "åĩ¤": 4242,
      "åĮ¹": 4243,
      "å¯º": 4244,
      "å®¶äºº": 4245,
      "æ²¡æľīéĶĻåĪ«åŃĹ": 4246,
      "ç¨¿": 4247,
      "ä¸ĸçºª": 4248,
      "èĬ±å¼Ģ": 4249,
      "æĪĺäºī": 4250,
      "è¿½æ±Ĥ": 4251,
      "è¯·ä¸ºæĪĳ": 4252,
      "æľīè®¸å¤ļ": 4253,
      "è¯·æł¹æį®": 4254,
      "çĤ¸": 4255,
      "è±ª": 4256,
      "èĢģé¼ł": 4257,
      "å¾Īå¥½åĲĥ": 4258,
      "å¾·åĽ½": 4259,
      "æ¼«æŃ¥": 4260,
      "çľŁçļĦå¾Ī": 4261,
      "çļĦåĽŀçŃĶ": 4262,
      "è¿Ļåº§": 4263,
      "æ°Ľ": 4264,
      "æĥľ": 4265,
      "æĪĳä»¬åºĶè¯¥": 4266,
      "çĮª": 4267,
      "ä¸»é¢ĺæĺ¯": 4268,
      "èĦ±": 4269,
      "æ¶Īæģ¯": 4270,
      "æľĭåıĭä»¬": 4271,
      "è°ĥæŁ¥": 4272,
      "æµªè´¹": 4273,
      "åŀĥåľ¾éĤ®ä»¶": 4274,
      "å¤įåĲĪåı¥": 4275,
      "çļĦé¢ĨåŁŁ": 4276,
      "åĩĮ": 4277,
      "æĺİæĺ¾": 4278,
      "éĿŀæ´²": 4279,
      "æĸĩç«łä¸Ńåħ³äºİ": 4280,
      "æľĢé«ĺæ¸©åº¦": 4281,
      "çļĦäºĭå®ŀ": 4282,
      "æĸľ": 4283,
      "è¿ģ": 4284,
      "éģ£": 4285,
      "éģ¥": 4286,
      "èī²å½©": 4287,
      "éī": 4288,
      "åİĤ": 4289,
      "éĢĥ": 4290,
      "å°Ĩç»Ļå®ļçļĦ": 4291,
      "æĤ¨æĥ³è¦ģ": 4292,
      "ç»Ļå®ļä¸Ģæ®µæĸĩæľ¬": 4293,
      "éĤĢ": 4294,
      "æĹłäºº": 4295,
      "æ¯ıå¤©éĥ½": 4296,
      "çĭ®åŃĲ": 4297,
      "åĴ¨è¯¢": 4298,
      "éĢĨ": 4299,
      "æŀ¯": 4300,
      "æĸ°åŀĭ": 4301,
      "å¤§çĨĬçĮ«": 4302,
      "æĮº": 4303,
      "ä½ľè¯Ĺ": 4304,
      "å°ıçº¢": 4305,
      "èĬĴ": 4306,
      "æĸĩç«łä¸ŃæıĲåĪ°äºĨ": 4307,
      "ä¸ĭéĿ¢çļĦ": 4308,
      "éĩįæĸ°è¡¨è¿°": 4309,
      "16": 4310,
      "å¾Ĵ": 4311,
      "æĢª": 4312,
      "å¤ļç§į": 4313,
      "ä»Ĭå¤©æĺ¯": 4314,
      "æ¼ł": 4315,
      "éĩįåĨĻä»¥ä¸ĭåı¥åŃĲä»¥": 4316,
      "ç¥ŀç»ı": 4317,
      "é¸ŁåĦ¿": 4318,
      "çļĦè¯Ńåı¥": 4319,
      "åģıå¥½": 4320,
      "å¸¸è§ģçļĦ": 4321,
      "çļĦåıįä¹īè¯į": 4322,
      "æĪĳæĺİå¤©": 4323,
      "åİĮ": 4324,
      "å¼±": 4325,
      "æģ°": 4326,
      "æĹ¶éĹ´åĴĮ": 4327,
      "æĸ¯åĿ¦": 4328,
      "æ´ĽæĿī": 4329,
      "æ±¤å§Ĩ": 4330,
      "æ´ĽæĿīçŁ¶": 4331,
      "æĪĳçİ°åľ¨": 4332,
      "å°Ĩä¸ĭåĪĹåı¥åŃĲ": 4333,
      "ä½ľå®¶": 4334,
      "é£Łè°±": 4335,
      "å¼ºçĥĪ": 4336,
      "åį³åı¯": 4337,
      "åĨĻè¯ĹåĲĹ": 4338,
      "ä¸ĸçķĮä¸ĬæľĢé«ĺçļĦå±±å³°æĺ¯ä»Ģä¹Ī": 4339,
      "ä½łèĥ½å¸®æĪĳåĨĻè¯ĹåĲĹ": 4340,
      "éĢĴ": 4341,
      "è¡¨æ¼Ķ": 4342,
      "çĻ½äºĳ": 4343,
      "éļıçĿĢ": 4344,
      "åĨ¬å¤©": 4345,
      "å¤·": 4346,
      "åĪ·": 4347,
      "åĪĹä¸¾": 4348,
      "ç»ĵæĿŁ": 4349,
      "è½¬æį¢æĪĲ": 4350,
      "çļĦçīĪæľ¬": 4351,
      "æĪĳè¿ĺ": 4352,
      "åİĺ": 4353,
      "å¥½åĲĥ": 4354,
      "æģ¨": 4355,
      "èĦĤ": 4356,
      "å¸®æĪĳåĨĻè¯Ĺ": 4357,
      "å¦»": 4358,
      "åĲĮä¹īè¯įæĪĸ": 4359,
      "ä¼ģé¹ħ": 4360,
      "æĦ¿æĦı": 4361,
      "åŃĹæ¯įé¡ºåºı": 4362,
      "çļĦå°ıè¯´": 4363,
      "åı¥åŃĲä¸ŃçļĦ": 4364,
      "æĽ´åĩĨç¡®": 4365,
      "å¿ĥèĦı": 4366,
      "èĤł": 4367,
      "å¨±ä¹Ĳ": 4368,
      "çĽĲ": 4369,
      "å¥¹åľ¨": 4370,
      "å½¢çļĦ": 4371,
      "èıľèĤ´": 4372,
      "é£ŀè¡Į": 4373,
      "äººå·¥æĻºèĥ½åľ¨åĮ»çĸĹé¢ĨåŁŁ": 4374,
      "çļĦæĥħåĨµ": 4375,
      "æľ¬å°ıè¯´": 4376,
      "äºİæĺ¯": 4377,
      "æģĭ": 4378,
      "ä¸īç§į": 4379,
      "å°½åı¯èĥ½": 4380,
      "æĺŁçĲĥ": 4381,
      "æĻļé¥Ń": 4382,
      "èĬĤçĽ®": 4383,
      "ç²®": 4384,
      "è¯·æıĲä¾ĽæĽ´å¤ļ": 4385,
      "èľĤ": 4386,
      "åĿĲåľ¨": 4387,
      "ç´§å¼ł": 4388,
      "è¯ı": 4389,
      "çľĭåĪ°äºĨ": 4390,
      "ç¿Ķ": 4391,
      "å£ģ": 4392,
      "å²©": 4393,
      "æĲŃ": 4394,
      "å¢ŀå¼º": 4395,
      "éŃĤ": 4396,
      "æłĩåĩĨ": 4397,
      "ï¼ģâĢĿ": 4398,
      "éħ±": 4399,
      "çĽ¸åħ³ä¿¡æģ¯": 4400,
      "çŃĸçķ¥": 4401,
      "çļĦä¸Ģä¸ª": 4402,
      "ä¸Ģéģĵ": 4403,
      "æĿ¥äºĨ": 4404,
      "è´´": 4405,
      "ä»Ģä¹Īç±»åŀĭçļĦ": 4406,
      "è¿Ļä¸ªçĶµå½±": 4407,
      "å®ĥæĺ¯": 4408,
      "å»ºè®¾": 4409,
      "ä¸Ģæ®µè¯Ŀ": 4410,
      "å¯¹ä»¥ä¸ĭåı¥åŃĲè¿Ľè¡ĮæĶ¹åĨĻ": 4411,
      "ä¹Ķæ²»": 4412,
      "å¼Ģå¤´": 4413,
      "åı¤èĢģ": 4414,
      "çĮİ": 4415,
      "è§Ĩè§ī": 4416,
      "æŀĦéĢł": 4417,
      "è¿Ļæĺ¯ä¸Ģæ®µ": 4418,
      "æĻ´å¤©": 4419,
      "æ°¸è¿ľ": 4420,
      "çļĦåĲ«ä¹īæĺ¯ä»Ģä¹Ī": 4421,
      "æĺ¯åĵªéĩĮ": 4422,
      "è¯·ä»İæĸĩç«łä¸ŃæıĲåıĸ": 4423,
      "æĦŁåĨĴ": 4424,
      "åŁİå¸ĤçļĦ": 4425,
      "åĩıè½»": 4426,
      "é¼»": 4427,
      "ä½įäºİåĸľé©¬æĭīéĽħå±±èĦī": 4428,
      "éī´": 4429,
      "ãĢģãĢĬ": 4430,
      "èĥģ": 4431,
      "ä¸¾åĬŀ": 4432,
      "æ³¢çī¹": 4433,
      "28": 4434,
      "åľ¨çº¿": 4435,
      "æ°Ķè±¡": 4436,
      "çĽ¸åħ³çļĦéĹ®é¢ĺ": 4437,
      "å¦Īå¦Ī": 4438,
      "ç°": 4439,
      "æĺĤ": 4440,
      "è¿Ļä¸Ģ": 4441,
      "ä¸įåĪ°": 4442,
      "ç»Ļå®ļçļĦæĸĩæľ¬ä¸Ń": 4443,
      "è¥¿çĵľ": 4444,
      "æĽ¾ç»ı": 4445,
      "è°·æŃĮ": 4446,
      "ç»Ļå®ļä¸Ģç¯ĩæĸĩç«ł": 4447,
      "çĤĴ": 4448,
      "åĮĸåŃ¦": 4449,
      "ä¸»é¢ĺä¸º": 4450,
      "èİİ": 4451,
      "å¼ķäºº": 4452,
      "çģ«æĺŁ": 4453,
      "æĶ¯ä»ĺ": 4454,
      "æıŃ": 4455,
      "æĪĲéķ¿": 4456,
      "ä»ĸè¿ĺæĺ¯": 4457,
      "è¯·ç»Ļåĩº": 4458,
      "å¤ªåĨ·": 4459,
      "éĴĵ": 4460,
      "å¤±æľĽ": 4461,
      "ç»Ļå®ļä¸Ģä¸ªéĹ®é¢ĺ": 4462,
      "ä¹°äºĨä¸ĢäºĽ": 4463,
      "ä¸ĭéĻį": 4464,
      "ä¸Ńæī¾åĪ°": 4465,
      "éĶħ": 4466,
      "å°Ĩç»Ļå®ļçļĦåı¥åŃĲ": 4467,
      "ä½¿åħ¶æĽ´åĬłç®Ģæĺİæī¼è¦ģ": 4468,
      "åķĨåľº": 4469,
      "æŀĦå»º": 4470,
      "å°¼æ³Ĭ": 4471,
      "éĢĤå½ĵçļĦæłĩçĤ¹ç¬¦åı·": 4472,
      "å°Ĩå®ĥä»¬åĲĪå¹¶": 4473,
      "ç¨³å®ļ": 4474,
      "è¯·åľ¨": 4475,
      "æĿ¥çļĦ": 4476,
      "é«ĺçļĦ": 4477,
      "çĥ¹": 4478,
      "é¥°": 4479,
      "èıľåįķ": 4480,
      "æł¹æį®ä»¥ä¸ĭè¾ĵåħ¥": 4481,
      "çļĦä¸»è¦ģè§ĤçĤ¹": 4482,
      "æķ°åŃ¦éĹ®é¢ĺ": 4483,
      "...": 4484,
      "è¿«": 4485,
      "å¤§èĩªçĦ¶": 4486,
      "å¹¶å°Ĩåħ¶": 4487,
      "é«ĺæķĪ": 4488,
      "ç¡¬": 4489,
      "ãĢĭãĢģãĢĬ": 4490,
      "åİ»äºĨè¶ħå¸Ĥ": 4491,
      "æĦŁåĪ°å¾Ī": 4492,
      "åħĥç´ł": 4493,
      "ä¼ĺçĤ¹": 4494,
      "æ½º": 4495,
      "æĶ¹æŃ£æĸĩæľ¬ä¸ŃçļĦéĶĻè¯¯": 4496,
      "å°¼æ³Ĭå°Ķ": 4497,
      "ä¸Ģéģį": 4498,
      "æĹģ": 4499,
      "åīįæĻ¯": 4500,
      "çĥĤ": 4501,
      "æ··": 4502,
      "æĪĳåı¯ä»¥å¸®æĤ¨": 4503,
      "ç²¾å½©": 4504,
      "æľĢåĸľæ¬¢çļĦçĶµå½±": 4505,
      "æĸĩæĺİ": 4506,
      "èĢĹ": 4507,
      "ä»İä»¥ä¸ĭ": 4508,
      "è¯´è¯Ŀ": 4509,
      "è¿Ļå®¶é¤ĲåİħçļĦé£Łçī©": 4510,
      "ä¼ĺç§ĢçļĦ": 4511,
      "æ¬¢ä¹Ĳ": 4512,
      "è¿Ľè¡Įè¯Ńæ³ķ": 4513,
      "èĤĸ": 4514,
      "çŁŃåı¥": 4515,
      "è¾ĵåħ¥æĸĩæľ¬": 4516,
      "åĲĳæĪĳ": 4517,
      "é²¸é±¼": 4518,
      "äºŃ": 4519,
      "å¤º": 4520,
      "ä¸ºä»¥ä¸ĭæĸĩæľ¬": 4521,
      "å¤ªå¤ļ": 4522,
      "çľŁæŃ£": 4523,
      "æŁĲäºĽ": 4524,
      "å¨ģèĥģ": 4525,
      "æ°§åĮĸ": 4526,
      "è´¸": 4527,
      "æ³ķè§Ħ": 4528,
      "ç®Ģç»ĥ": 4529,
      "èĬ¬": 4530,
      "å¤ªå¥½äºĨ": 4531,
      "å§Ĳ": 4532,
      "æ¶Īè´¹": 4533,
      "æĪĳæĥ³åİ»": 4534,
      "å°¼åħĭ": 4535,
      "ä¸ĢçĽ´åľ¨": 4536,
      "åĲĮä¹īåı¥": 4537,
      "åĨ¥": 4538,
      "è¿Ļéģĵ": 4539,
      "åĳĪ": 4540,
      "åĸľæ¬¢åľ¨": 4541,
      "ä¿ĿéĻ©": 4542,
      "äºĭçī©": 4543,
      "è§£è¯»": 4544,
      "æ»ļ": 4545,
      "æľªçŁ¥": 4546,
      "åłµ": 4547,
      "èĥľåĪ©": 4548,
      "çĽĳçĿ£": 4549,
      "æĦıå¤§åĪ©éĿ¢": 4550,
      "æĪĳå¾Īé«ĺåħ´èĥ½å¤Ł": 4551,
      "æľīæĦıä¹īçļĦåı¥åŃĲ": 4552,
      "æĺİçĻ½äºĨ": 4553,
      "æķĮ": 4554,
      "æ°Ķä½ĵ": 4555,
      "æĮĤ": 4556,
      "é£İæļ´": 4557,
      "æŃ¥éª¤": 4558,
      "æĥħæĦŁæŀģæĢ§": 4559,
      "æĲº": 4560,
      "æĪĲåĬŁçļĦ": 4561,
      "è·³èĪŀ": 4562,
      "è³": 4563,
      "æĺ¯æľĢ": 4564,
      "å¾ª": 4565,
      "æĽ´æ¸ħæĻ°": 4566,
      "èī¾": 4567,
      "æĶ¹æĪĲ": 4568,
      "æ®Ĭ": 4569,
      "ãĢĤâĢĿâĢľ": 4570,
      "ç©ºéĹ´": 4571,
      "åıįåºĶ": 4572,
      "èĮ«": 4573,
      "çĻĮçĹĩ": 4574,
      "ç«Ł": 4575,
      "å°ĨåĨĽ": 4576,
      "å¤§åľ°": 4577,
      "éĹ®é¢ĺçļĦ": 4578,
      "çİ°è±¡": 4579,
      "æĺ¯åĵªåº§": 4580,
      "æľĢä½İæ¸©åº¦": 4581,
      "å®¿": 4582,
      "åºĻ": 4583,
      "ç»Ļä»¥ä¸ĭåı¥åŃĲ": 4584,
      "äººå·¥æĻºèĥ½åºĶçĶ¨": 4585,
      "æ¨¡æĭŁ": 4586,
      "èµ°äºĨ": 4587,
      "è¿ŀæİ¥": 4588,
      "ä½ľä¸ºä¸Ģä¸ª": 4589,
      "æ´¾å¯¹": 4590,
      "æŃ§": 4591,
      "ä¸ĬäºĨ": 4592,
      "çĽ¸å¯¹": 4593,
      "éĤ»": 4594,
      "éĤ£äºĽ": 4595,
      "å¯¼æ¼Ķ": 4596,
      "æĲŀ": 4597,
      "çļĦæĬĢæľ¯": 4598,
      "æĪĳæľĢåĸľæ¬¢çļĦ": 4599,
      "æľīçĽĬ": 4600,
      "äºĨä¸ĢäºĽ": 4601,
      "è°ĭ": 4602,
      "åĪĨä¸º": 4603,
      "æĸĩç«łä¸Ńæĳĺåıĸ": 4604,
      "é¥¿": 4605,
      "çģ°": 4606,
      "åĨ³çŃĸ": 4607,
      "çļĦé¤Ĳåİħ": 4608,
      "åħ¼": 4609,
      "ä¸įè¶³": 4610,
      "æ³½": 4611,
      "å¾Īå¥½çļĦ": 4612,
      "æ´ª": 4613,
      "è´¦": 4614,
      "çī©ç§į": 4615,
      "ä¸»äºº": 4616,
      "ä»İä»¥ä¸ĭæĸĩæľ¬": 4617,
      "çĶŁæĪĲä¸Ģä¸ªåı¥åŃĲ": 4618,
      "çĶŁæĪĲä¸Ģä¸ªç®ĢçŁŃçļĦ": 4619,
      "æİ¨å¹¿": 4620,
      "æ¸ħæ¥ļ": 4621,
      "ä¼ĺåĮĸ": 4622,
      "åĲįè¯įçŁŃè¯Ń": 4623,
      "çĪ¶æ¯į": 4624,
      "çļĩå¸Ŀ": 4625,
      "æĬĵ": 4626,
      "è¾ī": 4627,
      "å½ĵæĹ¶": 4628,
      "ãĢĭãĢĤ": 4629,
      "ä»ĸä»¬æŃ£åľ¨": 4630,
      "è£ģ": 4631,
      "åĭķ": 4632,
      "éŃı": 4633,
      "å¤ªéĺ³ç³»ä¸Ń": 4634,
      "çļĦå·¥ä½ľ": 4635,
      "åĨĻä¸Ģç¯ĩ": 4636,
      "æ²¿": 4637,
      "å¹¶ä¿ĿæĮģ": 4638,
      "çķª": 4639,
      "è·µ": 4640,
      "æııè¿°ä¸Ģä¸ª": 4641,
      "æľĪäº®": 4642,
      "åĽĽä¸ª": 4643,
      "èħ¿": 4644,
      "ç»µ": 4645,
      "è¡¬": 4646,
      "çĪ¸": 4647,
      "çĻ¼": 4648,
      "ç¡®è®¤": 4649,
      "æĵİ": 4650,
      "å°Ĩä¸ĭéĿ¢åı¥åŃĲç¿»è¯ĳæĪĲæĸĩè¨Ģæĸĩ": 4651,
      "è«": 4652,
      "æĪĳåĨ³å®ļ": 4653,
      "åį¢": 4654,
      "åľ°åĿĢ": 4655,
      "è´¯": 4656,
      "æ¶¯": 4657,
      "æĺİå¤©æĹ©ä¸Ĭ": 4658,
      "åĦ¿ç«¥": 4659,
      "éĻ¤äºĨ": 4660,
      "åĢ¾åĲĳ": 4661,
      "åħĦ": 4662,
      "æľīäºº": 4663,
      "åīĳ": 4664,
      "èĬĿ": 4665,
      "é¡µ": 4666,
      "åĵģå°Ŀ": 4667,
      "å¤ĸéĿ¢": 4668,
      "åı£æĦŁ": 4669,
      "æİ¨èįĲä¸ĢäºĽ": 4670,
      "å°Ĩä»¥ä¸ĭæĸĩæľ¬ä¸ŃçļĦ": 4671,
      "è´¡çĮ®": 4672,
      "çļĦä½įç½®": 4673,
      "æł¹æį®çĶ¨æĪ·": 4674,
      "æĪĲä¸ºä¸Ģä¸ª": 4675,
      "å¯Įæľī": 4676,
      "å°¤åħ¶æĺ¯": 4677,
      "çļĦè¯Ńæ³ķ": 4678,
      "çļĦè¯Ŀé¢ĺ": 4679,
      "çĶŁåŃĺ": 4680,
      "èµł": 4681,
      "éĽ¾": 4682,
      "çī¹èī²": 4683,
      "é¹¤": 4684,
      "å¥½çľĭçļĦçĶµå½±": 4685,
      "ä»°": 4686,
      "è¯·ä»İè¿Ļç¯ĩæĸĩç«łä¸ŃæıĲåıĸåĩº": 4687,
      "æłĩè®°": 4688,
      "ä¸ŃçļĦåºĶçĶ¨": 4689,
      "è¿Ļåı¥è¯Ŀåľ¨ä¸ŃåĽ½": 4690,
      "æħĪ": 4691,
      "éŀĭåŃĲ": 4692,
      "èĬ±åĽŃéĩĮ": 4693,
      "è¿Ļåı¥è¯Ŀåľ¨ä¸ŃåĽ½åı¤ä»£æĢİä¹Īè¯´": 4694,
      "æĪĳæľī": 4695,
      "æĪĲå°±": 4696,
      "å¤§å¤ļ": 4697,
      "æ¡£": 4698,
      "ä¹Łåı¯ä»¥": 4699,
      "æ¸ħæ´ģ": 4700,
      "å¦Ĥä½ķåľ¨": 4701,
      "çĻ½è¯Ŀ": 4702,
      "åľĭ": 4703,
      "åĵģè´¨": 4704,
      "è®©GPTæ¨¡åŀĭ": 4705,
      "ç¿»è¯ĳæĪĲä¸Ńæĸĩ": 4706,
      "åı¯èĥ½çļĦ": 4707,
      "çİ¯ä¿Ŀæİªæĸ½": 4708,
      "é»Ħèī²": 4709,
      "è¶³çĲĥæ¯ĶèµĽ": 4710,
      "åıĸåĨ³": 4711,
      "ç»Ļå®ļä¸Ģç»Ħ": 4712,
      "å¤ĸå¥Ĺ": 4713,
      "å¸®æĪĳæĬĬè¿Ļåı¥è¯Ŀç¿»è¯ĳæĪĲçİ°ä»£æĸĩ": 4714,
      "åĭĥ": 4715,
      "ä¸Ģèµ·åİ»": 4716,
      "æĽ´ç®ĢåįķçļĦè¯Ńè¨Ģ": 4717,
      "ä½łåºĶè¯¥": 4718,
      "ä¹ĭæĹħ": 4719,
      "éĥ¡": 4720,
      "åĽłä¸ºä»ĸä»¬": 4721,
      "ç»Ļåĩºä¸Ģåı¥è¯Ŀ": 4722,
      "é¸Ń": 4723,
      "ç¿»è¯ĳæĪĲçĻ½è¯Ŀ": 4724,
      "å±ķç¤º": 4725,
      "æĺĵè¯»": 4726,
      "æĺ¯åĲ¦ä¸º": 4727,
      "çħ®": 4728,
      "æ©ĺ": 4729,
      "ç¿»è¯ĳæĪĲçĻ½è¯Ŀæĸĩ": 4730,
      "åı¬": 4731,
      "æıĲéĹ®": 4732,
      "è¦Ĩ": 4733,
      "åı¯åĨįçĶŁ": 4734,
      "è§¦": 4735,
      "å¯¹åħ¶": 4736,
      "æĶ¹éĿ©": 4737,
      "æ®¿": 4738,
      "çĶŁæĪĲä¸Ģä¸ªåħ³äºİ": 4739,
      "åĽŀçŃĶæĤ¨çļĦéĹ®é¢ĺ": 4740,
      "éĵº": 4741,
      "åĽ¾çīĩ": 4742,
      "éĢīæĭ©ä¸Ģä¸ª": 4743,
      "çĶ±äºİå¤©æ°Ķä¸įå¥½": 4744,
      "çļĦç»ĵæŀľ": 4745,
      "ä¸ĭä¸ªæľĪ": 4746,
      "ä¸Ńå¤®": 4747,
      "ä»ĸæŃ£åľ¨": 4748,
      "å¯¹ä¸ĭéĿ¢çļĦæĸĩæľ¬": 4749,
      "éĥĳ": 4750,
      "åĪ«äºº": 4751,
      "éķ¿æĹ¶éĹ´": 4752,
      "æ¶¨": 4753,
      "ç¥Ī": 4754,
      "èº«å¿ĥ": 4755,
      "åıĬåħ¶": 4756,
      "ä¸»è¦ģè§ĤçĤ¹": 4757,
      "å¡«åĨĻ": 4758,
      "æĤ¬çĸĳ": 4759,
      "åıĸåĨ³äºİ": 4760,
      "åľ¨ä¸Ģä¸ª": 4761,
      "å¥ī": 4762,
      "åĩºäºĨ": 4763,
      "éĻª": 4764,
      "å¿ĥä¸Ń": 4765,
      "ä¸īè§Ĵ": 4766,
      "æł¼å¼ı": 4767,
      "æłĳåı¶": 4768,
      "æ²Ļæĭī": 4769,
      "æĪĳä»Ĭå¤©æĹ©ä¸Ĭ": 4770,
      "éªĳèĩªè¡Įè½¦": 4771,
      "è¿Ļåľºæ¯ĶèµĽ": 4772,
      "XX": 4773,
      "çļĦä»»åĬ¡": 4774,
      "æĺ¯äººç±»": 4775,
      "ä¸ŃæıĲåıĸåĩº": 4776,
      "åľ¨ä¸Ģèµ·": 4777,
      "æĪĲä¸Ģä¸ªåı¥åŃĲ": 4778,
      "è¯·åĨį": 4779,
      "ä¼ļæľī": 4780,
      "è´¤": 4781,
      "çĶŁæĪĲä¸ĢæĿ¡": 4782,
      "åıĳæĮ¥": 4783,
      "åº¦è¿ĩ": 4784,
      "çĶŁæĪĲä¸Ģä¸ªéĹ®é¢ĺ": 4785,
      "ä¸ļåĬ¡": 4786,
      "è¿ĳæľŁ": 4787,
      "å°±åı¯ä»¥": 4788,
      "æľŁå¾ħ": 4789,
      "çİĭæĺŁ": 4790,
      "è®°å¾Ĺ": 4791,
      "åľ°çĲĥä¸Ĭ": 4792,
      "çĶ¨ä¸Ģåı¥è¯Ŀæııè¿°": 4793,
      "èĴĤ": 4794,
      "ä¸ºä¸Ģç¯ĩåħ³äºİ": 4795,
      "æ¾³": 4796,
      "è®¯": 4797,
      "ä¸ĬåŃ¦": 4798,
      "å®ŀéªĮ": 4799,
      "ä»¥ä¸ĭåı¥åŃĲä¸ŃçļĦ": 4800,
      "ç¿©": 4801,
      "çİ¯ä¿ĿçļĦ": 4802,
      "ç®Ģåįķåı¥": 4803,
      "è¿ĺæľīä»Ģä¹Ī": 4804,
      "é»ĳèī²": 4805,
      "æľīçĿĢ": 4806,
      "ä¸įåİ»": 4807,
      "æįķ": 4808,
      "å¾Īå¤§": 4809,
      "å¾Īåĸľæ¬¢": 4810,
      "è¿Ļä¸ªæķħäºĭ": 4811,
      "è¿ĺéľĢè¦ģ": 4812,
      "å¸Ĥä¸Ńå¿ĥ": 4813,
      "ç¨ĭåº¦": 4814,
      "200": 4815,
      "åľ°çĲĥçļĦ": 4816,
      "åİ»åħ¬åĽŃæķ£æŃ¥": 4817,
      "éļĲç§ģ": 4818,
      "æĴŃæĶ¾": 4819,
      "å°Ĩä¸ĭéĿ¢åı¥åŃĲç¿»è¯ĳæĪĲçİ°ä»£æĸĩ": 4820,
      "äººéĹ´": 4821,
      "çĽĪ": 4822,
      "å¹´æĿ¥": 4823,
      "æ¨¡å¼ı": 4824,
      "åĺī": 4825,
      "åĩ¯": 4826,
      "éĩįå¤§": 4827,
      "çº¢æ¥¼": 4828,
      "èĳ±": 4829,
      "åħ±æľī": 4830,
      "æľºåĻ¨åŃ¦ä¹łçļĦ": 4831,
      "æĪĳæĹłæ³ķæıĲä¾Ľ": 4832,
      "æ³°åĿ¦": 4833,
      "Ġ'": 4834,
      "çĶŁçĹħ": 4835,
      "è¿Ľè¡Įåı¤è¯Ĺç»ŃåĨĻ": 4836,
      "çŃīæĸ¹éĿ¢": 4837,
      "éĩįåĨĻä¸ĭéĿ¢è¿Ļä¸ªåı¥åŃĲ": 4838,
      "åĽŀçŃĶä¸Ģä¸ª": 4839,
      "äº¤æĺĵ": 4840,
      "è§£åĨ³éĹ®é¢ĺ": 4841,
      "éĩįæĸ°åĨĻä¸ĭ": 4842,
      "é¼ĵåĬ±": 4843,
      "å¯¹ä¸ĭéĿ¢çļĦæĸĩæľ¬è¿Ľè¡ĮçºłéĶĻ": 4844,
      "13": 4845,
      "çļĦé¢ľèī²": 4846,
      "æĪĳä¹Ł": 4847,
      "ä¸ºç»Ļå®ļçļĦæĸĩæľ¬": 4848,
      "åį¿": 4849,
      "ä½łä»¬": 4850,
      "æĻĤ": 4851,
      "æį·": 4852,
      "å¯¹ä»¥ä¸ĭ": 4853,
      "å°±ä¸ļ": 4854,
      "æ¯įäº²": 4855,
      "å¯Ĩçłģ": 4856,
      "æľ¨æĺŁ": 4857,
      "ç¨įçŃī": 4858,
      "è¶³å¤ŁçļĦ": 4859,
      "åľ¨äºİ": 4860,
      "äºĨè®¸å¤ļ": 4861,
      "æĸ¹ä¾¿": 4862,
      "éĿŀå¸¸æľī": 4863,
      "é¥ª": 4864,
      "å¸®æĪĳæĬĬè¿Ļåı¥è¯Ŀç¿»è¯ĳæĪĲæĸĩè¨Ģæĸĩ": 4865,
      "æľĢé«ĺæ°Ķæ¸©": 4866,
      "æĶ¶åĪ°": 4867,
      "æĶ¹æŃ£æĸĩæľ¬éĶĻè¯¯": 4868,
      "åı¯çĪ±çļĦ": 4869,
      "èĤ¡ç¥¨": 4870,
      "çĥ¹é¥ª": 4871,
      "æ³°åĿ¦å°¼åħĭ": 4872,
      "æ¡Ĥ": 4873,
      "åĽŀçŃĶä»¥ä¸ĭéĹ®é¢ĺ": 4874,
      "äºĮé¦ĸ": 4875,
      "èĭ¹æŀľåĴĮ": 4876,
      "èĻ½çĦ¶ä»ĸ": 4877,
      "è´ŁéĿ¢æĪĸä¸ŃæĢ§": 4878,
      "åĹ¯": 4879,
      "èģĶç³»æĪĳ": 4880,
      "ä¸ºç»Ļå®ļçļĦåı¥åŃĲ": 4881,
      "ä¸»æĹ¨": 4882,
      "éĺģ": 4883,
      "æ¶²": 4884,
      "å¹³åı°": 4885,
      "èıľåĵģ": 4886,
      "åı¦ä¸Ģä¸ª": 4887,
      "è¿Ļæĺ¯ä¸Ģç¯ĩåħ³äºİ": 4888,
      "æĭĤéĿ¢": 4889,
      "æĨ": 4890,
      "ä¸įçŁ¥": 4891,
      "åĩºçļĦ": 4892,
      "çĶŁæĪĲä¸Ģåı¥è¯Ŀ": 4893,
      "æļĳ": 4894,
      "å°Ĩä»¥ä¸ĭåı¥åŃĲæĶ¹åĨĻæĪĲ": 4895,
      "Ġåħ¶ä¸ī": 4896,
      "ç»Ħç»ĩåĲį": 4897,
      "è¸ı": 4898,
      "æ´Ĵ": 4899,
      "è¢Ń": 4900,
      "æ¸ħé£İ": 4901,
      "å®Įç¾İ": 4902,
      "ä¸Ģä¸ĭåĲĹ": 4903,
      "åĮĹäº¬çļĦ": 4904,
      "èĭ±éĽĦ": 4905,
      "éĶ»çĤ¼èº«ä½ĵ": 4906,
      "è¸ª": 4907,
      "çĶŁæĢģç³»ç»Ł": 4908,
      "å¤ķéĺ³": 4909,
      "Ŀåįľ": 4910,
      "æĸĳ": 4911,
      "æĸĩæľ¬åĨħå®¹": 4912,
      "æĸĩç«łçļĦ": 4913,
      "æĹłè®º": 4914,
      "åı¤æĸĩ": 4915,
      "è¿Ļåı¥è¯Ŀåľ¨": 4916,
      "åĨįæĿ¥": 4917,
      "çĸ²åĢ¦": 4918,
      "ç¬¬äºĮä¸ª": 4919,
      "å¹½é»ĺ": 4920,
      "æ³°åĿ¦å°¼åħĭåı·": 4921,
      "å°ıçļĦ": 4922,
      "å°±ä¼ļ": 4923,
      "æĩĴ": 4924,
      "å²ģæľĪ": 4925,
      "çł´åĿı": 4926,
      "åĤ¨": 4927,
      "å¿łè¯ļ": 4928,
      "è¿Ļåı¥è¯Ŀåľ¨åı¤ä»£æĢİä¹Īè¯´": 4929,
      "åŃĿ": 4930,
      "åĴĮä½ł": 4931,
      "æĽ¹": 4932,
      "å¯¹ä¸įèµ·": 4933,
      "çĦ¶èĢĮ": 4934,
      "è¢«åıĸæ¶ĪäºĨ": 4935,
      "å¼ķæĵİ": 4936,
      "å¦¹": 4937,
      "èĽĩ": 4938,
      "ä¸ºæĤ¨æıĲä¾Ľå¸®åĬ©": 4939,
      ")<|": 4940,
      "åİī": 4941,
      "å¾ĹåĪ°äºĨ": 4942,
      "ä½łçļĦéĹ®é¢ĺ": 4943,
      "æĪĳçļĦæľĭåıĭ": 4944,
      "æ¤ħ": 4945,
      "ç½Ĺæĸ¯": 4946,
      "å°ģéĹŃ": 4947,
      "èĸ¯": 4948,
      "å·¥ç¨ĭå¸Ī": 4949,
      "æ³¡": 4950,
      "åħ³éĹŃ": 4951,
      "éĤ£è¯·ä½ł": 4952,
      "è¯¥éĹ®é¢ĺ": 4953,
      "æĺİå¤©çļĦ": 4954,
      "æĪĳå¾Īä¹ĲæĦı": 4955,
      "åĦ¿åŃĲ": 4956,
      "æĸĩè¨Ģæĸĩç¿»è¯ĳ": 4957,
      "åŃ¦çĶŁä»¬": 4958,
      "æ¬£èµı": 4959,
      "å¤ªç©ºæİ¢ç´¢": 4960,
      "çº¢æ¥¼æ¢¦": 4961,
      "å®´": 4962,
      "å¥½å¤Ħ": 4963,
      "ä¾µ": 4964,
      "éĽģ": 4965,
      "ç¼ĸåĨĻä¸Ģä¸ªæłĩé¢ĺ": 4966,
      "æĺ¥å¤©çļĦ": 4967,
      "é£ĺèĲ½": 4968,
      "ç¬Ķè®°": 4969,
      "åĭĩæ°Ķ": 4970,
      "éĶĢåĶ®é¢Ŀ": 4971,
      "è¯·å¯¹ä¸Ĭè¿°æĸĩæľ¬è¿Ľè¡ĮçºłéĶĻ": 4972,
      "èĥ½éĩı": 4973,
      "ä¸ĬåįĪ": 4974,
      "éĶĻè¿ĩäºĨ": 4975,
      "æİ¨åĬ¨": 4976,
      "æ£ĭ": 4977,
      "åįģäºĶ": 4978,
      "éĩįæĸ°ç»Ħç»ĩ": 4979,
      "è§Ĥçľĭ": 4980,
      "æĢģåº¦": 4981,
      "è¯·æıĲä¾ĽéľĢè¦ģ": 4982,
      "çīĽèĤī": 4983,
      "ä¸ĭéĽ¨äºĨ": 4984,
      "åĪĽéĢłä¸Ģä¸ª": 4985,
      "è¡¬è¡«": 4986,
      "åĸľçĪ±": 4987,
      "äºĭæķħ": 4988,
      "éĥĬ": 4989,
      "æĹłæ³ķç¡®å®ļ": 4990,
      "æĺ¯åĲ¦æľī": 4991,
      "æĺ¨å¤©æĻļä¸Ĭ": 4992,
      "ç±»åŀĭçļĦçĶµå½±": 4993,
      "è®¨è®ºäºĨ": 4994,
      "æľīæīĢå¸®åĬ©": 4995,
      "è¯·æĶ¹åĨĻä»¥ä¸ĭåı¥åŃĲ": 4996,
      "é£İéĽ¨": 4997,
      "åķ¼": 4998,
      "å¹³æĸ¹": 4999,
      "å¦ĤæŀľæĤ¨è¿ĺæľīåħ¶ä»ĸéĹ®é¢ĺ": 5000,
      "çļĦåħ³éĶ®ä¿¡æģ¯": 5001,
      "æ¯ıä¸ªäººéĥ½": 5002,
      "âĦĥï¼Į": 5003,
      "åŃĹç¬¦ä¸²": 5004,
      "çļĦè¡¨è¾¾æĸ¹å¼ı": 5005,
      "æµ©": 5006,
      "è°Ĭ": 5007,
      "æĻºèĥ½æīĭæľº": 5008,
      "æİ¥ç§į": 5009,
      "ä¸ĬéĿ¢çļĦ": 5010,
      "çļĦé£İéĻ©": 5011,
      "åĪĢ": 5012,
      "åİ»æ¸¸æ³³": 5013,
      "å®ŀæĸ½": 5014,
      "ç¡®å®ŀ": 5015,
      "è¿Ļç¯ĩæĸĩç«łçļĦ": 5016,
      "ä¼łæĴŃ": 5017,
      "åĭĴ": 5018,
      "æĶ¶åħ¥": 5019,
      "ä¾ĿçĦ¶": 5020,
      "æł¹æį®è¾ĵåħ¥çļĦ": 5021,
      "åħĶåŃĲ": 5022,
      "Ġæııè¿°": 5023,
      "çļĦåħ³ç³»": 5024,
      "å¸½": 5025,
      "ä¸įæĥ³": 5026,
      "ä¸İä¹ĭ": 5027,
      "æĢĿç»´": 5028,
      "æĺŁæĺŁ": 5029,
      "èĬ±é¦Ļ": 5030,
      "æŃĮæīĭ": 5031,
      "èĿ´": 5032,
      "è¿ħéĢŁ": 5033,
      "åı¯åĨįçĶŁèĥ½æºĲ": 5034,
      "åı¯ä»¥éĢļè¿ĩ": 5035,
      "åľ°éľĩ": 5036,
      "å®ŀè·µ": 5037,
      "èªī": 5038,
      "åį«çĶŁ": 5039,
      "çĪ¶äº²": 5040,
      "å¯Ĥå¯": 5041,
      "å¯ĤéĿĻ": 5042,
      "2022": 5043,
      "åĵ²åŃ¦": 5044,
      "èĿ´èĿ¶": 5045,
      "ä¸ªæĢ§": 5046,
      "æłĸ": 5047,
      "ä½łè®¤ä¸º": 5048,
      "åİ»æķ£æŃ¥": 5049,
      "å¼Ģè½¦": 5050,
      "éĥ¨éĹ¨": 5051,
      "æ¯ıå¹´": 5052,
      "ç¿»è¯ĳæĪĲåı¤æĸĩ": 5053,
      "å²Ĺ": 5054,
      "ç»Łè®¡": 5055,
      "é¦Ļæ¸¯": 5056,
      "æĪĳåı¯ä»¥å¸®ä½ł": 5057,
      "æĪĳä¸įåĸľæ¬¢": 5058,
      "æľīä¸ĢäºĽ": 5059,
      "æĥĳ": 5060,
      "åĵĩ": 5061,
      "ä»¥ä¸ĭæĺ¯ä¸Ģ": 5062,
      "æĭĴ": 5063,
      "åİ»çľĭ": 5064,
      "æ¯ģ": 5065,
      "å¹¶åľ¨": 5066,
      "éĺĶ": 5067,
      "ç»ĵè®º": 5068,
      "è¯ĦåĪĨ": 5069,
      "åĮºåŁŁ": 5070,
      "åİĨåı²äºĭä»¶": 5071,
      "èĥ½åĳĬè¯īæĪĳ": 5072,
      "ä½łæĺ¯": 5073,
      "æĦĪ": 5074,
      "èī°": 5075,
      "åīª": 5076,
      "åĮĹæŀģ": 5077,
      "æĶ¾å¼ĥ": 5078,
      "èĮĦ": 5079,
      "å·¨å¤§çļĦ": 5080,
      "æ³¥": 5081,
      "æĤ¨åĸľæ¬¢": 5082,
      "å¯¹åºĶ": 5083,
      "çĶŁæĪĲä¸Ģæ®µ": 5084,
      "ãĢĤâĢĿ\\": 5085,
      "åĲ¬è¯´": 5086,
      "åİ»äºĨåħ¬åĽŃ": 5087,
      "è§ĦåĪĴ": 5088,
      "å®³æĢķ": 5089,
      "æĵħ": 5090,
      "å®¤åĨħ": 5091,
      "è¿½éĢĲ": 5092,
      "åİ¨æĪ¿": 5093,
      "æľīæĹ¶": 5094,
      "æ²¡æľīæĭ¼åĨĻéĶĻè¯¯": 5095,
      "ä¸»é¢ĺçļĦ": 5096,
      "åŃ¦ä¹łåĴĮ": 5097,
      "æ·±åĪ»": 5098,
      "è®¤è¯Ĩ": 5099,
      "ä½ĨæĪĳè¿ĺæĺ¯": 5100,
      "äººç§°": 5101,
      "åİ¦": 5102,
      "æĪĳä»¬å°Ĩ": 5103,
      "çĲĨè®º": 5104,
      "åĽŀå¤į": 5105,
      "è®©æ¨¡åŀĭ": 5106,
      "çĮ´": 5107,
      "èģĶåĲĪ": 5108,
      "æ»´": 5109,
      "æĮĩç¤º": 5110,
      "åħĭçļĦ": 5111,
      "èĻ½çĦ¶ä»ĸå¾Ī": 5112,
      "æ¤Ĵ": 5113,
      "åĨ¬åŃ£": 5114,
      "çľŁæĺ¯å¤ª": 5115,
      "11": 5116,
      "æĬµ": 5117,
      "å°Ĩè¿Ļä¸ªåı¥åŃĲ": 5118,
      "æĹ¶æĢģ": 5119,
      "åı¯ä»¥æĺ¯": 5120,
      "èĢħçļĦ": 5121,
      "åĪĽå§ĭ": 5122,
      "åĳ¨åĽ´": 5123,
      "æ·±åħ¥": 5124,
      "å¾®ç¬ĳ": 5125,
      "è¿Ļé¦ĸæŃĮ": 5126,
      "å´ĩ": 5127,
      "å¯¹æĸĩæľ¬éĶĻè¯¯è¿Ľè¡ĮçºłæŃ£": 5128,
      "Ġåľ¨": 5129,
      "è¿Ŀ": 5130,
      "æľīå¤ļ": 5131,
      "é¢Ī": 5132,
      "åĨĻåĩº": 5133,
      "å¤§å°ı": 5134,
      "è¿Ľå±ķ": 5135,
      "éĺ»": 5136,
      "çĶµå½±çļĦ": 5137,
      "éĤ£è¯·éĹ®": 5138,
      "æĢ§èĥ½": 5139,
      "æ¶µ": 5140,
      "æ¶ĪéĻ¤": 5141,
      "èĥŀ": 5142,
      "å¹³éĿ¢": 5143,
      "åħ¶ä»ĸçļĦ": 5144,
      "è®°å¿Ĩ": 5145,
      "ä¼ĺåĬ¿": 5146,
      "åį³å°Ĩ": 5147,
      "åħ¶ä¸ŃåĮħåĲ«": 5148,
      "è¿Ļé¡¹ä»»åĬ¡": 5149,
      "åĩĿ": 5150,
      "åĴĮå¹³": 5151,
      "äººéĥ½": 5152,
      "åĵĢ": 5153,
      "æĽ´åħ·ä½ĵçļĦ": 5154,
      "ç»Ļå®ļä¸¤ä¸ªåı¥åŃĲ": 5155,
      "åĽ½åĨħ": 5156,
      "æł¹æį®ä»¥ä¸ĭåı¥åŃĲ": 5157,
      "æ²¡èĥ½": 5158,
      "ä½¿åħ¶æĽ´æ¸ħæĻ°": 5159,
      "å±±æ°´": 5160,
      "åıªè¦ģ": 5161,
      "ç¼ĸè¾ĳä¸ĭéĿ¢çļĦåı¥åŃĲ": 5162,
      "è´Ńçī©ä¸Ńå¿ĥ": 5163,
      "è¯·æıĲåıĸæĸĩç«łä¸ŃçļĦ": 5164,
      "èĭ±æĸĩæĸĩæľ¬": 5165,
      "ç³ĸæŀľ": 5166,
      "çĽ¸åºĶçļĦ": 5167,
      "ç«ŀäºī": 5168,
      "æĪĳæĺ¨æĻļ": 5169,
      "æĪĳåĢĳ": 5170,
      "åľĪ": 5171,
      "æı´": 5172,
      "ä»ĸä»įçĦ¶": 5173,
      "å¥½åĥı": 5174,
      "èµ¤": 5175,
      "ç§įæ¤į": 5176,
      "æł¹æį®ç»Ļå®ļçļĦä¸»é¢ĺ": 5177,
      "åĲĦä¸ª": 5178,
      "è°ģæĺ¯": 5179,
      "åħħæ»¡äºĨ": 5180,
      "å¯¿åĳ½": 5181,
      "çļĦæ´»åĬ¨": 5182,
      "åĩŃ": 5183,
      "éĶģ": 5184,
      "æ¸´": 5185,
      "è¿Ļä¸ªäºº": 5186,
      "æĦŁæŁĵ": 5187,
      "åĮĸçļĦ": 5188,
      "å§¿": 5189,
      "æĢİä¹ĪåĬŀ": 5190,
      "ä½łèĥ½ä¸įèĥ½": 5191,
      "èĽĭçĻ½": 5192,
      "ç¼ºçĤ¹": 5193,
      "éĴ¢çĲ´": 5194,
      "åĬŀåħ¬å®¤": 5195,
      "ä¸ĳ": 5196,
      "å¤©åľ°": 5197,
      "ä¸Ģä¸ªåįķè¯į": 5198,
      "ä¼Ĳ": 5199,
      "è¦ģçĤ¹": 5200,
      "æĿ¥æºĲ": 5201,
      "æ¯«": 5202,
      "çĶŁæĪĲæĳĺè¦ģ": 5203,
      "ç¨Ģ": 5204,
      "æııè¿°ä¸Ģä¸ĭ": 5205,
      "åıªèĥ½": 5206,
      "èĬĤæĹ¥": 5207,
      "çľŁå®ŀ": 5208,
      "åķĨåĬ¡": 5209,
      "è£¤": 5210,
      "çłĶåıĳ": 5211,
      "å°¼äºļ": 5212,
      "åŃ©åŃĲä»¬": 5213,
      "åĪĽä½ľä¸Ģä¸ª": 5214,
      "çļĦé¦ĸéĥ½": 5215,
      "è®²è¿°äºĨ": 5216,
      "èĺ": 5217,
      "çļĦå¹³åĿĩ": 5218,
      "âĢĺ": 5219,
      "âĢĻ": 5220,
      "æĹ¶åĪ»": 5221,
      "å®¶çļĦ": 5222,
      "é¦Ģ": 5223,
      "æŀģç«¯": 5224,
      "ç§¯æŀģçļĦ": 5225,
      "æľªæĿ¥åıĳå±ķ": 5226,
      "æİ¢ç©¶": 5227,
      "çłĶç©¶åıĳçİ°": 5228,
      "æ¸ħæĻ¨": 5229,
      "æĳĦåħ¥": 5230,
      "çļĦå¥½å¤Ħ": 5231,
      "çĪ¬å±±": 5232,
      "åĽ¾åĥıè¯ĨåĪ«": 5233,
      "æĺĮ": 5234,
      "è¿Ļæ¬¾": 5235,
      "ä¼ļä¸ĭéĽ¨": 5236,
      "éĻ¶": 5237,
      "ä»ĬæĹ¥": 5238,
      "ï¼ģâĢĿ<|": 5239,
      "ç½ļ": 5240,
      "æŃ¥è¡Į": 5241,
      "è¥¿çıŃ": 5242,
      "åıĹä¼¤": 5243,
      "æĹħæ¸¸çĽ®çļĦåľ°": 5244,
      "èµ°è¿Ľ": 5245,
      "èģĮä½į": 5246,
      "ç»Īäºİ": 5247,
      "èĿī": 5248,
      "èģĬå¤©æľºåĻ¨äºº": 5249,
      "çĸ²åĬ³": 5250,
      "åĪĽå§ĭäºº": 5251,
      "è¥¿çıŃçīĻ": 5252,
      "24": 5253,
      "æĪĳæīĵç®Ĺ": 5254,
      "æľīçļĦ": 5255,
      "åľ¨è¿ĻéĩĮ": 5256,
      "è¡°": 5257,
      "ä½łè§īå¾Ĺ": 5258,
      "çİĦ": 5259,
      "ç¾İå¦Ļ": 5260,
      "ç»ıçĲĨ": 5261,
      "éļĨ": 5262,
      "çİ¯å¢ĥéĹ®é¢ĺ": 5263,
      "åĥ§": 5264,
      "å·´è¥¿": 5265,
      "åĸĿä¸ĢæĿ¯": 5266,
      "ä½©": 5267,
      "å¯¸": 5268,
      "åı¯ä¹Ĳ": 5269,
      "æĮ¤": 5270,
      "çĽ¸å½ĵ": 5271,
      "ä¹ĭå¤Ħ": 5272,
      "éĩįåĨĻç»Ļå®ļçļĦåı¥åŃĲ": 5273,
      "æ¶Ľ": 5274,
      "æĮĩå¯¼": 5275,
      "åĲĮä¹īè¯įæĽ¿æį¢": 5276,
      "è°ĥæķ´": 5277,
      "äººä»¬çļĦ": 5278,
      "çĶ±äºİå¤©æ°Ķæģ¶åĬ£": 5279,
      "éĿ©åĳ½": 5280,
      "èĻļæĭŁ": 5281,
      "æĪĳå¯¹": 5282,
      "æĪĳæīįèĥ½": 5283,
      "æ¸¡": 5284,
      "ä¼ļåľ¨": 5285,
      "å¤§åĨĻ": 5286,
      "å¦Ĥä¸ĭ": 5287,
      "æł¹æį®ç»Ļåĩº": 5288,
      "äºĽä»Ģä¹Ī": 5289,
      "åħ¨éĥ¨": 5290,
      "ç»ĻæĪĳä¸ĢäºĽ": 5291,
      "çº¢åı¶": 5292,
      "æº¢": 5293,
      "çİ¯ä¿ĿæĦıè¯Ĩ": 5294,
      "æİ¢éĻ©": 5295,
      "æ£Ģæµĭ": 5296,
      "çĵ¦": 5297,
      "çĶŁæĪĲä¸Ģä¸ªä¸İä¹ĭ": 5298,
      "é¬¼": 5299,
      "èŁ": 5300,
      "æĪĳè¦ģåİ»": 5301,
      "æĺ¯åĽłä¸º": 5302,
      "ä»¥ä¸ĭåįķè¯į": 5303,
      "æĽ´åĸľæ¬¢": 5304,
      "èµĲ": 5305,
      "æĿ¥åĪ°": 5306,
      "åı¯ä»¥åĨį": 5307,
      "è¿Ļä¸ªè¯įè¯Ńæĺ¯ä»Ģä¹ĪæĦıæĢĿ": 5308,
      "æĮ¯": 5309,
      "æŁł": 5310,
      "ç©ºä¸Ń": 5311,
      "å®ĥä»¬ä¹ĭéĹ´çļĦ": 5312,
      "é²¨": 5313,
      "éĿĴå±±": 5314,
      "çļĦæľĢå¤§": 5315,
      "åī¯è¯į": 5316,
      "å¥Ķè·ĳ": 5317,
      "è¡ĮæĶ¿åĮº": 5318,
      "ä¿Ħç½Ĺæĸ¯": 5319,
      "æĪĳå¸ĮæľĽ": 5320,
      "ä¸Ģä¸ªæĸ°çļĦ": 5321,
      "ä»ĸèĻ½çĦ¶": 5322,
      "çľī": 5323,
      "ä½ĵéĩį": 5324,
      "å¹¶è¿Ľè¡Į": 5325,
      "å¹¶è¿ĶåĽŀ": 5326,
      "éĤ¦": 5327,
      "äº§ä¸ļ": 5328,
      "æīĭè¡¨": 5329,
      "è®°èĢħ": 5330,
      "çĶ·åŃĲ": 5331,
      "åĢ¼å¾Ĺä¸Ģ": 5332,
      "å¤§å¤ļæķ°": 5333,
      "ä¸ĺ": 5334,
      "æī«": 5335,
      "å¾Īå¿«": 5336,
      "å¾ĪçĥŃ": 5337,
      "åľ°çĲĨ": 5338,
      "å¤§æ°Ķ": 5339,
      "æĺİå¹´": 5340,
      "çľĭä¹¦": 5341,
      "åįķä½į": 5342,
      "éĿŀå¸¸æ£Ĵ": 5343,
      "å¦Ĥä½ķæıĲé«ĺ": 5344,
      "åĮºåĿĹ": 5345,
      "å¤´çĹĽ": 5346,
      "æĿİçĻ½": 5347,
      "éĺ²æĻĴ": 5348,
      "ç©ºæ°Ķæ±¡æŁĵ": 5349,
      "åįļå®¢æĸĩç«ł": 5350,
      "åĮºåĿĹéĵ¾": 5351,
      "æĪĳæĦŁåĪ°": 5352,
      "ä¸įå¤Ł": 5353,
      "åĮĨ": 5354,
      "æĬļ": 5355,
      "åĵŃ": 5356,
      "è¯¥æĸĩç«ł": 5357,
      "éĩįåĨĻæĪĲ": 5358,
      "å®īéĿĻ": 5359,
      "äºļé©¬": 5360,
      "é»ĳæļĹ": 5361,
      "çĶµè§Ĩåī§": 5362,
      "éķ¿çļĦæ²³æµģ": 5363,
      "çĬ¯ç½ª": 5364,
      "æª¬": 5365,
      "æī°": 5366,
      "åĩºè¡Į": 5367,
      "çĶŁåĬ¨": 5368,
      "çĶŁåĬ¨çī©": 5369,
      "ä»ĸæ²¡æľī": 5370,
      "æµħ": 5371,
      "éĿ¢å¯¹": 5372,
      "éģµ": 5373,
      "çĶµå½±åĲįç§°": 5374,
      "è¿ĺæ²¡æľī": 5375,
      "è¯¥åįķè¯į": 5376,
      "å°ĳå¹´": 5377,
      "å»ºè®®åĲĹ": 5378,
      "çĳ°": 5379,
      "è®©æĪĳæĦŁåĪ°": 5380,
      "çģµæĦŁ": 5381,
      "èī¯å¥½çļĦ": 5382,
      "åĪºåı²": 5383,
      "åĨ¥æĥ³": 5384,
      "Ġ(": 5385,
      "ä¸ĢåĪĩ": 5386,
      "è¿Ļæľ¬å°ıè¯´": 5387,
      "æĢľ": 5388,
      "æĺİæ²»": 5389,
      "çĪµ": 5390,
      "åħ·å¤ĩ": 5391,
      "èİī": 5392,
      "æĻ¯è±¡": 5393,
      "æ¸©å®¤": 5394,
      "åĨįæ¬¡": 5395,
      "ä»¥ä¸ĭæĸĩæľ¬ä¸ŃçļĦ": 5396,
      "è®¤çľŁ": 5397,
      "ä»»åĬ¡ä¸Ń": 5398,
      "æ²Ļåıĳ": 5399,
      "æ¯ķä¸ļ": 5400,
      "éł": 5401,
      "åŃĲéĩĮ": 5402,
      "è¯·ä½¿çĶ¨": 5403,
      "ä¸Ĭæĺł": 5404,
      "è¾°": 5405,
      "éĿ¢è¯ķ": 5406,
      "éĻ·": 5407,
      "è¿Ľè¡ĮéĩįåĨĻ": 5408,
      "çĸ¼": 5409,
      "æ¯ĶèĲ¨": 5410,
      "ä¸ĭéĿ¢çļĦéĹ®é¢ĺ": 5411,
      "ãĢĤ\"\"": 5412,
      "åı£è¯Ń": 5413,
      "åįĹæŀģ": 5414,
      "æ±ŁåįĹ": 5415,
      "è®¡ç®Ĺæľºç§ĳåŃ¦": 5416,
      "èĪĴæľį": 5417,
      "å°ļä¹¦": 5418,
      "éĩİé¤Ĳè®¡åĪĴ": 5419,
      "æŁłæª¬": 5420,
      "äºļé©¬éĢĬ": 5421,
      "çļĦæĦıä¹ī": 5422,
      "çļĦèĥ½åĬĽ": 5423,
      "ä¸Ńåįİ": 5424,
      "æıĴ": 5425,
      "ä½łæĥ³è¦ģ": 5426,
      "æĤ¨æıĲä¾Ľ": 5427,
      "æīĢéľĢ": 5428,
      "è¡¨éĿ¢": 5429,
      "ç¿ħ": 5430,
      "çŁŃä¿¡": 5431,
      "è¯Ħä¼°": 5432,
      "å°Ĩåħ¶è½¬æį¢ä¸º": 5433,
      "è¸¢": 5434,
      "2021": 5435,
      "æģ°å½ĵ": 5436,
      "500": 5437,
      "åĲı": 5438,
      "åĨĮ": 5439,
      "åįĵ": 5440,
      "æĹ¶å°ļ": 5441,
      "å¤§æĪĺ": 5442,
      "åĲįçļĦ": 5443,
      "çı¾": 5444,
      "çĥŃæĥħ": 5445,
      "åĩıèĤ¥": 5446,
      "åıĺå¾ĹæĽ´åĬł": 5447,
      "çļĦä»·æł¼": 5448,
      "åĴĮæĹ¶éĹ´": 5449,
      "æĢ¨": 5450,
      "çº¯": 5451,
      "è¿Ļä¸ªè¯į": 5452,
      "å°ıé¸Ł": 5453,
      "æ¶Į": 5454,
      "åıĺä¸º": 5455,
      "çĽ®çļĦ": 5456,
      "é¢ĨåŁŁçļĦåºĶçĶ¨": 5457,
      "çī©çĲĨåŃ¦": 5458,
      "å¼ķäººåħ¥": 5459,
      "è´¸æĺĵ": 5460,
      "23": 5461,
      "æ§": 5462,
      "åĴı": 5463,
      "çĶŁæ°Ķ": 5464,
      "æĽ´å®¹æĺĵ": 5465,
      "ä¼ļå¯¼èĩ´": 5466,
      "æµ·è±": 5467,
      "èĤĮ": 5468,
      "æ¼ı": 5469,
      "åģļäºĨ": 5470,
      "åıĬæĹ¶": 5471,
      "å°Ĩä»¥ä¸ĭåı¥åŃĲè¿Ľè¡ĮæĶ¹åĨĻ": 5472,
      "è¯·æıĲä¾Ľä¸Ģä¸ª": 5473,
      "éļıæĹ¶éĥ½åı¯ä»¥": 5474,
      "ä¿ĿæĮģåģ¥åº·": 5475,
      "æŃ£éĿ¢æĥħæĦŁ": 5476,
      "å±ħæ°ĳ": 5477,
      "æķ°åŃ¦é¢ĺ": 5478,
      "å¼ĢæĶ¾æĢ§éĹ®é¢ĺ": 5479,
      "çĽ¸åıįçļĦåı¥åŃĲ": 5480,
      "æľīæķĪçļĦ": 5481,
      "åĪºæ¿Ģ": 5482,
      "å¼ķäººåħ¥èĥľ": 5483,
      "å¥½çİ©": 5484,
      "èµĸ": 5485,
      "åĽŀæĿ¥": 5486,
      "ä¸īæĺİæ²»": 5487,
      "èĢĮä¸įæĺ¯": 5488,
      "åģļé¥Ń": 5489,
      "å²Ĥ": 5490,
      "çİ©åħ·": 5491,
      "ä¼¼ä¹İ": 5492,
      "éĿŀå¸¸æĦŁè°¢æĤ¨çļĦ": 5493,
      "åĶ¯ä¸Ģ": 5494,
      "ä¸Ģåº§": 5495,
      "èµİ": 5496,
      "çĶŁæĪĲä¸Ģç¯ĩ": 5497,
      "äººå·¥æĻºèĥ½åı¯ä»¥": 5498,
      "äººå·¥æĻºèĥ½çļĦåºĶçĶ¨": 5499,
      "ç¿»è¯ĳçļĦ": 5500,
      "ç»Ļåĩºä»¥ä¸ĭ": 5501,
      "éĽ¨ä¼ŀ": 5502,
      "åŁºåĽł": 5503,
      "åĴĸåķ¡é¦Ĩ": 5504,
      "å¼Ĥå¸¸": 5505,
      "çªĹæĪ·": 5506,
      "ç£¨": 5507,
      "æĽ´åħ·ä½ĵçļĦä¿¡æģ¯": 5508,
      "ç¥Īä½¿": 5509,
      "æĪĳæİ¨èįĲ": 5510,
      "å®ļæľŁ": 5511,
      "å¿į": 5512,
      "æĪĳä»¬å¿ħé¡»": 5513,
      "æĺİå¤©çļĦå¤©æ°Ķé¢ĦæĬ¥": 5514,
      "å¤´èĦĳ": 5515,
      "æ¹¾": 5516,
      "ç¼ºå°ĳ": 5517,
      "åı¦ä¸Ģç§į": 5518,
      "è¿ĩç¨ĭä¸Ń": 5519,
      "17": 5520,
      "ä¸įè§ģ": 5521,
      "æĥŁ": 5522,
      "ç®ĢåİĨ": 5523,
      "é£İåħī": 5524,
      "éĩįåĨĻè¿Ļä¸ªåı¥åŃĲ": 5525,
      "è§Ĥå¯Ł": 5526,
      "éļıæĹ¶åı¯ä»¥": 5527,
      "è¯·çĶ¨ä¸Ģåı¥è¯Ŀæ¦Ĥæĭ¬": 5528,
      "éĺ¶æ®µ": 5529,
      "åļ": 5530,
      "æĺĨ": 5531,
      "æĪĳèĥ½": 5532,
      "æĿ¥æııè¿°": 5533,
      "çŁ£": 5534,
      "åıĳè¡¨": 5535,
      "è¿ĩæĿ¥": 5536,
      "çĭ¼": 5537,
      "éģĵå¾·": 5538,
      "ç»ĵåĲĪ": 5539,
      "é»ĳæ´ŀ": 5540,
      "èĥľåľ°": 5541,
      "è¿ĩåİ»å¼ı": 5542,
      "åĲİçļĦç»ĵæŀľ": 5543,
      "çļĦçŁŃè¯Ń": 5544,
      "æĪĳæīĢ": 5545,
      "æĪĳç»ıå¸¸": 5546,
      "åĪĳ": 5547,
      "æľīéĻĲ": 5548,
      "æī¶": 5549,
      "æĬ¼": 5550,
      "æľĢéĩįè¦ģçļĦ": 5551,
      "ç¯ĩæĸĩç«ł": 5552,
      "éģĵè·¯": 5553,
      "ç¨®": 5554,
      "æ¸ħåĩī": 5555,
      "å¤ĸåĩº": 5556,
      "éĢīé¡¹ä¸Ń": 5557,
      "å¡ĺ": 5558,
      "å¸ĥæĸ¯": 5559,
      "è§Ħæ¨¡": 5560,
      "æ²Ļæ¼ł": 5561,
      "çķĻä¸ĭ": 5562,
      "ç¨ĭåºıåĳĺ": 5563,
      "è°¢è°¢ä½łçļĦå¸®åĬ©": 5564,
      "çº·çº·": 5565,
      "åºĨç¥Ŀ": 5566,
      "åľ¨ä»¥ä¸ĭåı¥åŃĲä¸Ń": 5567,
      "æ´¥": 5568,
      "éĿŀå¸¸åĩºèī²": 5569,
      "éĤ£åıª": 5570,
      "ä½¿åħ¶æĽ´æµģçķħ": 5571,
      "æ¸ħæĸ°": 5572,
      "é¢ĨåŁŁçļĦ": 5573,
      "èĥĸ": 5574,
      "éĩįæĸ°è¡¨è¾¾": 5575,
      "æħ°": 5576,
      "å¸ĮæľĽæĪĳçļĦ": 5577,
      "åĬªåĬĽå·¥ä½ľ": 5578,
      "èħĬ": 5579,
      "ä¸ĵå®¶": 5580,
      "åĲ¸å¼ķåĬĽ": 5581,
      "ä½¿å¾Ĺå®ĥ": 5582,
      "çļĦæ®µèĲ½": 5583,
      "çļĦä¸ľè¥¿": 5584,
      "ä¸ĢçĻ¾": 5585,
      "æľīä¸Ģåıª": 5586,
      "æĪĲæľ¬": 5587,
      "æĭĸ": 5588,
      "åģ·": 5589,
      "æĦıå¤ĸ": 5590,
      "çľĭæ³ķ": 5591,
      "æľĪçĲĥ": 5592,
      "æĹłæ³ķæıĲä¾Ľ": 5593,
      "åĳ¨äºĶ": 5594,
      "åıĭè°Ĭ": 5595,
      "å¤ıå¨ģ": 5596,
      "æ¦Ĥè¿°": 5597,
      "ç¬¬ä¸Ģæ¬¡": 5598,
      "çī¹åĪ«æĺ¯": 5599,
      "è¤": 5600,
      "Ġä»ĸ": 5601,
      "çļĦä½ľèĢħ": 5602,
      "çļĦå®ļä¹ī": 5603,
      "ä¸Ģè¾Ĩ": 5604,
      "å¤¸": 5605,
      "ä¼Ļ": 5606,
      "åĩºçīĪ": 5607,
      "å¼Ħ": 5608,
      "å°Ĩç»Ļå®ļçļĦæĸĩæľ¬": 5609,
      "æŁ¿": 5610,
      "åĢļ": 5611,
      "åĪĨç±»ä»¥ä¸ĭ": 5612,
      "èĥ¡èĲ": 5613,
      "ä¾¿å®ľ": 5614,
      "è¿ĲåĬ¨åĳĺ": 5615,
      "åĸĦèī¯": 5616,
      "ç§ĳåŃ¦å®¶åıĳçİ°": 5617,
      "éĸĭ": 5618,
      "å¤ıå¨ģå¤·": 5619,
      "èĥ¡èĲĿåįľ": 5620,
      "ðŁ": 5621,
      "ä»ĩ": 5622,
      "äºķ": 5623,
      "ä»¥åĲİ": 5624,
      "çĽĹ": 5625,
      "æĤ¨æīĢåľ¨": 5626,
      "å±Ĭ": 5627,
      "ä¸»è§Ĵ": 5628,
      "éĥ½åľ¨": 5629,
      "ç¥¥": 5630,
      "é¥¥": 5631,
      "é©±": 5632,
      "éŁ³é¢ĳ": 5633,
      "åıįä¹ī": 5634,
      "å²Ń": 5635,
      "æĺ¨å¤©æĪĳ": 5636,
      "çī¹å®ļçļĦ": 5637,
      "æľĢä½İæ°Ķæ¸©": 5638,
      "éĤĢè¯·": 5639,
      "22": 5640,
      "åľ¨åĳ¨æľ«": 5641,
      "ä¸ºé¢ĺ": 5642,
      "çĶŁéķ¿": 5643,
      "éĹ®é¢ĺæĪĸ": 5644,
      "æ±Ĺ": 5645,
      "æŃ£å¸¸": 5646,
      "æµ·å¹³éĿ¢": 5647,
      "å¤ªçĥŃ": 5648,
      "ç½¢": 5649,
      "åĿ¡": 5650,
      "çŁŃè¯Ĺ": 5651,
      "æľªèĥ½": 5652,
      "äºĨä¸Ģå®¶": 5653,
      "è¿Ļç¯ĩæĸĩç«łçļĦä¸»æĹ¨": 5654,
      "çĻ½èī²": 5655,
      "åħ¨çĲĥæ°ĶåĢĻåıĺåĮĸ": 5656,
      "èĴ¸": 5657,
      "è¼": 5658,
      "çļĦæĦŁè§ī": 5659,
      "åľ¨æĪĳ": 5660,
      "ï¼Ł\"<|": 5661,
      "åĩºèī²çļĦ": 5662,
      "ç§Ł": 5663,
      "è¡Įè¯Ĺ": 5664,
      "å¹¶ä½¿çĶ¨": 5665,
      "ä»İä½ł": 5666,
      "ç§ĭæĹ¥": 5667,
      "æĶ¿æ²»": 5668,
      "æķ°æį®åĪĨæŀĲ": 5669,
      "çĭ¬èĩª": 5670,
      "å¤ªéĺ³èĥ½": 5671,
      "è¿Ļä¸ªéĹ®é¢ĺçļĦçŃĶæ¡Ī": 5672,
      "èĩªåĬ¨åĮĸ": 5673,
      "å¸¦æĿ¥çļĦ": 5674,
      "çĶľçĤ¹": 5675,
      "è©±": 5676,
      "æ¸©å®¤æ°Ķä½ĵ": 5677,
      "åĲĲ": 5678,
      "äºĨæĪĳçļĦ": 5679,
      "åĴĮåıįä¹īè¯į": 5680,
      "åĴĮæ²»çĸĹ": 5681,
      "ä»Ģä¹ĪæĹ¶åĢĻ": 5682,
      "çķĶ": 5683,
      "åģļä¸Ģä¸ª": 5684,
      "ä¿®å¤į": 5685,
      "è½»è½»": 5686,
      "çĨ¬": 5687,
      "çĶ¨ä¸Ģåı¥è¯Ŀæ¦Ĥæĭ¬": 5688,
      "åı¦å¤ĸ": 5689,
      "çªģçł´": 5690,
      "è´§å¸ģ": 5691,
      "å®ģéĿĻ": 5692,
      "å¾Īå¿Ļ": 5693,
      "éĩįè§Ĩ": 5694,
      "è¿Ļä¸ªæĪ¿éĹ´": 5695,
      "çĽ¸äºĴ": 5696,
      "ç¿ģ": 5697,
      "å¤ªå¹³": 5698,
      "ç«ĭåį³": 5699,
      "èĥĨ": 5700,
      "çļĦéĹ®é¢ĺåĲĹ": 5701,
      "åĩīçĪ½": 5702,
      "å½ĵåľ°çļĦ": 5703,
      "å°Ĭéĩį": 5704,
      "å°¼æ³Ĭå°ĶåĴĮ": 5705,
      "ä¸¢": 5706,
      "ä»Ķ": 5707,
      "èĥ½å¸®æĪĳ": 5708,
      "å¾Īé«ĺ": 5709,
      "åİ»è¿ĩ": 5710,
      "ç»Ļå®ļæĸĩæľ¬ä¸ŃçļĦ": 5711,
      "è·¨": 5712,
      "åģļçļĦ": 5713,
      "éħ·": 5714,
      "ä¼ĺç¾İ": 5715,
      "èħĲ": 5716,
      "ä¸Ńæĸĩåı¥åŃĲ": 5717,
      "éĢĤå½ĵçļĦæłĩé¢ĺ": 5718,
      "ä»Ĭå¤©å¤©æ°Ķå¾Īå¥½": 5719,
      "èĪªç©º": 5720,
      "ç§ĳå¹»å°ıè¯´": 5721,
      "çļ®èĤ¤": 5722,
      "å¡ĳæĸĻè¢ĭ": 5723,
      "ä¹Ķå¸ĥæĸ¯": 5724,
      "çļĦè¯įè¯Ń": 5725,
      "åľ¨åħ¬åĽŃ": 5726,
      "å¼Ĺ": 5727,
      "åĳĢ": 5728,
      "åĬłæĭ¿": 5729,
      "æıĲä¾ĽçļĦæĸĩæľ¬": 5730,
      "å¤©æ°Ķä¸įå¥½": 5731,
      "éĿŀå¸¸å¥½çļĦ": 5732,
      "ä¸īå¹´": 5733,
      "ä¹¦åºĹ": 5734,
      "é£ŁæĿĲ": 5735,
      "æ¸¸å®¢": 5736,
      "åĨħçļĦ": 5737,
      "çĶŁæ´»ä¸Ń": 5738,
      "ï¼ŁâĢĿ<|": 5739,
      "çļĦæľĢä½³": 5740,
      "éŃĶæ³ķ": 5741,
      "æ°ĽåĽ´": 5742,
      "é²¨é±¼": 5743,
      "å®ı": 5744,
      "äºĨæĪĳ": 5745,
      "æĶĢ": 5746,
      "åİ»è¶ħå¸Ĥ": 5747,
      "åĸľæĤ¦": 5748,
      "æĪĳä»¬åıĸæ¶ĪäºĨ": 5749,
      "ä¿Ŀæļĸ": 5750,
      "å¼Ģä¼ļ": 5751,
      "ä½ķå¤Ħ": 5752,
      "èģĶçĽŁ": 5753,
      "æµģè¡ĮçļĦ": 5754,
      "èº«ä»½": 5755,
      "éĩįæĸ°æŀĦéĢł": 5756,
      "å¼ķåıĳ": 5757,
      "ç¤¾åĮº": 5758,
      "ä¸įéĶĻçļĦ": 5759,
      "éĢĲæ¸Ĳ": 5760,
      "å¿ĥçĲĨåŃ¦": 5761,
      "ç§»åĬ¨": 5762,
      "åĭ¤å¥ĭ": 5763,
      "ç¬Ķè®°æľ¬": 5764,
      "åŃŁ": 5765,
      "æĸĩæ¡£": 5766,
      "æĥ§": 5767,
      "ä½łå¯¹": 5768,
      "çĶµåĬ¨": 5769,
      "çĶŁæĪĲä¸ĢåĪĻ": 5770,
      "æĦŁæĥħ": 5771,
      "çĲĥåĳĺ": 5772,
      "åħ¨éĿ¢": 5773,
      "æııè¿°æĢ§": 5774,
      "æµģæ°´": 5775,
      "æĬĢæľ¯çļĦ": 5776,
      "çĽ¸åħ³çļĦæłĩé¢ĺ": 5777,
      "åıĤåĬłä¼ļè®®": 5778,
      "è´ŁéĿ¢è¯Ħä»·": 5779,
      "æĮīçħ§é¢ĺçĽ®": 5780,
      "æĻ®éĢļ": 5781,
      "ä»ĸåİ»äºĨ": 5782,
      "è¯·çĶŁæĪĲä¸Ģé¦ĸ": 5783,
      "åŃ¦ä¼ļ": 5784,
      "å¯¹çİ¯å¢ĥ": 5785,
      "æģ¢": 5786,
      "ä½Ĩå®ĥ": 5787,
      "éĿŀå¸¸ç¾İåĳ³": 5788,
      "çĶŁæĪĲä¸Ģä¸ªç±»ä¼¼": 5789,
      "åĩłçĤ¹": 5790,
      "æł¹æį®ç»Ļå®ļçļĦè¾ĵåħ¥": 5791,
      "èµĦæĸĻ": 5792,
      "åıĤåĬłäºĨ": 5793,
      "ç»Ļåĩºä¸Ģä¸ªéĹ®é¢ĺ": 5794,
      "åľ°åĮºçļĦ": 5795,
      "ç¶ĵ": 5796,
      "å¤ļæł·æĢ§": 5797,
      "æĵħéķ¿": 5798,
      "ç¥Īä½¿åı¥": 5799,
      "æĮīçħ§é¢ĺçĽ®åĨĻè¯Ĺ": 5800,
      "çļĦéĥ¨åĪĨ": 5801,
      "çļĦä¾ĭåŃĲ": 5802,
      "ä¸įåĨį": 5803,
      "è´·": 5804,
      "å¤©æ°ĶæĢİä¹Īæł·": 5805,
      "ä»İæľª": 5806,
      "çľĭçĿĢ": 5807,
      "æıĲåıĸæĸĩç«łä¸Ń": 5808,
      "ç¥¸": 5809,
      "æ¯ıåĳ¨": 5810,
      "å¦Ĥä½ķåľ¨å®¶": 5811,
      "åįģä¸Ģ": 5812,
      "è¿Ļç¯ĩæĸĩç«łçļĦåħ³éĶ®è¯į": 5813,
      "çīĩåĪ»": 5814,
      "å¦Ĥæŀľä½łè¿ĺæľīåħ¶ä»ĸéĹ®é¢ĺ": 5815,
      "æĪĳæĹłæ³ķåĽŀçŃĶè¿Ļä¸ªéĹ®é¢ĺ": 5816,
      "çľĭåĪ°äºĨä¸Ģåıª": 5817,
      "è¡¨çİ°åĬĽ": 5818,
      "åĩºçİ°äºĨ": 5819,
      "è¡Ĺä¸Ĭ": 5820,
      "åĲ¬èµ·æĿ¥ä¸įéĶĻ": 5821,
      "è´¢åĬ¡": 5822,
      "è¾ħåĬ©": 5823,
      "åİĺç±³": 5824,
      "åİīå®³": 5825,
      "è¿Ī": 5826,
      "ä»ĸåĨ³å®ļ": 5827,
      "çİ«": 5828,
      "è¯·ç¨įçŃī": 5829,
      "å¥½å¥½": 5830,
      "æľĢèĳĹåĲįçļĦ": 5831,
      "å¯¹äººç±»": 5832,
      "å¯¹ç»Ļå®ļçļĦæĸĩæľ¬": 5833,
      "æłĩå¿Ĺ": 5834,
      "çŃīäºİ": 5835,
      "å¿ĥçģµ": 5836,
      "éĩįåĨĻä¸ĭéĿ¢è¿Ļåı¥è¯Ŀ": 5837,
      "éĢĤåºĶ": 5838,
      "æĺ¥èĬĤ": 5839,
      "æĺ¨å¤©æĪĳåİ»äºĨ": 5840,
      "æİ¨èįĲåĲĹ": 5841,
      "äº§åĵģçļĦ": 5842,
      "é¸¡èĤī": 5843,
      "ç´¯äºĨ": 5844,
      "åį«æĺŁ": 5845,
      "ä¸įå¾Ĺä¸į": 5846,
      "è¯Ģ": 5847,
      "ä¸ºä¸»é¢ĺ": 5848,
      "æĤī": 5849,
      "æ¡ĳ": 5850,
      "ä½Ĩè¿ĺæĺ¯": 5851,
      "è¿ĩäºİ": 5852,
      "åħ¬åı¸åĲįç§°": 5853,
      "äºĨä¸Ģä»½": 5854,
      "åĩłä¹İ": 5855,
      "åįĥéĩĮ": 5856,
      "è§Ħå®ļ": 5857,
      "....": 5858,
      "æĪĳå°Ĩå°½åĬĽ": 5859,
      "åľ¨æŃ¤ä»»åĬ¡ä¸Ń": 5860,
      "ä¸Ńæľī": 5861,
      "ä¼į": 5862,
      "çī§": 5863,
      "ä»¥ä¸ĭæ®µèĲ½": 5864,
      "æĽ´æľī": 5865,
      "å¤§åŀĭ": 5866,
      "æķ°çĻ¾": 5867,
      "äºĭä¸ļ": 5868,
      "æ»¨": 5869,
      "èĢĮä¸į": 5870,
      "çī¹æľĹ": 5871,
      "èĥ¸": 5872,
      "è¶ħçº§": 5873,
      "èįīæľ¨": 5874,
      "æľįåĬ¡åĳĺ": 5875,
      "åı«åģļ": 5876,
      "æķĳèµİ": 5877,
      "å¿ĥèĦıçĹħ": 5878,
      "èĽĭçĻ½è´¨": 5879,
      "åľ³": 5880,
      "çŁ¿": 5881,
      "å¤§éĽ¨": 5882,
      "å¤§èĦĳ": 5883,
      "åĲįä¸º": 5884,
      "æĢ§æł¼": 5885,
      "èİ²": 5886,
      "çĥŃçĪ±": 5887,
      "å²³": 5888,
      "ç½ĳä¸Ĭ": 5889,
      "ç»Ļå®ļä¸Ģä¸ªåįķè¯į": 5890,
      "___": 5891,
      "æıĲåĪ°çļĦ": 5892,
      "æĲľç´¢å¼ķæĵİ": 5893,
      "åį±éĻ©": 5894,
      "ä½¿åħ¶æĽ´åħ·åı¯è¯»æĢ§": 5895,
      "æł¹æį®æīĢç»Ļ": 5896,
      "Ġä¸įå®¢æ°Ķ": 5897,
      "åľ¨åĮ»çĸĹé¢ĨåŁŁ": 5898,
      "æĹ±": 5899,
      "è®¶": 5900,
      "éĥ½å¾Ī": 5901,
      "ç½©": 5902,
      "æĹłæ³ķè¿Ľè¡Į": 5903,
      "ç§°ä¸º": 5904,
      "æ·±åľ³": 5905,
      "èĳ£": 5906,
      "çīĩæ®µ": 5907,
      "ç»Ĩèĥŀ": 5908,
      "ç»´æĬ¤": 5909,
      "å°½ç®¡ä»ĸéĿŀå¸¸": 5910,
      "å¤´èĦĳé£İæļ´": 5911,
      "ç»¼": 5912,
      "ä»¥åīį": 5913,
      "åľ¨åĵªä¸ªåŁİå¸Ĥ": 5914,
      "ä½łæľī": 5915,
      "æĤ¨æľīä»Ģä¹Ī": 5916,
      "çĶŁæĪĲä¸Ģä»½": 5917,
      "å®¶éĩĮ": 5918,
      "é«Ķ": 5919,
      "æķ°ä¸º": 5920,
      "æĮĩçļĦæĺ¯": 5921,
      "æĽ´åĬłæµģçķħ": 5922,
      "ç®ĢåįķæĺĵæĩĤ": 5923,
      "è®¡ç®Ĺæľºè§Ĩè§ī": 5924,
      "ä¸ºä½łæıĲä¾Ľ": 5925,
      "èµ¢å¾ĹäºĨ": 5926,
      "èĢĲå¿ĥ": 5927,
      "çĢ": 5928,
      "çļĦè¯įæ±ĩ": 5929,
      "åıĻ": 5930,
      "åħ®": 5931,
      "æĺĶ": 5932,
      "æīİ": 5933,
      "æł¹æį®è¡¨æł¼": 5934,
      "èĩªä¿¡": 5935,
      "åĽŀå¿Ĩ": 5936,
      "æĹ¥èĲ½": 5937,
      "çĲĥéĺŁ": 5938,
      "èĤª": 5939,
      "çī¹æ®Ĭ": 5940,
      "èıĬ": 5941,
      "å¸¦ä¸Ĭ": 5942,
      "æĪĳä¼ļåİ»": 5943,
      "æıĲåıĸåĩºæĿ¥": 5944,
      "æŁ¥è¯¢ä¸Ģä¸ĭ": 5945,
      "é½¿": 5946,
      "çĶļèĩ³": 5947,
      "äººä½ĵ": 5948,
      "è°Ĳ": 5949,
      "å¹´ä»½": 5950,
      "æ»ĭ": 5951,
      "ç©ºæł¼": 5952,
      "èıĮ": 5953,
      "å·²ç»ıè¢«": 5954,
      "é»Ħåı¶": 5955,
      "å·ŀåĪºåı²": 5956,
      "ç¢ĳ": 5957,
      "å¨ľ": 5958,
      "çĻ¾å¹´": 5959,
      "æ±īåŃĹ": 5960,
      "ç§ĳå¹»çĶµå½±": 5961,
      "å¿ĥçĲĨåģ¥åº·": 5962,
      "å¹ħçĶ»": 5963,
      "å¸®åĪ°ä½ł": 5964,
      "èĦĤèĤª": 5965,
      "éĢĿ": 5966,
      "åĪ°çļĦ": 5967,
      "æĤ¨æīĢåľ¨çļĦåŁİå¸Ĥ": 5968,
      "æĥ³çŁ¥éģĵ": 5969,
      "æ¯Ķäºļ": 5970,
      "è®©ä½łçļĦ": 5971,
      "èĪĩ": 5972,
      "èİº": 5973,
      "åĨįç»ĻæĪĳ": 5974,
      "è§Ĥä¼Ĺ": 5975,
      "åıĤåĬłèģļä¼ļ": 5976,
      "æ©Ł": 5977,
      "çĶ·äºº": 5978,
      "çĸĳéĹ®": 5979,
      "éĩĩçĶ¨": 5980,
      "æĺŁæľŁäºĶ": 5981,
      "ä¸ªåŃĹç¬¦": 5982,
      "è¯Ńæ³ķåĴĮæĭ¼åĨĻ": 5983,
      "æĲŃéħį": 5984,
      "åħģ": 5985,
      "æĺ¯æĪĳä»¬": 5986,
      "ä»¥ä¸º": 5987,
      "åľ¨è¿Ļ": 5988,
      "æ°£": 5989,
      "åħ¶å®ŀ": 5990,
      "è¯Ńä¹ī": 5991,
      "æµ´": 5992,
      "æ²¡æľīç»Ļåĩº": 5993,
      "ä¹Łä¸į": 5994,
      "éĢĤå®ľ": 5995,
      "èĮ¨": 5996,
      "èįīåľ°ä¸Ĭ": 5997,
      "åį°è±¡": 5998,
      "è®¾è®¡ä¸Ģä¸ª": 5999,
      "èı²å°Ķ": 6000,
      "èĤĸçĶ³": 6001,
      "ä¸Ľ": 6002,
      "çļĦæĹ¥åŃĲ": 6003,
      "ä¼ı": 6004,
      "çĽĴ": 6005,
      "æĺİäº®": 6006,
      "ç»Ļå®ļä¸¤ä¸ª": 6007,
      "éĽĢ": 6008,
      "è¯¥åħ¬åı¸": 6009,
      "æ·®": 6010,
      "ç½²": 6011,
      "åĨħå¿ĥ": 6012,
      "æµģæĦŁ": 6013,
      "ä½¿çĶ¨çļĦ": 6014,
      "éĩĳæĺŁ": 6015,
      "æīĵçĶµè¯Ŀ": 6016,
      "éĵĥ": 6017,
      "åıĤèĢĥ": 6018,
      "èĭ¹æŀľåħ¬åı¸": 6019,
      "åħįçĸ«": 6020,
      "åĩºçİ°çļĦ": 6021,
      "åĽłä¸ºå¤©æ°Ķä¸įå¥½": 6022,
      "ç¢³æİĴæĶ¾": 6023,
      "éĢĽè¡Ĺ": 6024,
      "ä¸ªèĭ¹æŀľ": 6025,
      "ä»¥æĿ¥": 6026,
      "åŃĲåĴĮ": 6027,
      "å¸Ĩ": 6028,
      "åĴĮæľĭåıĭ": 6029,
      "æĽ´æĸ°": 6030,
      "åŃ¦æľ¯": 6031,
      "è´¾": 6032,
      "å½±çīĩ": 6033,
      "çĶŁæĪĲæłĩé¢ĺ": 6034,
      "ç±»æ¯Ķ": 6035,
      "å¤©æ°Ķä¿¡æģ¯": 6036,
      "ä»İæĿ¥": 6037,
      "æĥ³è±¡": 6038,
      "åº¦çļĦ": 6039,
      "æ¶ĪèĢĹ": 6040,
      "æĦıæĢĿçĽ¸åĲĮ": 6041,
      "åįİä¸º": 6042,
      "æĤ¨åı¯ä»¥åĳĬè¯īæĪĳ": 6043,
      "å®ľäºº": 6044,
      "å°½ç®¡å¤©æ°Ķå¾ĪåĨ·": 6045,
      "æİ¢è®¨äºĨ": 6046,
      "æ²ŁéĢļ": 6047,
      "åı¤èĢģçļĦ": 6048,
      "ãĢĤãĢĬ": 6049,
      "ä»²": 6050,
      "æĪĳè¿ĺæĺ¯": 6051,
      "åı¥åı·": 6052,
      "å½»": 6053,
      "æī£": 6054,
      "å¼¦": 6055,
      "ç»Ļå®ļä¸Ģæ®µæĸĩåŃĹ": 6056,
      "è´¼": 6057,
      "çĤī": 6058,
      "å½±åĥı": 6059,
      "å®ŀçĶ¨": 6060,
      "ç¾İæ´²": 6061,
      "è¯¥æĸĩæľ¬ä¸Ń": 6062,
      "èĻ¹": 6063,
      "åı¤åħ¸": 6064,
      "èĬĤèĥ½": 6065,
      "æŃ£åľ¨è¢«": 6066,
      "æĪĳæĥ³äºĨè§£": 6067,
      "çħ§é¡¾": 6068,
      "åĴĸåķ¡åºĹ": 6069,
      "Ġåħ¶åĽĽ": 6070,
      "è¿ŀè´¯": 6071,
      "ä½ľä¸ºAIè¯Ńè¨Ģæ¨¡åŀĭ": 6072,
      "è¯¦ç»ĨåĽŀçŃĶ": 6073,
      "å«Į": 6074,
      "åħĭçļĦæķĳèµİ": 6075,
      "çļĦç®ĢçŁŃ": 6076,
      "æĺ¯æĪĳçļĦ": 6077,
      "æĸĩä»¶": 6078,
      "åľ¨åŃ¦æł¡": 6079,
      "ä»ĸç»ıå¸¸": 6080,
      "æĬĳ": 6081,
      "ä¸Ĭè¯¾": 6082,
      "æĸĩç«łæłĩé¢ĺ": 6083,
      "æľĢéķ¿": 6084,
      "åľ°éĵģ": 6085,
      "å¹¶çºłæŃ£": 6086,
      "åīĤ": 6087,
      "éĤª": 6088,
      "è¯¥åı¥": 6089,
      "æĳĨ": 6090,
      "åı·çłģ": 6091,
      "èµ°è·¯": 6092,
      "æłĳæľ¨": 6093,
      "çļĦä¸»é¢ĺæĺ¯": 6094,
      "éĵģå¡Ķ": 6095,
      "å¹¿åĳĬè¯Ń": 6096,
      "éĹ®æĪĳåĵ¦": 6097,
      "è¯Ńæ³ķåĴĮæĭ¼åĨĻéĶĻè¯¯": 6098,
      "çĨ¬å¤ľ": 6099,
      "èĤĸçĶ³åħĭçļĦæķĳèµİ": 6100,
      "å¤¹": 6101,
      "æĪĳæĦŁåĪ°éĿŀå¸¸": 6102,
      "æĺ¯éĿŀå¸¸": 6103,
      "è¿Ļä¸¤": 6104,
      "éĹľ": 6105,
      "æĪĲç«ĭ": 6106,
      "åı¯ä»¥æıĲé«ĺ": 6107,
      "éĽķ": 6108,
      "åĲĥäºĨä¸Ģä¸ª": 6109,
      "åĿĽ": 6110,
      "ä¸Ģç¯ĩæĸ°éĹ»æĬ¥éģĵ": 6111,
      "æĦıæĢĿä¸įåıĺ": 6112,
      "å¤´åıĳ": 6113,
      "é¾Ł": 6114,
      "ç¼ĸç¨ĭè¯Ńè¨Ģ": 6115,
      "åľŁè±Ĩ": 6116,
      "è¡¥åħ¨": 6117,
      "äººåĲįåĴĮåľ°åĲį": 6118,
      "å¯¹ç»Ļå®ļçļĦ": 6119,
      "ä»¥ä¸ĭåı¥åŃĲçļĦ": 6120,
      "é¦¨": 6121,
      "å»ī": 6122,
      "å¼Ģå±ķ": 6123,
      "ä¸īåįģ": 6124,
      "åĽŀçŃĶä½łçļĦéĹ®é¢ĺ": 6125,
      "èĢĮæĺ¯": 6126,
      "æ´»åĬĽ": 6127,
      "å®ĮäºĨ": 6128,
      "èıł": 6129,
      "æł¹æį®ç»Ļå®ļçļĦåħ³éĶ®è¯į": 6130,
      "æİĴåĲį": 6131,
      "çĶŁæ´»çļĦ": 6132,
      "æĽ´åĬłæ¸ħæĻ°": 6133,
      "éĻįéĽ¨": 6134,
      "ç½Ĺé©¬": 6135,
      "çļĦä¸»è¦ģåĨħå®¹": 6136,
      "ä»Ĭå¤©å¤©æ°ĶæĻ´æľĹ": 6137,
      "åıĳçĶŁäºĨ": 6138,
      "è®¡ç®Ĺæľºç¨ĭåºı": 6139,
      "çĭ¬çī¹çļĦ": 6140,
      "ä¸Ģæľ¬ä¹¦": 6141,
      "æĺ¯å¤ļäºĳ": 6142,
      "åľ¨éĤ£éĩĮ": 6143,
      "é¢Ĥ": 6144,
      "äºĨå¾Ī": 6145,
      "æ²Ī": 6146,
      "çĲĨæĥ³": 6147,
      "æł¹æį®ç»Ļå®ļçļĦéĹ®é¢ĺ": 6148,
      "æľªæĿ¥ç§ĳæĬĢ": 6149,
      "æ¼ĶåĶ±": 6150,
      "ç¥ŀå¥ĩ": 6151,
      "çĶ±äºİå¤©æ°ĶçĤİçĥŃ": 6152,
      "åĲ¸å¼ķäºº": 6153,
      "æĶ»åĩ»": 6154,
      "éŁ©åĽ½": 6155,
      "å¯Ĥå¯ŀ": 6156,
      "æĺ¯ä¸ĸçķĮä¸ĬæľĢ": 6157,
      "åľ¨è¿ĩåİ»": 6158,
      "å¹¶æĽ´æŃ£": 6159,
      "åĽłä¸ºå¥¹": 6160,
      "åħ³éĶ®çĤ¹": 6161,
      "è½¦è¾Ĩ": 6162,
      "éĴ¥": 6163,
      "è¦ģæ±ĤGPTæ¨¡åŀĭ": 6164,
      "è·¯çº¿": 6165,
      "åĮ»çĸĹè¡Įä¸ļ": 6166,
      "æĹħæ¸¸çļĦ": 6167,
      "åĨĽäºĭ": 6168,
      "åĸĿæ°´": 6169,
      "è´ŁéĿ¢æĥħæĦŁ": 6170,
      "çĽĳç®¡": 6171,
      "åħĦå¼Ł": 6172,
      "çİ«çĳ°": 6173,
      "çĶ«": 6174,
      "ç»½": 6175,
      "ä¾§": 6176,
      "æµ¦": 6177,
      "å°Ĩä¸ĭåĪĹ": 6178,
      "åı¯ä»¥è¢«": 6179,
      "è¿Ļä¸ªä»»åĬ¡": 6180,
      "éķ¿æľŁ": 6181,
      "éķ¿é¢Ī": 6182,
      "é©°": 6183,
      "åĳ½ä»¤": 6184,
      "å¾Īå¤ļäºº": 6185,
      "èĻ½çĦ¶å¥¹": 6186,
      "è°ģæĺ¯ç¾İåĽ½": 6187,
      "éĩįè¿°ä»¥ä¸ĭåı¥åŃĲ": 6188,
      "åĲ¯åıĳ": 6189,
      "ç¥ŀç»ıç½ĳç»ľ": 6190,
      "14": 6191,
      "ï¼ħ": 6192,
      "çļĦè¯į": 6193,
      "æĪª": 6194,
      "åħ½": 6195,
      "æī®": 6196,
      "çĶŁç´ł": 6197,
      "ä»ĸæĺ¯ä¸Ģä¸ª": 6198,
      "æĸ°åı¥åŃĲ": 6199,
      "ç»Ļå®ļä»¥ä¸ĭ": 6200,
      "çĶµæ±ł": 6201,
      "éĥŃ": 6202,
      "é£ŁçĶ¨": 6203,
      "ç¥Ń": 6204,
      "åı²å¯Ĩ": 6205,
      "éļ¾å¿ĺ": 6206,
      "ç»¿èī²çļĦ": 6207,
      "ä¸Ģç»Ħåįķè¯į": 6208,
      "ç¥Ŀç¦ı": 6209,
      "199": 6210,
      "éº»çĥ¦": 6211,
      "åĵĪåĪ©æ³¢çī¹": 6212,
      "æ¤ħåŃĲ": 6213,
      "åĴĮè¯Ńæ³ķ": 6214,
      "ä»ĸæĺ¨å¤©": 6215,
      "å¾Īæ¼Ĥäº®": 6216,
      "èµ«": 6217,
      "æİ©": 6218,
      "å¯¹ä»¥ä¸ĭæĸĩæľ¬": 6219,
      "è¿Ļä¸ªåĳ¨æľ«": 6220,
      "å¤©æ°ĶæĻ´æľĹ": 6221,
      "ä¿Ŀè¯ģ": 6222,
      "å»ºéĢł": 6223,
      "æııç»ĺ": 6224,
      "æµģæµª": 6225,
      "æīĭæľ¯": 6226,
      "éĵħ": 6227,
      "æķħå®«": 6228,
      "ä¼łè¾¾": 6229,
      "æĪĳä¼ļå°½å¿«": 6230,
      "è¿Ļä¸ªåı¥åŃĲä¸Ń": 6231,
      "é»ĳèī²çļĦ": 6232,
      "ä¼ļè®®ä¸Ĭ": 6233,
      "éĽĨåĽ¢": 6234,
      "ä½įäºİå°¼æ³Ĭå°ĶåĴĮ": 6235,
      "åĩºåİ»çİ©": 6236,
      "éķ¿é¢Īé¹¿": 6237,
      "60": 6238,
      "è¿Ļè¾Ĩ": 6239,
      "æ¸Ķ": 6240,
      "åľ°åĽ¾": 6241,
      "å¯¹ä¸Ĭè¿°æĸĩæľ¬è¿Ľè¡ĮçºłéĶĻ": 6242,
      "èĬ±æľµ": 6243,
      "åģļå¥½": 6244,
      "äºĨä¸Ģç§į": 6245,
      "äºĮæ°§åĮĸ": 6246,
      "çĽ´åĪ°": 6247,
      "æĥĬè®¶": 6248,
      "ç®ĢçŁŃçļĦè¯ĹæŃĮ": 6249,
      "éĸĵ": 6250,
      "å©ļç¤¼": 6251,
      "å¢¨è¥¿": 6252,
      "éĴĵé±¼": 6253,
      "å¯¹ä¸Ĭè¿°æĸĩæľ¬è¿Ľè¡ĮçºłéĶĻåĲİçļĦç»ĵæŀľ": 6254,
      "äºĨä»ĸçļĦ": 6255,
      "ä¸įå°ĳ": 6256,
      "éĹ®ä¸Ģä¸ĭ": 6257,
      "æĽ´ä¸º": 6258,
      "å°Ĩä¸Ģæ®µ": 6259,
      "èĲĿ": 6260,
      "ä½ķæĹ¶": 6261,
      "åİŁæĦı": 6262,
      "èĲ½æĹ¥": 6263,
      "åĶ¤": 6264,
      "éļ¾é¢ĺ": 6265,
      "è¿Ĳè¡Į": 6266,
      "æīĢæľīçļĦäººåĲį": 6267,
      "æľĿå»·": 6268,
      "è¿Ļæĺ¯ä¸Ģä¸ªæµĭè¯ķ": 6269,
      "å¦ĤæŀľæĤ¨è¿ĺæľīåħ¶ä»ĸ": 6270,
      "èŃ¦å¯Ł": 6271,
      "äººå·¥æĻºèĥ½åľ¨åĮ»çĸĹé¢ĨåŁŁçļĦåºĶçĶ¨": 6272,
      "çī¹æľĹæĻ®": 6273,
      "çļĦæ°´": 6274,
      "çļĦåĲįè¨Ģ": 6275,
      "ä»¥èİ·åıĸ": 6276,
      "äºĨåĲĹ": 6277,
      "åĩ½": 6278,
      "åĮĻ": 6279,
      "æĻĸ": 6280,
      "ç®Ń": 6281,
      "çº¤": 6282,
      "åİ»æĹħè¡Į": 6283,
      "åİ»åĵªéĩĮ": 6284,
      "éľį": 6285,
      "æ³ķè¯Ń": 6286,
      "åĽ½çļĦ": 6287,
      "éľĢè¦ģæ³¨æĦı": 6288,
      "éĿŀå¸¸åĸľæ¬¢": 6289,
      "åĲİæĿ¥": 6290,
      "çº¢æŁ¿": 6291,
      "æĪĳåĸľæ¬¢çľĭçĶµå½±": 6292,
      "çİĭäºĶ": 6293,
      "æľºåĻ¨ç¿»è¯ĳ": 6294,
      "æľĢé«ĺå³°": 6295,
      "æĪĳåı¯ä»¥ä¸ºæĤ¨æıĲä¾Ľ": 6296,
      "é»Ħæĺı": 6297,
      "ç©¿è¶Ĭ": 6298,
      "æĪĳæĺ¨å¤©åİ»äºĨ": 6299,
      "åĤ¬": 6300,
      "æĤ£èĢħ": 6301,
      "çľĭäºĨä¸Ģéĥ¨": 6302,
      "çļĦæŃĮæĽ²è¯Ħè®º": 6303,
      "å°Ĩå®ĥä»¬åĲĪå¹¶æĪĲä¸Ģä¸ª": 6304,
      "ä»İä»¥ä¸ĭæĸĩæľ¬ä¸ŃæıĲåıĸ": 6305,
      "çķªèĮĦ": 6306,
      "å¢¨è¥¿åĵ¥": 6307,
      "21": 6308,
      "ä¸Ńæī¾åĩº": 6309,
      "æĪĲåĪĨ": 6310,
      "åı¯åı£": 6311,
      "ä¿Ĭ": 6312,
      "ä½Ĩä»ĸçļĦ": 6313,
      "è¿Ľè¡Įæ¦Ĥæĭ¬": 6314,
      "æķ°çļĦ": 6315,
      "å±±åĮº": 6316,
      "æııåĨĻ": 6317,
      "è¥¿çº¢æŁ¿": 6318,
      "è¾ĵåħ¥çļĦ": 6319,
      "è§ĦèĮĥ": 6320,
      "ä¸Ńæĸĩæĸĩæľ¬": 6321,
      "å±ŀäºİåĵªä¸ª": 6322,
      "æ±īè¯Ń": 6323,
      "000": 6324,
      "è¯·ä¸ºä»¥ä¸ĭ": 6325,
      "æĶ¹ä¸ºä¸»åĬ¨è¯ŃæĢģ": 6326,
      "ä¸Ģæ¬¡æĢ§": 6327,
      "å·¨å¤§": 6328,
      "å¡«ç©º": 6329,
      "è¿Ļåº§åŁİå¸Ĥ": 6330,
      "æµ·å¹³éĿ¢ä¸Ĭåįĩ": 6331,
      "æģ¢å¤į": 6332,
      "åı²å¯Ĩæĸ¯": 6333,
      "ĠĠ": 6334,
      "ä¹¾": 6335,
      "è¿Ļéĥ¨": 6336,
      "ä½łæľĢè¿ĳ": 6337,
      "å¾Īç³Łç³ķ": 6338,
      "æĭ¯": 6339,
      "è¿Ļä¸ªæĪĲè¯Ń": 6340,
      "ä¸ŃçļĦæīĢæľī": 6341,
      "æĥ³äºĨè§£": 6342,
      "é¡Į": 6343,
      "åĽŀåĪ°": 6344,
      "éĩįåĨĻä»¥ä¸ĭ": 6345,
      "æĢĿç»ª": 6346,
      "é¥±": 6347,
      "çļĦå¤©æ°Ķä¿¡æģ¯": 6348,
      "å®īè£ħ": 6349,
      "åĩłå¤©": 6350,
      "å¹¿å·ŀ": 6351,
      "å¦Ĩ": 6352,
      "ä¸ĵæ³¨": 6353,
      "å¹¿æ³ĽåºĶçĶ¨": 6354,
      "å±ıå¹ķ": 6355,
      "é¢ĺæĿĲ": 6356,
      "å·¾": 6357,
      "çīµ": 6358,
      "æĭĵ": 6359,
      "éģĤ": 6360,
      "æľĪä»½": 6361,
      "åģļèµ·": 6362,
      "å¦Ĥä½ķåĪ¶ä½ľ": 6363,
      "é©¬ä¸Ĭ": 6364,
      "åįĹäº¬": 6365,
      "å¸¦ä¼ŀ": 6366,
      "éĤ£ä¹Īè¯·ä½ł": 6367,
      "æ¹ĺ": 6368,
      "åłĨ": 6369,
      "è´Łè´£": 6370,
      "å½Ĵç±»": 6371,
      "çĶ±äºİå¤©æ°ĶåİŁåĽł": 6372,
      "çļĦæľĢæĸ°": 6373,
      "æī¹è¯Ħ": 6374,
      "æ¾³å¤§åĪ©": 6375,
      "çĶŁçĹħäºĨ": 6376,
      "æĭĴç»Ŀ": 6377,
      "æĪĳåıª": 6378,
      "æľĢçĪ±": 6379,
      "æľĢåıĹæ¬¢è¿İçļĦ": 6380,
      "è°¨": 6381,
      "è·Į": 6382,
      "çĮĽ": 6383,
      "éĶĻè¯¯åįķè¯į": 6384,
      "æł·ä¾ĭ": 6385,
      "æħİ": 6386,
      "æ³¨éĩį": 6387,
      "åĲĦåľ°": 6388,
      "åĸĿèĮ¶": 6389,
      "åĨ°æ¿Ģ": 6390,
      "æĭ¥åłµ": 6391,
      "è·³è·ĥ": 6392,
      "åĤ²": 6393,
      "çĽ¸åıįçļĦæĦıæĢĿ": 6394,
      "æ¢ħèĬ±": 6395,
      "æĪĳå¾Īé«ĺåħ´èĥ½": 6396,
      "è£ĻåŃĲ": 6397,
      "çļĦç§ĳåŃ¦": 6398,
      "ä»ĸäºº": 6399
    },
    "merges": [
      [
        "ä",
        "¸"
      ],
      [
        "ï",
        "¼"
      ],
      [
        "ã",
        "Ģ"
      ],
      [
        "i",
        "m"
      ],
      [
        "<",
        "|"
      ],
      [
        "|",
        ">"
      ],
      [
        "ãĢ",
        "Ĥ"
      ],
      [
        "ç",
        "ļ"
      ],
      [
        "çļ",
        "Ħ"
      ],
      [
        "ï¼",
        "Į"
      ],
      [
        "å",
        "ı"
      ],
      [
        "ä",
        "»"
      ],
      [
        "ä",
        "º"
      ],
      [
        "è",
        "¯"
      ],
      [
        "æ",
        "ľ"
      ],
      [
        "æ",
        "Ī"
      ],
      [
        "a",
        "r"
      ],
      [
        "e",
        "n"
      ],
      [
        "s",
        "t"
      ],
      [
        "en",
        "d"
      ],
      [
        "ar",
        "t"
      ],
      [
        "st",
        "art"
      ],
      [
        "Ġ",
        "<|"
      ],
      [
        "æ",
        "ĸ"
      ],
      [
        "ä¸",
        "Ģ"
      ],
      [
        "è",
        "¿"
      ],
      [
        "å",
        "¤"
      ],
      [
        "ä",
        "½"
      ],
      [
        "å",
        "ħ"
      ],
      [
        "æ",
        "ĺ"
      ],
      [
        "ãĢĤ",
        "<|"
      ],
      [
        "å",
        "®"
      ],
      [
        "å",
        "Ń"
      ],
      [
        "å",
        "Ĳ"
      ],
      [
        "ï¼",
        "ļ"
      ],
      [
        "æĪ",
        "ĳ"
      ],
      [
        "ç",
        "Ķ"
      ],
      [
        "ä",
        "¹"
      ],
      [
        "å",
        "ľ"
      ],
      [
        "ä¸",
        "ª"
      ],
      [
        "å",
        "Ī"
      ],
      [
        "ç",
        "»"
      ],
      [
        "æĺ",
        "¯"
      ],
      [
        "æĸ",
        "ĩ"
      ],
      [
        "å",
        "Ĭ"
      ],
      [
        "å",
        "°"
      ],
      [
        "åı",
        "¥"
      ],
      [
        "ä»",
        "¥"
      ],
      [
        "å",
        "Ĩ"
      ],
      [
        "åŃ",
        "Ĳ"
      ],
      [
        "ä¸",
        "ĭ"
      ],
      [
        "ä¸",
        "Ń"
      ],
      [
        "æľ",
        "ī"
      ],
      [
        "åľ",
        "¨"
      ],
      [
        "æ",
        "Ĺ"
      ],
      [
        "è¿",
        "Ļ"
      ],
      [
        "å",
        "Ľ"
      ],
      [
        "é",
        "¢"
      ],
      [
        "ãĢ",
        "ģ"
      ],
      [
        "äº",
        "Ĩ"
      ],
      [
        "å",
        "¸"
      ],
      [
        "å",
        "¥"
      ],
      [
        "é",
        "Ĺ"
      ],
      [
        "å",
        "ĩ"
      ],
      [
        "å",
        "Ĵ"
      ],
      [
        "ä¸",
        "º"
      ],
      [
        "é",
        "ĩ"
      ],
      [
        "è",
        "®"
      ],
      [
        "åı¥",
        "åŃĲ"
      ],
      [
        "å",
        "¾"
      ],
      [
        "æ",
        "ı"
      ],
      [
        "å¤",
        "©"
      ],
      [
        "åĴ",
        "Į"
      ],
      [
        "æ",
        "ł"
      ],
      [
        "äº",
        "º"
      ],
      [
        "ä¸Ģ",
        "ä¸ª"
      ],
      [
        "å",
        "į"
      ],
      [
        "ĥ",
        "½"
      ],
      [
        "è",
        "¡"
      ],
      [
        "ä¸",
        "į"
      ],
      [
        "æĪ",
        "Ĳ"
      ],
      [
        "å",
        "º"
      ],
      [
        "â",
        "Ģ"
      ],
      [
        "ï¼",
        "Ł"
      ],
      [
        "æ",
        "Ŀ"
      ],
      [
        "æ",
        "°"
      ],
      [
        "é¢",
        "ĺ"
      ],
      [
        "å",
        "½"
      ],
      [
        "å",
        "¹"
      ],
      [
        "æ",
        "Ń"
      ],
      [
        "é",
        "Ŀ"
      ],
      [
        "å",
        "İ"
      ],
      [
        "ä",
        "¼"
      ],
      [
        "æı",
        "Ĳ"
      ],
      [
        "æ",
        "ī"
      ],
      [
        "è",
        "¦"
      ],
      [
        "å",
        "·"
      ],
      [
        "è¦",
        "ģ"
      ],
      [
        "æľ",
        "¬"
      ],
      [
        "åĩ",
        "º"
      ],
      [
        "çĶ",
        "Ł"
      ],
      [
        "ç",
        "«"
      ],
      [
        "è",
        "ĥ½"
      ],
      [
        "ä»",
        "ĸ"
      ],
      [
        "ç»",
        "Ļ"
      ],
      [
        "æ",
        "ĥ"
      ],
      [
        "ä½",
        "ł"
      ],
      [
        "å",
        "Į"
      ],
      [
        "é",
        "Ģ"
      ],
      [
        "æ",
        "Ľ"
      ],
      [
        "æ",
        "Ģ"
      ],
      [
        "å",
        "¯"
      ],
      [
        "ç",
        "§"
      ],
      [
        "ç",
        "İ"
      ],
      [
        "æ",
        "Ħ"
      ],
      [
        "æ",
        "Ĭ"
      ],
      [
        "è¯",
        "·"
      ],
      [
        "ç",
        "ī"
      ],
      [
        "å¥",
        "½"
      ],
      [
        "ç",
        "Ľ"
      ],
      [
        "ç",
        "Ń"
      ],
      [
        "æ",
        "ŀ"
      ],
      [
        "åĨ",
        "Ļ"
      ],
      [
        "åı",
        "¯"
      ],
      [
        "å",
        "¼"
      ],
      [
        "æ",
        "Ļ"
      ],
      [
        "è¯",
        "į"
      ],
      [
        "æ",
        "ķ"
      ],
      [
        "éĹ",
        "®"
      ],
      [
        "å",
        "ĳ"
      ],
      [
        "å",
        "ĵ"
      ],
      [
        "å®",
        "ļ"
      ],
      [
        "åħ",
        "¶"
      ],
      [
        "è",
        "§"
      ],
      [
        "ä¸",
        "Ĭ"
      ],
      [
        "ä»¥",
        "ä¸ĭ"
      ],
      [
        "è¯",
        "Ń"
      ],
      [
        "æ",
        "³"
      ],
      [
        "ç",
        "®"
      ],
      [
        "æĸĩ",
        "æľ¬"
      ],
      [
        "ä",
        "¿"
      ],
      [
        "æ",
        "Ķ"
      ],
      [
        "çĶ",
        "¨"
      ],
      [
        "è",
        "¾"
      ],
      [
        "åħ",
        "³"
      ],
      [
        "æĽ",
        "´"
      ],
      [
        "è¡",
        "Į"
      ],
      [
        "ä",
        "¾"
      ],
      [
        "ç«",
        "ł"
      ],
      [
        "å",
        "¿"
      ],
      [
        "æ",
        "¬"
      ],
      [
        "æ°",
        "Ķ"
      ],
      [
        "æ",
        "Ĥ"
      ],
      [
        "æĸĩ",
        "ç«ł"
      ],
      [
        "ä»",
        "¬"
      ],
      [
        "äº",
        "İ"
      ],
      [
        "æ",
        "į"
      ],
      [
        "è",
        "Ģ"
      ],
      [
        "æ",
        "µ"
      ],
      [
        "åĪ",
        "°"
      ],
      [
        "é",
        "Ķ"
      ],
      [
        "å¾",
        "Ī"
      ],
      [
        "å°",
        "Ĩ"
      ],
      [
        "ä¹",
        "Ī"
      ],
      [
        "å",
        "ĸ"
      ],
      [
        "æ",
        "²"
      ],
      [
        "æĸ",
        "°"
      ],
      [
        "æ",
        "ĭ"
      ],
      [
        "ç",
        "ľ"
      ],
      [
        "ç",
        "Ĳ"
      ],
      [
        "é",
        "£"
      ],
      [
        "è",
        "µ"
      ],
      [
        "æ",
        "İ"
      ],
      [
        "æĿ",
        "¥"
      ],
      [
        "ä½",
        "¿"
      ],
      [
        "éĩ",
        "į"
      ],
      [
        "æ",
        "´"
      ],
      [
        "æľ",
        "Ģ"
      ],
      [
        "æ",
        "¸"
      ],
      [
        "æĤ",
        "¨"
      ],
      [
        "åı",
        "ĸ"
      ],
      [
        "éĿ",
        "¢"
      ],
      [
        "ç",
        "º"
      ],
      [
        "æĹ",
        "¶"
      ],
      [
        "ä½",
        "ĵ"
      ],
      [
        "åİ",
        "»"
      ],
      [
        "å",
        "±"
      ],
      [
        "¦",
        "Ĥ"
      ],
      [
        "ç",
        "Ł"
      ],
      [
        "åı¯",
        "ä»¥"
      ],
      [
        "âĢ",
        "Ŀ"
      ],
      [
        "ä¼",
        "ļ"
      ],
      [
        "è",
        "ĩ"
      ],
      [
        "åŃ",
        "¦"
      ],
      [
        "åľ",
        "°"
      ],
      [
        "å¤",
        "§"
      ],
      [
        "å¯",
        "¹"
      ],
      [
        "æĺ",
        "İ"
      ],
      [
        "æ",
        "¯"
      ],
      [
        "âĢ",
        "ľ"
      ],
      [
        "éĹ®",
        "é¢ĺ"
      ],
      [
        "è",
        "°"
      ],
      [
        "ç",
        "±"
      ],
      [
        "é",
        "ľ"
      ],
      [
        "ç»Ļ",
        "å®ļ"
      ],
      [
        "æį",
        "®"
      ],
      [
        "çĶ",
        "µ"
      ],
      [
        "æ",
        "±"
      ],
      [
        "åĲ",
        "į"
      ],
      [
        "è",
        "´"
      ],
      [
        "åĸ",
        "ľ"
      ],
      [
        "å",
        "ģ"
      ],
      [
        "ç",
        "Ħ"
      ],
      [
        "å¸",
        "¸"
      ],
      [
        "ä»",
        "Ģ"
      ],
      [
        "ç",
        "Ĥ"
      ],
      [
        "ä»Ģ",
        "ä¹Ī"
      ],
      [
        "åĬ",
        "¨"
      ],
      [
        "å",
        "¦Ĥ"
      ],
      [
        "æ¬",
        "¢"
      ],
      [
        "æ³",
        "ķ"
      ],
      [
        "æĥ",
        "ħ"
      ],
      [
        "åĬ",
        "ł"
      ],
      [
        "å½",
        "±"
      ],
      [
        "çŃ",
        "Ķ"
      ],
      [
        "è¯",
        "Ŀ"
      ],
      [
        "è¿Ļ",
        "ä¸ª"
      ],
      [
        "ä¾",
        "Ľ"
      ],
      [
        "çĶŁ",
        "æĪĲ"
      ],
      [
        "çī",
        "©"
      ],
      [
        "å",
        "Ł"
      ],
      [
        "å·",
        "¥"
      ],
      [
        "æ",
        "Į"
      ],
      [
        "å¤",
        "ļ"
      ],
      [
        "çĦ",
        "¶"
      ],
      [
        "æıĲ",
        "ä¾Ľ"
      ],
      [
        "æŃ",
        "£"
      ],
      [
        "é",
        "Ļ"
      ],
      [
        "ä½",
        "ľ"
      ],
      [
        "è¿",
        "Ľ"
      ],
      [
        "åĽ",
        "½"
      ],
      [
        "ç®",
        "Ģ"
      ],
      [
        "å®",
        "ŀ"
      ],
      [
        "ç",
        "¯"
      ],
      [
        "ä¸",
        "»"
      ],
      [
        "åĪ",
        "Ĩ"
      ],
      [
        "æĦ",
        "Ł"
      ],
      [
        "å®",
        "¶"
      ],
      [
        "é",
        "ģ"
      ],
      [
        "è",
        "½"
      ],
      [
        "æł",
        "¹"
      ],
      [
        "å¹",
        "¶"
      ],
      [
        "ç±",
        "»"
      ],
      [
        "é",
        "ĺ"
      ],
      [
        "åĸľ",
        "æ¬¢"
      ],
      [
        "éľ",
        "Ģ"
      ],
      [
        "ä»¥ä¸ĭ",
        "åı¥åŃĲ"
      ],
      [
        "å¤©",
        "æ°Ķ"
      ],
      [
        "çİ",
        "°"
      ],
      [
        "æł",
        "ĩ"
      ],
      [
        "ç¯",
        "ĩ"
      ],
      [
        "æł¹",
        "æį®"
      ],
      [
        "é",
        "«"
      ],
      [
        "æī",
        "Ģ"
      ],
      [
        "äº",
        "Ľ"
      ],
      [
        "è",
        "ģ"
      ],
      [
        "é«",
        "ĺ"
      ],
      [
        "è",
        "ī"
      ],
      [
        "èĩ",
        "ª"
      ],
      [
        "å",
        "ī"
      ],
      [
        "ç",
        "¾"
      ],
      [
        "æ",
        "ģ"
      ],
      [
        "å°",
        "ı"
      ],
      [
        "é",
        "¦"
      ],
      [
        "åĲ",
        "Į"
      ],
      [
        "ä»",
        "İ"
      ],
      [
        "æĦ",
        "ı"
      ],
      [
        "åı",
        "ĳ"
      ],
      [
        "æŀ",
        "ľ"
      ],
      [
        "åĽ",
        "ł"
      ],
      [
        "çľ",
        "ĭ"
      ],
      [
        "è",
        "¶"
      ],
      [
        "åį",
        "ķ"
      ],
      [
        "è",
        "Ĭ"
      ],
      [
        "çĽ",
        "¸"
      ],
      [
        "éĿ",
        "ŀ"
      ],
      [
        "å®",
        "ĥ"
      ],
      [
        "ä¸Ń",
        "çļĦ"
      ],
      [
        "éľĢ",
        "è¦ģ"
      ],
      [
        "æĶ",
        "¹"
      ],
      [
        "éĩ",
        "Į"
      ],
      [
        "æĸ",
        "¹"
      ],
      [
        "é",
        "Ĥ"
      ],
      [
        "æ",
        "¡"
      ],
      [
        "çĤ",
        "¹"
      ],
      [
        "æĥ",
        "³"
      ],
      [
        "é",
        "¡"
      ],
      [
        "ä½",
        "Ĩ"
      ],
      [
        "ä¹",
        "ī"
      ],
      [
        "åħ",
        "¬"
      ],
      [
        "é",
        "Ľ"
      ],
      [
        "æĪ",
        "ĸ"
      ],
      [
        "æ²",
        "¡"
      ],
      [
        "éĶ",
        "Ļ"
      ],
      [
        "æıĲ",
        "åıĸ"
      ],
      [
        "å¾",
        "Ĺ"
      ],
      [
        "è¿",
        "ĩ"
      ],
      [
        "è¯",
        "Ĺ"
      ],
      [
        "çĶµ",
        "å½±"
      ],
      [
        "å¥½",
        "çļĦ"
      ],
      [
        "ç¾",
        "İ"
      ],
      [
        "å½",
        "ĵ"
      ],
      [
        "æĪĳ",
        "ä»¬"
      ],
      [
        "ç",
        "©"
      ],
      [
        "å¸",
        "®"
      ],
      [
        "éĿŀ",
        "å¸¸"
      ],
      [
        "åĬ",
        "Ľ"
      ],
      [
        "æĹ",
        "ł"
      ],
      [
        "è¿Ľ",
        "è¡Į"
      ],
      [
        "çĲ",
        "Ĩ"
      ],
      [
        "è¡",
        "¨"
      ],
      [
        "åº",
        "Ķ"
      ],
      [
        "ç",
        "¼"
      ],
      [
        "åŃ",
        "Ĺ"
      ],
      [
        "ç",
        "¬"
      ],
      [
        "ç",
        "ķ"
      ],
      [
        "è¿",
        "°"
      ],
      [
        "åĽ",
        "ŀ"
      ],
      [
        "æ",
        "Ł"
      ],
      [
        "ä¹",
        "ĭ"
      ],
      [
        "çļĦ",
        "åı¥åŃĲ"
      ],
      [
        "å¹",
        "´"
      ],
      [
        "ä»",
        "Ĭ"
      ],
      [
        "æľ",
        "º"
      ],
      [
        "ä½¿",
        "åħ¶"
      ],
      [
        "æĻ",
        "º"
      ],
      [
        "åĲ",
        "Ĺ"
      ],
      [
        "çŃ",
        "ī"
      ],
      [
        "ï¼Ł",
        "<|"
      ],
      [
        "æķ",
        "°"
      ],
      [
        "è",
        "·"
      ],
      [
        "è",
        "¨"
      ],
      [
        "æ",
        "®"
      ],
      [
        "è¿",
        "ĺ"
      ],
      [
        "èī",
        "²"
      ],
      [
        "å¸",
        "Ĥ"
      ],
      [
        "å",
        "Ģ"
      ],
      [
        "åĵ",
        "ª"
      ],
      [
        "ä¿",
        "Ŀ"
      ],
      [
        "åº",
        "¦"
      ],
      [
        "å",
        "»"
      ],
      [
        "ç",
        "ĸ"
      ],
      [
        "è",
        "ĭ"
      ],
      [
        "ç»",
        "ı"
      ],
      [
        "ä¿",
        "¡"
      ],
      [
        "è¨",
        "Ģ"
      ],
      [
        "éĹ",
        "´"
      ],
      [
        "æĹ",
        "¥"
      ],
      [
        "ï¼",
        "ģ"
      ],
      [
        "ç",
        "¿"
      ],
      [
        "æĻº",
        "èĥ½"
      ],
      [
        "å¿",
        "ĥ"
      ],
      [
        "ç",
        "³"
      ],
      [
        "åī",
        "į"
      ],
      [
        "é£",
        "İ"
      ],
      [
        "äº",
        "ĭ"
      ],
      [
        "åı¥",
        "è¯Ŀ"
      ],
      [
        "å¥",
        "¹"
      ],
      [
        "è§",
        "£"
      ],
      [
        "æłĩ",
        "é¢ĺ"
      ],
      [
        "æ¡",
        "Ī"
      ],
      [
        "é",
        "ļ"
      ],
      [
        "è",
        "Ĳ"
      ],
      [
        "ä¸",
        "¤"
      ],
      [
        "é",
        "ķ"
      ],
      [
        "ç",
        "ĭ"
      ],
      [
        "æ²¡",
        "æľī"
      ],
      [
        "å®ŀ",
        "ä½ĵ"
      ],
      [
        "é",
        "ĥ"
      ],
      [
        "çĲ",
        "ĥ"
      ],
      [
        "éĤ",
        "£"
      ],
      [
        "æĢ",
        "§"
      ],
      [
        "ç§",
        "į"
      ],
      [
        "åĵ",
        "ģ"
      ],
      [
        "è",
        "į"
      ],
      [
        "å¼",
        "Ģ"
      ],
      [
        "æ°",
        "´"
      ],
      [
        "ä¸",
        "ī"
      ],
      [
        "åĪ",
        "«"
      ],
      [
        "ç",
        "Ī"
      ],
      [
        "ä½¿åħ¶",
        "æĽ´"
      ],
      [
        "éģ",
        "ĵ"
      ],
      [
        "è¯",
        "¥"
      ],
      [
        "é",
        "ĥ½"
      ],
      [
        "æ®",
        "µ"
      ],
      [
        "åĮ",
        "ħ"
      ],
      [
        "æµ",
        "·"
      ],
      [
        "è¯",
        "´"
      ],
      [
        "ä½",
        "ķ"
      ],
      [
        "å",
        "ŀ"
      ],
      [
        "æĸĩç«ł",
        "ä¸Ń"
      ],
      [
        "åĮ",
        "ĸ"
      ],
      [
        "æģ",
        "¯"
      ],
      [
        "è°",
        "¢"
      ],
      [
        "ç",
        "Ŀ"
      ],
      [
        "å»",
        "º"
      ],
      [
        "æ¯",
        "Ķ"
      ],
      [
        "åĲ",
        "İ"
      ],
      [
        "åįķ",
        "è¯į"
      ],
      [
        "å¤",
        "ª"
      ],
      [
        "ç",
        "ĥ"
      ],
      [
        "åĳ",
        "Ĭ"
      ],
      [
        "è",
        "¢"
      ],
      [
        "åĲ",
        "Ī"
      ],
      [
        "èµ",
        "·"
      ],
      [
        "è",
        "Ĥ"
      ],
      [
        "éķ",
        "¿"
      ],
      [
        "ä»Ĭ",
        "å¤©"
      ],
      [
        "éĩį",
        "åĨĻ"
      ],
      [
        "ç",
        "¡"
      ],
      [
        "åħ",
        "¥"
      ],
      [
        "ç",
        "¨"
      ],
      [
        "æ´",
        "ģ"
      ],
      [
        "ä¹",
        "¦"
      ],
      [
        "ç»Ļå®ļ",
        "çļĦ"
      ],
      [
        "äºº",
        "å·¥"
      ],
      [
        "æ",
        "·"
      ],
      [
        "çŃĶ",
        "æ¡Ī"
      ],
      [
        "æ",
        "¶"
      ],
      [
        "ç",
        "½"
      ],
      [
        "ãĢĤ",
        "âĢĿ"
      ],
      [
        "æĬ",
        "Ģ"
      ],
      [
        "å±",
        "±"
      ],
      [
        "äººå·¥",
        "æĻºèĥ½"
      ],
      [
        "ç",
        "Ļ"
      ],
      [
        "åĲ",
        "«"
      ],
      [
        "çĶŁæĪĲ",
        "ä¸Ģä¸ª"
      ],
      [
        "åħ",
        "·"
      ],
      [
        "ç",
        "¤"
      ],
      [
        "ä¸",
        "İ"
      ],
      [
        "ä¸ĭ",
        "éĿ¢"
      ],
      [
        "ä¹",
        "ł"
      ],
      [
        "å",
        "ķ"
      ],
      [
        "å",
        "¢"
      ],
      [
        "åı",
        "ĺ"
      ],
      [
        "é£",
        "Ł"
      ],
      [
        "å°",
        "½"
      ],
      [
        "ç",
        "´"
      ],
      [
        "åĲ",
        "ĥ"
      ],
      [
        "åĽł",
        "ä¸º"
      ],
      [
        "ç®Ģ",
        "æ´ģ"
      ],
      [
        "éĥ",
        "¨"
      ],
      [
        "è¿Ļ",
        "ç¯ĩ"
      ],
      [
        "ä»",
        "£"
      ],
      [
        "ä¿¡",
        "æģ¯"
      ],
      [
        "å",
        "Ŀ"
      ],
      [
        "çŁ",
        "Ń"
      ],
      [
        "å®",
        "¹"
      ],
      [
        "æİ",
        "¨"
      ],
      [
        "ç¼",
        "ĸ"
      ],
      [
        "é¦",
        "ĸ"
      ],
      [
        "åŁ",
        "İ"
      ],
      [
        "éĢ",
        "ī"
      ],
      [
        "æ¸",
        "¸"
      ],
      [
        "çŁ",
        "¥"
      ],
      [
        "ç¡",
        "®"
      ],
      [
        "èĢ",
        "ħ"
      ],
      [
        "çĽ",
        "®"
      ],
      [
        "ç¿",
        "»"
      ],
      [
        "åħ³",
        "äºİ"
      ],
      [
        "åħ",
        "¨"
      ],
      [
        "è",
        "Ļ"
      ],
      [
        "ä¹",
        "Ĳ"
      ],
      [
        "è¯",
        "¯"
      ],
      [
        "æı",
        "ı"
      ],
      [
        "ä¸",
        "ļ"
      ],
      [
        "æĸ",
        "Ń"
      ],
      [
        "éĢ",
        "ļ"
      ],
      [
        "éĶ",
        "®"
      ],
      [
        "åĨ",
        "ħ"
      ],
      [
        "ä»",
        "»"
      ],
      [
        "è¾",
        "¾"
      ],
      [
        "æĢ",
        "Ŀ"
      ],
      [
        "è®",
        "©"
      ],
      [
        "åħ³",
        "éĶ®"
      ],
      [
        "åı",
        "¤"
      ],
      [
        "è¯",
        "ĳ"
      ],
      [
        "é",
        "¤"
      ],
      [
        "ç³",
        "»"
      ],
      [
        "åĽŀ",
        "çŃĶ"
      ],
      [
        "çİ",
        "¯"
      ],
      [
        "è¢",
        "«"
      ],
      [
        "å¼",
        "ı"
      ],
      [
        "ç",
        "Į"
      ],
      [
        "è®",
        "®"
      ],
      [
        "å",
        "§"
      ],
      [
        "ç¿»",
        "è¯ĳ"
      ],
      [
        "ä¸",
        "ĸ"
      ],
      [
        "é¤",
        "Ĳ"
      ],
      [
        "æŀ",
        "ģ"
      ],
      [
        "åĬ",
        "©"
      ],
      [
        "é",
        "Ł"
      ],
      [
        "è®",
        "¡"
      ],
      [
        "èģ",
        "Ķ"
      ],
      [
        "åŀ",
        "ĭ"
      ],
      [
        "æıı",
        "è¿°"
      ],
      [
        "æ",
        "»"
      ],
      [
        "ä¸»",
        "é¢ĺ"
      ],
      [
        "éĶĻ",
        "è¯¯"
      ],
      [
        "ä½",
        "į"
      ],
      [
        "ç",
        "¥"
      ],
      [
        "ç§",
        "ĳ"
      ],
      [
        "è",
        "Ī"
      ],
      [
        "æĭ",
        "¬"
      ],
      [
        "æ",
        "¼"
      ],
      [
        "åĪ",
        "Ĺ"
      ],
      [
        "æĺ¯",
        "ä¸Ģ"
      ],
      [
        "é",
        "¥"
      ],
      [
        "èĢ",
        "Į"
      ],
      [
        "æ±",
        "Ĥ"
      ],
      [
        "å¤",
        "Ħ"
      ],
      [
        "ç»Ļ",
        "åĩº"
      ],
      [
        "è®",
        "º"
      ],
      [
        "é",
        "»"
      ],
      [
        "è¾",
        "ĵ"
      ],
      [
        "ç»",
        "ĵ"
      ],
      [
        "åı",
        "ª"
      ],
      [
        "ä¸Ģ",
        "äºĽ"
      ],
      [
        "è¯",
        "ī"
      ],
      [
        "ä¹",
        "Ł"
      ],
      [
        "çĶ",
        "±"
      ],
      [
        "ä¸¤",
        "ä¸ª"
      ],
      [
        "åŃ¦",
        "ä¹ł"
      ],
      [
        "é¡",
        "¹"
      ],
      [
        "é",
        "©"
      ],
      [
        "è¿",
        "ĳ"
      ],
      [
        "ä»",
        "¶"
      ],
      [
        "çī",
        "¹"
      ],
      [
        "æĺ",
        "Ł"
      ],
      [
        "èĬ",
        "±"
      ],
      [
        "åİ",
        "Ł"
      ],
      [
        "åĬ",
        "¡"
      ],
      [
        "æ´",
        "»"
      ],
      [
        "æľ",
        "Ī"
      ],
      [
        "åĳĬ",
        "è¯ī"
      ],
      [
        "æŃ",
        "Į"
      ],
      [
        "ç",
        "ģ"
      ],
      [
        "çĿ",
        "Ģ"
      ],
      [
        "å°",
        "ĳ"
      ],
      [
        "ç",
        "ł"
      ],
      [
        "æ",
        "ĳ"
      ],
      [
        "å",
        "£"
      ],
      [
        "åľ",
        "º"
      ],
      [
        "åģ",
        "¥"
      ],
      [
        "æĺ¯",
        "ä»Ģä¹Ī"
      ],
      [
        "æŃ",
        "¥"
      ],
      [
        "é¢",
        "Ĩ"
      ],
      [
        "æ¸",
        "ħ"
      ],
      [
        "ç",
        "Ĺ"
      ],
      [
        "æµ",
        "ģ"
      ],
      [
        "ç®",
        "¡"
      ],
      [
        "çĪ",
        "±"
      ],
      [
        "çķ",
        "Į"
      ],
      [
        "è½",
        "¦"
      ],
      [
        "æĬ",
        "¥"
      ],
      [
        "å®",
        "Į"
      ],
      [
        "å·",
        "²"
      ],
      [
        "æĻ",
        "ļ"
      ],
      [
        "å°",
        "±"
      ],
      [
        "åŃ",
        "ĺ"
      ],
      [
        "æľ",
        "ª"
      ],
      [
        "åı",
        "¸"
      ],
      [
        "ä½¿",
        "çĶ¨"
      ],
      [
        "æĢ",
        "»"
      ],
      [
        "ç¨",
        "ĭ"
      ],
      [
        "è¯",
        "Ĩ"
      ],
      [
        "ä½¿åħ¶æĽ´",
        "åĬł"
      ],
      [
        "ä¸Ģ",
        "ä¸ĭ"
      ],
      [
        "éĢ",
        "Ĥ"
      ],
      [
        "æīĢ",
        "æľī"
      ],
      [
        "æł",
        "¼"
      ],
      [
        "å½",
        "¢"
      ],
      [
        "åĳĬè¯ī",
        "æĪĳ"
      ],
      [
        "åĮ",
        "Ĺ"
      ],
      [
        "æľ",
        "¯"
      ],
      [
        "åĲ",
        "¦"
      ],
      [
        "æĹ",
        "ħ"
      ],
      [
        "åĪ",
        "Ľ"
      ],
      [
        "çĭ",
        "Ĺ"
      ],
      [
        "è",
        "İ"
      ],
      [
        "æī",
        "¾"
      ],
      [
        "é¢",
        "Ħ"
      ],
      [
        "ç©",
        "º"
      ],
      [
        "é",
        "¸"
      ],
      [
        "åĮ",
        "»"
      ],
      [
        "éĹ",
        "»"
      ],
      [
        "åĨ",
        "³"
      ],
      [
        "è",
        "º"
      ],
      [
        "æ",
        "¨"
      ],
      [
        "ãĢ",
        "ĭ"
      ],
      [
        "ãĢ",
        "Ĭ"
      ],
      [
        "åºĶ",
        "çĶ¨"
      ],
      [
        "ä»ĸ",
        "ä»¬"
      ],
      [
        "è¯",
        "ķ"
      ],
      [
        "ä¹",
        "°"
      ],
      [
        "éĽ",
        "¨"
      ],
      [
        "é",
        "Ĵ"
      ],
      [
        "äº",
        "Ķ"
      ],
      [
        "æĥħ",
        "æĦŁ"
      ],
      [
        "æĮ",
        "ģ"
      ],
      [
        "åŁ",
        "Ł"
      ],
      [
        "éŁ",
        "³"
      ],
      [
        "åŁİ",
        "å¸Ĥ"
      ],
      [
        "æĻ",
        "¯"
      ],
      [
        "ãĢĤ",
        "\""
      ],
      [
        "äº",
        "§"
      ],
      [
        "åģ",
        "ļ"
      ],
      [
        "ç»",
        "Ħ"
      ],
      [
        "æľ",
        "Ł"
      ],
      [
        "ä¹ī",
        "è¯į"
      ],
      [
        "æ¯",
        "ı"
      ],
      [
        "å¿",
        "«"
      ],
      [
        "æĸĩç«łä¸Ń",
        "æıĲåıĸ"
      ],
      [
        "éĺ",
        "³"
      ],
      [
        "ä¸Ģ",
        "ç¯ĩ"
      ],
      [
        "ä¸ĸ",
        "çķĮ"
      ],
      [
        "æī",
        "ĭ"
      ],
      [
        "è",
        "ı"
      ],
      [
        "å¦Ĥ",
        "æŀľ"
      ],
      [
        "è¯·",
        "éĹ®"
      ],
      [
        "èº",
        "«"
      ],
      [
        "åĽ",
        "Ń"
      ],
      [
        "ç»Ļ",
        "æĪĳ"
      ],
      [
        "æĶ¹",
        "åĨĻ"
      ],
      [
        "èĲ",
        "½"
      ],
      [
        "å¸®",
        "åĬ©"
      ],
      [
        "çļĦ",
        "å¤©æ°Ķ"
      ],
      [
        "æĮ",
        "ĩ"
      ],
      [
        "è",
        "¥"
      ],
      [
        "åħ¬",
        "åı¸"
      ],
      [
        "åĪ",
        "¤"
      ],
      [
        "æ",
        "ļ"
      ],
      [
        "éĩ",
        "ı"
      ],
      [
        "æŃ",
        "¤"
      ],
      [
        "è¯",
        "Ħ"
      ],
      [
        "äº",
        "¬"
      ],
      [
        "å¦Ĥ",
        "ä½ķ"
      ],
      [
        "å",
        "Ļ"
      ],
      [
        "ä½ł",
        "çļĦ"
      ],
      [
        "ï¼ļ",
        "âĢľ"
      ],
      [
        "ç",
        "¦"
      ],
      [
        "èĬ",
        "Ĥ"
      ],
      [
        "é",
        "ħ"
      ],
      [
        "æ",
        "£"
      ],
      [
        "è",
        "Ħ"
      ],
      [
        "ä¸Ń",
        "åĽ½"
      ],
      [
        "å¤",
        "ĸ"
      ],
      [
        "åı",
        "·"
      ],
      [
        "æ¸",
        "©"
      ],
      [
        "ç¿»è¯ĳ",
        "æĪĲ"
      ],
      [
        "çľ",
        "Ł"
      ],
      [
        "å±",
        "ķ"
      ],
      [
        "ç«",
        "ĭ"
      ],
      [
        "é¢Ĩ",
        "åŁŁ"
      ],
      [
        "ãĢĤ",
        "\\"
      ],
      [
        "æł",
        "·"
      ],
      [
        "è¯",
        "»"
      ],
      [
        "è¥",
        "¿"
      ],
      [
        "åį",
        "ģ"
      ],
      [
        "è¯Ń",
        "è¨Ģ"
      ],
      [
        "è¯Ń",
        "æ³ķ"
      ],
      [
        "éĩ",
        "ĳ"
      ],
      [
        "åŃĺ",
        "åľ¨"
      ],
      [
        "æ¶",
        "Ī"
      ],
      [
        "åĪĨ",
        "ç±»"
      ],
      [
        "æĶ",
        "¾"
      ],
      [
        "ä¸Ģ",
        "åı¥è¯Ŀ"
      ],
      [
        "è",
        "ĥ"
      ],
      [
        "æŁ",
        "¥"
      ],
      [
        "è®",
        "¾"
      ],
      [
        "åĻ",
        "¨"
      ],
      [
        "çİ°",
        "åľ¨"
      ],
      [
        "æĪĳ",
        "çļĦ"
      ],
      [
        "æĬ",
        "Ĭ"
      ],
      [
        "æĺ",
        "¨"
      ],
      [
        "æĹ¶",
        "éĹ´"
      ],
      [
        "å»º",
        "è®®"
      ],
      [
        "åĪ¤",
        "æĸŃ"
      ],
      [
        "ç»",
        "Ń"
      ],
      [
        "å¹",
        "³"
      ],
      [
        "åº",
        "·"
      ],
      [
        "åħ³éĶ®",
        "è¯į"
      ],
      [
        "æĸ°",
        "éĹ»"
      ],
      [
        "åħ",
        "ī"
      ],
      [
        "äºĨ",
        "ä¸Ģ"
      ],
      [
        "åı",
        "Ĺ"
      ],
      [
        "æį",
        "¢"
      ],
      [
        "å¢",
        "ĥ"
      ],
      [
        "æĺ",
        "ĵ"
      ],
      [
        "åı",
        "į"
      ],
      [
        "ç®",
        "Ĺ"
      ],
      [
        "å·¥",
        "ä½ľ"
      ],
      [
        "åĪ",
        "©"
      ],
      [
        "åħ",
        "´"
      ],
      [
        "çº",
        "¦"
      ],
      [
        "åĮħ",
        "æĭ¬"
      ],
      [
        "æĹł",
        "æ³ķ"
      ],
      [
        "è¶",
        "£"
      ],
      [
        "ç",
        "ı"
      ],
      [
        "äº",
        "¤"
      ],
      [
        "ç§",
        "ĭ"
      ],
      [
        "çĮ",
        "«"
      ],
      [
        "äº",
        "Į"
      ],
      [
        "çº",
        "¢"
      ],
      [
        "åİ",
        "Ĩ"
      ],
      [
        "æĹ",
        "©"
      ],
      [
        "æ¨",
        "¡"
      ],
      [
        "è¡¨",
        "è¾¾"
      ],
      [
        "è¿Ļ",
        "åı¥è¯Ŀ"
      ],
      [
        "æĺ¯",
        "ä¸Ģä¸ª"
      ],
      [
        "åģ¥",
        "åº·"
      ],
      [
        "å¸®",
        "æĪĳ"
      ],
      [
        "æ",
        "º"
      ],
      [
        "åĪ",
        "¶"
      ],
      [
        "æ",
        "¢"
      ],
      [
        "åı",
        "£"
      ],
      [
        "ç¬",
        "¬"
      ],
      [
        "å½ĵ",
        "çĦ¶"
      ],
      [
        "æľ",
        "į"
      ],
      [
        "åĳ",
        "¨"
      ],
      [
        "è",
        "±"
      ],
      [
        "éĩį",
        "æĸ°"
      ],
      [
        "å°½",
        "ç®¡"
      ],
      [
        "ç",
        "Ĭ"
      ],
      [
        "è¦ģ",
        "æ±Ĥ"
      ],
      [
        "åħ¶",
        "ä»ĸ"
      ],
      [
        "è½",
        "¬"
      ],
      [
        "è¿ĺ",
        "æĺ¯"
      ],
      [
        "åĳ",
        "¢"
      ],
      [
        "åı",
        "²"
      ],
      [
        "ç§",
        "¯"
      ],
      [
        "åı",
        "Ĭ"
      ],
      [
        "é",
        "ª"
      ],
      [
        "æĺ¯",
        "åĲ¦"
      ],
      [
        "è¿Ļç¯ĩ",
        "æĸĩç«ł"
      ],
      [
        "æĺİ",
        "å¤©"
      ],
      [
        "æĺ",
        "¥"
      ],
      [
        "åĨħ",
        "å®¹"
      ],
      [
        "æī",
        "ĵ"
      ],
      [
        "åĮĹ",
        "äº¬"
      ],
      [
        "æľ",
        "Ľ"
      ],
      [
        "çĸ",
        "Ĺ"
      ],
      [
        "çĻ",
        "½"
      ],
      [
        "åĲ",
        "¬"
      ],
      [
        "çļĦ",
        "éĹ®é¢ĺ"
      ],
      [
        "åı",
        "ĭ"
      ],
      [
        "å§",
        "ĭ"
      ],
      [
        "å®",
        "ī"
      ],
      [
        "çĥ",
        "Ń"
      ],
      [
        "åĢ",
        "Ļ"
      ],
      [
        "è¾",
        "ĳ"
      ],
      [
        "è",
        "ķ"
      ],
      [
        "ç§",
        "°"
      ],
      [
        "è¾ĵ",
        "åħ¥"
      ],
      [
        "åı¯",
        "èĥ½"
      ],
      [
        "åĮ",
        "º"
      ],
      [
        "éĩįåĨĻ",
        "ä»¥ä¸ĭåı¥åŃĲ"
      ],
      [
        "æĪĳ",
        "åĸľæ¬¢"
      ],
      [
        "æĬĢ",
        "æľ¯"
      ],
      [
        "éļ",
        "ı"
      ],
      [
        "æ¬",
        "¡"
      ],
      [
        "å",
        "Ķ"
      ],
      [
        "çĶ±",
        "äºİ"
      ],
      [
        "åĨ",
        "į"
      ],
      [
        "èı",
        "ľ"
      ],
      [
        "å",
        "²"
      ],
      [
        "åĵ",
        "į"
      ],
      [
        "åĩ",
        "ł"
      ],
      [
        "è§",
        "Ĥ"
      ],
      [
        "æŃ£",
        "åľ¨"
      ],
      [
        "åĪ°",
        "äºĨ"
      ],
      [
        "åĽ",
        "Ľ"
      ],
      [
        "æĦı",
        "æĢĿ"
      ],
      [
        "éĹ",
        "¨"
      ],
      [
        "è§",
        "ģ"
      ],
      [
        "ç",
        "ħ"
      ],
      [
        "éļ",
        "¾"
      ],
      [
        "åĬ¨",
        "çī©"
      ],
      [
        "ä¿",
        "®"
      ],
      [
        "ä¸Ģ",
        "æ®µ"
      ],
      [
        "å¤",
        "ı"
      ],
      [
        "æĢ",
        "ģ"
      ],
      [
        "åı¤",
        "è¯Ĺ"
      ],
      [
        "å®",
        "¢"
      ],
      [
        "è¿",
        "Ĳ"
      ],
      [
        "åħ·",
        "ä½ĵ"
      ],
      [
        "å",
        "³"
      ],
      [
        "çŁ¥",
        "éģĵ"
      ],
      [
        "æł¹æį®",
        "ç»Ļå®ļçļĦ"
      ],
      [
        "çĹ",
        "ħ"
      ],
      [
        "åĲ",
        "ĳ"
      ],
      [
        "èĢ",
        "ĥ"
      ],
      [
        "æ·",
        "±"
      ],
      [
        "ä¸",
        "ľ"
      ],
      [
        "è§",
        "ī"
      ],
      [
        "é",
        "ĵ"
      ],
      [
        "èĩª",
        "çĦ¶"
      ],
      [
        "ä»",
        "·"
      ],
      [
        "èµ",
        "Ľ"
      ],
      [
        "å¤",
        "´"
      ],
      [
        "å·²",
        "ç»ı"
      ],
      [
        "åº",
        "ı"
      ],
      [
        "ç",
        "²"
      ],
      [
        "æķ",
        "ħ"
      ],
      [
        "åĳ",
        "ĺ"
      ],
      [
        "å®ĥ",
        "ä»¬"
      ],
      [
        "å¼",
        "ł"
      ],
      [
        "æĺİ",
        "äºĨ"
      ],
      [
        "åģ",
        "ĩ"
      ],
      [
        "æĪĳ",
        "æĥ³"
      ],
      [
        "èĢ",
        "ģ"
      ],
      [
        "ä½¿åħ¶æĽ´åĬł",
        "ç®Ģæ´ģ"
      ],
      [
        "Â",
        "·"
      ],
      [
        "æĺ¨",
        "å¤©"
      ],
      [
        "é©",
        "¬"
      ],
      [
        "èį",
        "Ĳ"
      ],
      [
        "æĿ",
        "¡"
      ],
      [
        "èĭ",
        "±"
      ],
      [
        "æĪ",
        "·"
      ],
      [
        "æĬ",
        "½"
      ],
      [
        "æĳ",
        "ĺ"
      ],
      [
        "çİ",
        "ĭ"
      ],
      [
        "å¤",
        "į"
      ],
      [
        "æİ",
        "Ĵ"
      ],
      [
        "ç¼ĸ",
        "è¾ĳ"
      ],
      [
        "è",
        "Į"
      ],
      [
        "åĵª",
        "äºĽ"
      ],
      [
        "Ċ",
        "Ċ"
      ],
      [
        "è·",
        "¯"
      ],
      [
        "è¯Ĩ",
        "åĪ«"
      ],
      [
        "æİ¨",
        "èįĲ"
      ],
      [
        "æī",
        "į"
      ],
      [
        "æľĢ",
        "è¿ĳ"
      ],
      [
        "ä¾",
        "ĭ"
      ],
      [
        "ä¸Ģ",
        "é¦ĸ"
      ],
      [
        "åĳ",
        "³"
      ],
      [
        "å¤",
        "Ł"
      ],
      [
        "åİ»",
        "äºĨ"
      ],
      [
        "ç¤",
        "º"
      ],
      [
        "åį",
        "Ĺ"
      ],
      [
        "ç»",
        "Ł"
      ],
      [
        "åħ",
        "ĭ"
      ],
      [
        "çĽ¸",
        "åħ³"
      ],
      [
        "\"",
        "<|"
      ],
      [
        "ä»",
        "½"
      ],
      [
        "å·",
        "±"
      ],
      [
        "åİ",
        "ħ"
      ],
      [
        "å¸",
        "¦"
      ],
      [
        "éĢī",
        "é¡¹"
      ],
      [
        "åĬ",
        "Ł"
      ],
      [
        "çĽ¸",
        "åĲĮ"
      ],
      [
        "å½±",
        "åĵį"
      ],
      [
        "ä»¥ä¸ĭ",
        "æĸĩæľ¬"
      ],
      [
        "éĢ",
        "ł"
      ],
      [
        "ç§¯",
        "æŀģ"
      ],
      [
        "æĢ",
        "İ"
      ],
      [
        "éĩį",
        "è¦ģ"
      ],
      [
        "å®Į",
        "æĪĲ"
      ],
      [
        "æľª",
        "æĿ¥"
      ],
      [
        "ä¸»",
        "è¦ģ"
      ],
      [
        "å¯",
        "¼"
      ],
      [
        "çİ¯",
        "ä¿Ŀ"
      ],
      [
        "æĸ",
        "¯"
      ],
      [
        "å¼",
        "ķ"
      ],
      [
        "è°¢",
        "è°¢"
      ],
      [
        "åį",
        "İ"
      ],
      [
        "åħ³",
        "ç³»"
      ],
      [
        "æİ",
        "¥"
      ],
      [
        "å³",
        "°"
      ],
      [
        "ä¼",
        "ł"
      ],
      [
        "çİ¯",
        "å¢ĥ"
      ],
      [
        "è·",
        "ĳ"
      ],
      [
        "å°Ĩ",
        "ä»¥ä¸ĭåı¥åŃĲ"
      ],
      [
        "è",
        "ĳ"
      ],
      [
        "åıĳ",
        "å±ķ"
      ],
      [
        "æ»",
        "¡"
      ],
      [
        "çī",
        "ĩ"
      ],
      [
        "è´",
        "¨"
      ],
      [
        "æĪĳ",
        "ä¼ļ"
      ],
      [
        "æ",
        "¦Ĥ"
      ],
      [
        "äº",
        "ĳ"
      ],
      [
        "åĩ",
        "ı"
      ],
      [
        "çº",
        "ł"
      ],
      [
        "æĬ½",
        "åıĸ"
      ],
      [
        "é¦",
        "Ļ"
      ],
      [
        "èĩª",
        "å·±"
      ],
      [
        "äºº",
        "åĲį"
      ],
      [
        "æĬ",
        "¤"
      ],
      [
        "åħ¬",
        "åĽŃ"
      ],
      [
        "æľº",
        "åĻ¨"
      ],
      [
        "åķ",
        "Ĩ"
      ],
      [
        "åı",
        "Ĥ"
      ],
      [
        "é¤Ĳ",
        "åİħ"
      ],
      [
        "è®",
        "¤"
      ],
      [
        "æ¼",
        "Ķ"
      ],
      [
        "åĩ",
        "Ĩ"
      ],
      [
        "ä¸Ģä¸ª",
        "åı¥åŃĲ"
      ],
      [
        "åĪ",
        "Ĵ"
      ],
      [
        "èĭ",
        "¹"
      ],
      [
        "èĻ",
        "½"
      ],
      [
        "æŃ£",
        "ç¡®"
      ],
      [
        "å",
        "¡"
      ],
      [
        "ä¸º",
        "æĤ¨"
      ],
      [
        "è",
        "£"
      ],
      [
        "èĭ¹",
        "æŀľ"
      ],
      [
        "åĳ",
        "½"
      ],
      [
        "çħ",
        "§"
      ],
      [
        "éŁ³",
        "ä¹Ĳ"
      ],
      [
        "é£",
        "ŀ"
      ],
      [
        "è§",
        "Ĩ"
      ],
      [
        "è¿Ļä¸ª",
        "åı¥åŃĲ"
      ],
      [
        "èģ",
        "Ĭ"
      ],
      [
        "å¤",
        "ľ"
      ],
      [
        "ç¤",
        "¾"
      ],
      [
        "è¶",
        "³"
      ],
      [
        "ç½",
        "ĳ"
      ],
      [
        "ä¸",
        "ĩ"
      ],
      [
        "æĶ",
        "¿"
      ],
      [
        "æľĢ",
        "é«ĺ"
      ],
      [
        "æŀ",
        "Ĳ"
      ],
      [
        "å¹",
        "¿"
      ],
      [
        "æº",
        "Ĳ"
      ],
      [
        "çĶŁ",
        "æ´»"
      ],
      [
        "æķ",
        "Ļ"
      ],
      [
        "åĮħ",
        "åĲ«"
      ],
      [
        "æĿ",
        "İ"
      ],
      [
        "å",
        "¦"
      ],
      [
        "å",
        "ĥ"
      ],
      [
        "åħ¨",
        "çĲĥ"
      ],
      [
        "æľī",
        "è¶£"
      ],
      [
        "ä»ĸ",
        "çļĦ"
      ],
      [
        "æķ°",
        "æį®"
      ],
      [
        "æĽ´",
        "åĬł"
      ],
      [
        "åĮ»",
        "çĸĹ"
      ],
      [
        "æĪ",
        "ĺ"
      ],
      [
        "æĸĩç«łä¸ŃæıĲåıĸ",
        "åĩº"
      ],
      [
        "äºº",
        "ç±»"
      ],
      [
        "è¶",
        "ħ"
      ],
      [
        "æīĢ",
        "ä»¥"
      ],
      [
        "æĪĳ",
        "åı¯ä»¥"
      ],
      [
        "æķ",
        "´"
      ],
      [
        "çł",
        "Ķ"
      ],
      [
        "è¯·",
        "æıĲä¾Ľ"
      ],
      [
        "æīĢæľī",
        "çļĦ"
      ],
      [
        "æĦŁ",
        "åĪ°"
      ],
      [
        "å¥",
        "³"
      ],
      [
        "åĲĮ",
        "ä¹īè¯į"
      ],
      [
        "åĪĨ",
        "æŀĲ"
      ],
      [
        "åı",
        "¶"
      ],
      [
        "ç´",
        "¢"
      ],
      [
        "æĳĺ",
        "è¦ģ"
      ],
      [
        "è®",
        "°"
      ],
      [
        "è´",
        "Ń"
      ],
      [
        "ä»»",
        "åĬ¡"
      ],
      [
        "æĭ",
        "©"
      ],
      [
        "ä¸į",
        "åĲĮ"
      ],
      [
        "æĸ°",
        "çļĦ"
      ],
      [
        "æİ",
        "¢"
      ],
      [
        "ç¬",
        "ĳ"
      ],
      [
        "ä¸į",
        "åŃĺåľ¨"
      ],
      [
        "åĨ",
        "µ"
      ],
      [
        "ç¾İ",
        "åĽ½"
      ],
      [
        "åİĨ",
        "åı²"
      ],
      [
        "åĽ",
        "¾"
      ],
      [
        "ç©",
        "¶"
      ],
      [
        "ä¸º",
        "ä»Ģä¹Ī"
      ],
      [
        "ä¸",
        "½"
      ],
      [
        "åĲį",
        "ç§°"
      ],
      [
        "éĢī",
        "æĭ©"
      ],
      [
        "åºĶ",
        "è¯¥"
      ],
      [
        "å",
        "ĭ"
      ],
      [
        "ä¸¤ä¸ª",
        "åı¥åŃĲ"
      ],
      [
        "æķ",
        "£"
      ],
      [
        "åħ",
        "ĥ"
      ],
      [
        "å¾Ī",
        "å¤ļ"
      ],
      [
        "å¼",
        "º"
      ],
      [
        "è¯Ħ",
        "è®º"
      ],
      [
        "æķ",
        "Ī"
      ],
      [
        "è¾",
        "¹"
      ],
      [
        "æĢİ",
        "ä¹Ī"
      ],
      [
        "ä½Ĩ",
        "æĺ¯"
      ],
      [
        "ä¸",
        "Ķ"
      ],
      [
        "ä¸įåŃĺåľ¨",
        "å®ŀä½ĵ"
      ],
      [
        "ç»",
        "Ĩ"
      ],
      [
        "æĹħ",
        "æ¸¸"
      ],
      [
        "çļĦ",
        "æĸĩæľ¬"
      ],
      [
        "ä¸ĸçķĮ",
        "ä¸Ĭ"
      ],
      [
        "èĥ½",
        "å¤Ł"
      ],
      [
        "æ",
        "ħ"
      ],
      [
        "çļĦ",
        "ä¿¡æģ¯"
      ],
      [
        "èĻ½",
        "çĦ¶"
      ],
      [
        "æĪ",
        "¿"
      ],
      [
        "è±",
        "¡"
      ],
      [
        "æ³",
        "¨"
      ],
      [
        "å£",
        "°"
      ],
      [
        "æĸ",
        "Ļ"
      ],
      [
        "ç±»",
        "åŀĭ"
      ],
      [
        "ç®Ģ",
        "åįķ"
      ],
      [
        "äº§",
        "åĵģ"
      ],
      [
        "ç¬",
        "¦"
      ],
      [
        "æľ",
        "ĭ"
      ],
      [
        "åĨĻ",
        "ä¸Ģä¸ª"
      ],
      [
        "é»",
        "Ħ"
      ],
      [
        "èİ",
        "·"
      ],
      [
        "çİ°",
        "ä»£"
      ],
      [
        "å¸",
        "Į"
      ],
      [
        "åŁ",
        "º"
      ],
      [
        "æľī",
        "åħ³"
      ],
      [
        "æĪĳ",
        "ä¸į"
      ],
      [
        "æ¯Ķ",
        "èµĽ"
      ],
      [
        "ç»Ń",
        "åĨĻ"
      ],
      [
        "æ¨¡",
        "åŀĭ"
      ],
      [
        "å¤",
        "ĩ"
      ],
      [
        "åħ",
        "±"
      ],
      [
        "è¿ĺ",
        "æľī"
      ],
      [
        "åĵª",
        "ä¸ª"
      ],
      [
        "èį",
        "ī"
      ],
      [
        "é¥",
        "®"
      ],
      [
        "çģ",
        "«"
      ],
      [
        "èķ",
        "´"
      ],
      [
        "èĩ",
        "´"
      ],
      [
        "æĪĳ",
        "å¾Ī"
      ],
      [
        "ä»",
        "į"
      ],
      [
        "ä¸Ń",
        "ç«ĭ"
      ],
      [
        "éĤ£",
        "ä¹Ī"
      ],
      [
        "è½",
        "»"
      ],
      [
        "å¤",
        "±"
      ],
      [
        "ä¸ī",
        "ä¸ª"
      ],
      [
        "çİ",
        "©"
      ],
      [
        "æľĭ",
        "åıĭ"
      ],
      [
        "æµ",
        "ĭ"
      ],
      [
        "æ",
        "Ĳ"
      ],
      [
        "ç§ĳ",
        "æĬĢ"
      ],
      [
        "èµ",
        "°"
      ],
      [
        "çĽ",
        "´"
      ],
      [
        "æĸ¹",
        "å¼ı"
      ],
      [
        "èķ´",
        "åĲ«"
      ],
      [
        "çĽ",
        "¾"
      ],
      [
        "éĺ",
        "Ł"
      ],
      [
        "éĢļ",
        "è¿ĩ"
      ],
      [
        "å°",
        "Ķ"
      ],
      [
        "è¯",
        "¢"
      ],
      [
        "ä¾",
        "¿"
      ],
      [
        "æĬ½åıĸ",
        "åĩº"
      ],
      [
        "ä¼",
        "¼"
      ],
      [
        "çŁ",
        "Ľ"
      ],
      [
        "æĶ",
        "¶"
      ],
      [
        "æĭ",
        "¼"
      ],
      [
        "çŁĽ",
        "çĽ¾"
      ],
      [
        "è®",
        "¸"
      ],
      [
        "åĥ",
        "ı"
      ],
      [
        "åĴ",
        "ĸ"
      ],
      [
        "ç¥",
        "ŀ"
      ],
      [
        "æł",
        "ĳ"
      ],
      [
        "æĤ¨",
        "çļĦ"
      ],
      [
        "æĽ",
        "¿"
      ],
      [
        "å·",
        "´"
      ],
      [
        "çļĦ",
        "äºº"
      ],
      [
        "åº",
        "Ĺ"
      ],
      [
        "ä¼",
        "ĺ"
      ],
      [
        "æŀ",
        "Ĺ"
      ],
      [
        "èĩ",
        "³"
      ],
      [
        "åķ",
        "¡"
      ],
      [
        "åĨ",
        "·"
      ],
      [
        "åĴĸ",
        "åķ¡"
      ],
      [
        "åŃ",
        "£"
      ],
      [
        "ä½ł",
        "èĥ½"
      ],
      [
        "å",
        "Ħ"
      ],
      [
        "çłĶ",
        "ç©¶"
      ],
      [
        "ä»",
        "¤"
      ],
      [
        "çĭ",
        "¬"
      ],
      [
        "æ",
        "¹"
      ],
      [
        "æĪĲ",
        "è¯Ń"
      ],
      [
        "å¾Ī",
        "å¥½"
      ],
      [
        "é¦",
        "Ĩ"
      ],
      [
        "ï¼ģ",
        "<|"
      ],
      [
        "é¸",
        "Ł"
      ],
      [
        "è®¡",
        "åĪĴ"
      ],
      [
        "æĬ",
        "±"
      ],
      [
        "æŀ",
        "Ħ"
      ],
      [
        "è®¡",
        "ç®Ĺ"
      ],
      [
        "æŁ",
        "ĵ"
      ],
      [
        "æ²",
        "»"
      ],
      [
        "é",
        "²"
      ],
      [
        "æĸ¹",
        "éĿ¢"
      ],
      [
        "ç¦",
        "»"
      ],
      [
        "æ°",
        "ĳ"
      ],
      [
        "è",
        "Ľ"
      ],
      [
        "å°Ĩ",
        "åħ¶"
      ],
      [
        "å",
        "ł"
      ],
      [
        "æĪĸ",
        "èĢħ"
      ],
      [
        "æļ",
        "ĸ"
      ],
      [
        "ç",
        "ª"
      ],
      [
        "çļĦ",
        "æĸĩç«ł"
      ],
      [
        "é¢Ħ",
        "æĬ¥"
      ],
      [
        "å·",
        "ŀ"
      ],
      [
        "åĨ³",
        "å®ļ"
      ],
      [
        "è®",
        "²"
      ],
      [
        "è¿Ļ",
        "äºĽ"
      ],
      [
        "éĥ¨",
        "çĶµå½±"
      ],
      [
        "èī²",
        "çļĦ"
      ],
      [
        "æĸĩ",
        "ä¸Ń"
      ],
      [
        "ç",
        "¢"
      ],
      [
        "åĲ",
        "§"
      ],
      [
        "é",
        "±"
      ],
      [
        "ç±",
        "³"
      ],
      [
        "ãĢĤâĢĿ",
        "<|"
      ],
      [
        "çĲĨ",
        "è§£"
      ],
      [
        "æ´»",
        "åĬ¨"
      ],
      [
        "é±",
        "¼"
      ],
      [
        "å¿",
        "ħ"
      ],
      [
        "æĭ¼",
        "åĨĻ"
      ],
      [
        "å±",
        "ŀ"
      ],
      [
        "æĭ",
        "ī"
      ],
      [
        "å°ı",
        "è¯´"
      ],
      [
        "å¸",
        "ĥ"
      ],
      [
        "ä½",
        "İ"
      ],
      [
        "å¸Į",
        "æľĽ"
      ],
      [
        "åĲ",
        "Ħ"
      ],
      [
        "æĮ",
        "ī"
      ],
      [
        "ä¸ĭ",
        "åĪĹ"
      ],
      [
        "å",
        "¨"
      ],
      [
        "åĦ",
        "¿"
      ],
      [
        "å¤§",
        "çļĦ"
      ],
      [
        "ï¼",
        "ī"
      ],
      [
        "ä¿Ŀ",
        "æĬ¤"
      ],
      [
        "æľ",
        "Ĺ"
      ],
      [
        "2",
        "0"
      ],
      [
        "å½ĵçĦ¶",
        "åı¯ä»¥"
      ],
      [
        "çĻ",
        "¾"
      ],
      [
        "çŁŃ",
        "è¯Ń"
      ],
      [
        "è¾ĵ",
        "åĩº"
      ],
      [
        "å¢",
        "ŀ"
      ],
      [
        "èµ",
        "Ħ"
      ],
      [
        "æķħ",
        "äºĭ"
      ],
      [
        "ç»Ļå®ļ",
        "çļĦåı¥åŃĲ"
      ],
      [
        "åĬ",
        "ª"
      ],
      [
        "æĽ",
        "²"
      ],
      [
        "è¿",
        "ľ"
      ],
      [
        "ç§ĳ",
        "åŃ¦"
      ],
      [
        "ï¼",
        "Ī"
      ],
      [
        "æĹħ",
        "è¡Į"
      ],
      [
        "åĬª",
        "åĬĽ"
      ],
      [
        "æĸ¹",
        "æ³ķ"
      ],
      [
        "æ²",
        "³"
      ],
      [
        "éĻ",
        "¢"
      ],
      [
        "åı",
        "Ī"
      ],
      [
        "æĸĩ",
        "è¨Ģ"
      ],
      [
        "çļĦ",
        "çĶµå½±"
      ],
      [
        "1",
        "0"
      ],
      [
        "æĽ´",
        "å¤ļ"
      ],
      [
        "åıĳ",
        "çİ°"
      ],
      [
        "ç",
        "Ĩ"
      ],
      [
        "æĸĩè¨Ģ",
        "æĸĩ"
      ],
      [
        "æıĲ",
        "é«ĺ"
      ],
      [
        "è¯Ĺ",
        "æŃĮ"
      ],
      [
        "æ",
        "ĩ"
      ],
      [
        "çļĦ",
        "æłĩé¢ĺ"
      ],
      [
        "æĸĩ",
        "åŃĹ"
      ],
      [
        "ä»",
        "ĭ"
      ],
      [
        "åĨ",
        "Ľ"
      ],
      [
        "æ",
        "¥"
      ],
      [
        "é«ĺ",
        "åħ´"
      ],
      [
        "è¯Ńæ³ķ",
        "éĶĻè¯¯"
      ],
      [
        "çĬ",
        "¶"
      ],
      [
        "éĢ",
        "Ł"
      ],
      [
        "åģĩ",
        "è®¾"
      ],
      [
        "æľī",
        "ä»Ģä¹Ī"
      ],
      [
        "æī¾",
        "åĪ°"
      ],
      [
        "ä¿®",
        "æĶ¹"
      ],
      [
        "è¡",
        "£"
      ],
      [
        "éĻ",
        "©"
      ],
      [
        "åīį",
        "æıĲ"
      ],
      [
        "è¿Ĳ",
        "åĬ¨"
      ],
      [
        "è°",
        "ģ"
      ],
      [
        "å¤ª",
        "éĺ³"
      ],
      [
        "æľį",
        "åĬ¡"
      ],
      [
        "æĽ¿",
        "æį¢"
      ],
      [
        "äº",
        "ļ"
      ],
      [
        "è´",
        "Ł"
      ],
      [
        "éļı",
        "æĹ¶"
      ],
      [
        "ç®Ģ",
        "çŁŃ"
      ],
      [
        "ç",
        "ĳ"
      ],
      [
        "æ¸ħ",
        "æĻ"
      ],
      [
        "ä»»",
        "ä½ķ"
      ],
      [
        "æ¢",
        "¦"
      ],
      [
        "å¸",
        "Ī"
      ],
      [
        "è¶",
        "Ĭ"
      ],
      [
        "ç»",
        "¿"
      ],
      [
        "æ",
        "Ĵ"
      ],
      [
        "æ¦Ĥ",
        "æĭ¬"
      ],
      [
        "é",
        "¾"
      ],
      [
        "é£İ",
        "æł¼"
      ],
      [
        "çļĦ",
        "è¯Ń"
      ],
      [
        "å£",
        "«"
      ],
      [
        "ä¿Ŀ",
        "æĮģ"
      ],
      [
        "èĤ",
        "²"
      ],
      [
        "æĹ©",
        "ä¸Ĭ"
      ],
      [
        "çļĦ",
        "åºĶçĶ¨"
      ],
      [
        "æĸ",
        "½"
      ],
      [
        "è",
        "ĵ"
      ],
      [
        "åľ°",
        "çĲĥ"
      ],
      [
        "æĢ»",
        "ç»ĵ"
      ],
      [
        "éĻ",
        "¤"
      ],
      [
        "è§£",
        "åĨ³"
      ],
      [
        "æıĲä¾Ľ",
        "ä¸Ģä¸ª"
      ],
      [
        "çľĭ",
        "çĶµå½±"
      ],
      [
        "ç½",
        "®"
      ],
      [
        "ç»",
        "Ŀ"
      ],
      [
        "æŃ",
        "ī"
      ],
      [
        "åıĺ",
        "åĮĸ"
      ],
      [
        "åĪ",
        "Ļ"
      ],
      [
        "é¢ĺ",
        "çĽ®"
      ],
      [
        "æ±",
        "Ł"
      ],
      [
        "ç²",
        "¾"
      ],
      [
        "åŃ",
        "©"
      ],
      [
        "ä¸Ģ",
        "èµ·"
      ],
      [
        "å¾",
        "·"
      ],
      [
        "æİ¨",
        "çĲĨ"
      ],
      [
        "åĸ",
        "Ŀ"
      ],
      [
        "é¥",
        "Ń"
      ],
      [
        "ç»",
        "ĩ"
      ],
      [
        "Ġ",
        "åħ¶"
      ],
      [
        "é£Ł",
        "çī©"
      ],
      [
        "ä¸",
        "¾"
      ],
      [
        "ä¸į",
        "èĥ½"
      ],
      [
        "çĶ",
        "»"
      ],
      [
        "éħ",
        "Ĵ"
      ],
      [
        "éĩ",
        "Ĭ"
      ],
      [
        "æĿ",
        "¯"
      ],
      [
        "è®",
        "¨"
      ],
      [
        "æł",
        "¡"
      ],
      [
        "æ±",
        "¡"
      ],
      [
        "è¯·",
        "åĳĬè¯īæĪĳ"
      ],
      [
        "çı",
        "Ń"
      ],
      [
        "æĬ±",
        "æŃī"
      ],
      [
        "åį",
        "³"
      ],
      [
        "äº",
        "®"
      ],
      [
        "å·",
        "§"
      ],
      [
        "é¡",
        "º"
      ],
      [
        "æ®µ",
        "èĲ½"
      ],
      [
        "åį",
        "ĥ"
      ],
      [
        "è§",
        "Ħ"
      ],
      [
        "çķ",
        "ħ"
      ],
      [
        "åı",
        "°"
      ],
      [
        "é",
        "Ĩ"
      ],
      [
        "èµ·",
        "æĿ¥"
      ],
      [
        "çİ",
        "ĩ"
      ],
      [
        "çļĦ",
        "åľ°"
      ],
      [
        "åħ·",
        "æľī"
      ],
      [
        "ä»İ",
        "è¿Ļç¯ĩ"
      ],
      [
        "æĥħ",
        "åĨµ"
      ],
      [
        "åĩı",
        "å°ĳ"
      ],
      [
        "ç´",
        "ł"
      ],
      [
        "ä¸ª",
        "äºº"
      ],
      [
        "ä½¿åħ¶æĽ´åĬłç®Ģæ´ģ",
        "æĺİäºĨ"
      ],
      [
        "ç»",
        "į"
      ],
      [
        "æĪĳä»¬",
        "çļĦ"
      ],
      [
        "åħ",
        "Ī"
      ],
      [
        "èĦ",
        "ĳ"
      ],
      [
        "æ",
        "¤"
      ],
      [
        "æĪĲ",
        "åĬŁ"
      ],
      [
        "èĳ",
        "Ĺ"
      ],
      [
        "æ²",
        "Ļ"
      ],
      [
        "çİ°ä»£",
        "æĸĩ"
      ],
      [
        "æľ¬",
        "ä¹¦"
      ],
      [
        "å¼Ģ",
        "å§ĭ"
      ],
      [
        "å¯",
        "Ĵ"
      ],
      [
        "éĿ",
        "Ĵ"
      ],
      [
        "åĢ",
        "¼"
      ],
      [
        "è°",
        "ĥ"
      ],
      [
        "åĲį",
        "åŃĹ"
      ],
      [
        "æľĢé«ĺ",
        "çļĦ"
      ],
      [
        "è¯·",
        "ä½ł"
      ],
      [
        "ç¿»è¯ĳæĪĲ",
        "æĸĩè¨Ģæĸĩ"
      ],
      [
        "äºº",
        "ä»¬"
      ],
      [
        "ç©",
        "¿"
      ],
      [
        "è®¤",
        "ä¸º"
      ],
      [
        "ç¿»è¯ĳæĪĲ",
        "çİ°ä»£æĸĩ"
      ],
      [
        "è¿Ļ",
        "éĥ¨çĶµå½±"
      ],
      [
        "å½¢",
        "å®¹"
      ],
      [
        "ä¸ĭéĿ¢",
        "çļĦåı¥åŃĲ"
      ],
      [
        "æıĲåıĸ",
        "åĩº"
      ],
      [
        "åĨ",
        "°"
      ],
      [
        "æ±¡",
        "æŁĵ"
      ],
      [
        "åľ¨",
        "å®¶"
      ],
      [
        "æ¯",
        "į"
      ],
      [
        "ä¹ĭ",
        "éĹ´"
      ],
      [
        "æ¸ħæĻ",
        "°"
      ],
      [
        "ä¸į",
        "éĶĻ"
      ],
      [
        "éĺ",
        "ħ"
      ],
      [
        "å°",
        "Ŀ"
      ],
      [
        "æķ£",
        "æŃ¥"
      ],
      [
        "ç»Ħ",
        "ç»ĩ"
      ],
      [
        "æĶ",
        "¯"
      ],
      [
        "ä¸Ģ",
        "åı¥"
      ],
      [
        "æ¯ı",
        "å¤©"
      ],
      [
        "ä¸ĭ",
        "èģĶ"
      ],
      [
        "æĸĩæľ¬",
        "ä¸Ń"
      ],
      [
        "ç»ĵ",
        "æŀľ"
      ],
      [
        "è¾",
        "ĥ"
      ],
      [
        "åıĤ",
        "åĬł"
      ],
      [
        "éĻ",
        "į"
      ],
      [
        "é»",
        "ĳ"
      ],
      [
        "ç¼ĸ",
        "åĨĻ"
      ],
      [
        "çī",
        "Ľ"
      ],
      [
        "é",
        "¹"
      ],
      [
        "ä¸ŃçļĦ",
        "å®ŀä½ĵ"
      ],
      [
        "éĩ",
        "İ"
      ],
      [
        "æĿ",
        "¾"
      ],
      [
        "åħ³ç³»",
        "åĪ¤æĸŃ"
      ],
      [
        "ä¸Ńç«ĭ",
        "çŃĶæ¡Ī"
      ],
      [
        "æİ¨çĲĨ",
        "åħ³ç³»åĪ¤æĸŃ"
      ],
      [
        "A",
        "I"
      ],
      [
        "åį",
        "ĩ"
      ],
      [
        "æŁ",
        "Ĳ"
      ],
      [
        "æĹ¶",
        "åĢĻ"
      ],
      [
        "æŃ£",
        "éĿ¢"
      ],
      [
        "å¾",
        "®"
      ],
      [
        "å®ŀä½ĵ",
        "è¯ĨåĪ«"
      ],
      [
        "è®¸",
        "å¤ļ"
      ],
      [
        "è¿Ļ",
        "æĺ¯ä¸Ģ"
      ],
      [
        "å¤ļ",
        "å°ĳ"
      ],
      [
        "è½¬",
        "æį¢"
      ],
      [
        "å¾",
        "Ģ"
      ],
      [
        "è",
        "ħ"
      ],
      [
        "æĪ",
        "ı"
      ],
      [
        "æ°Ķ",
        "åĢĻ"
      ],
[...]
