{"<|endoftext|>":0,"<|im_start|>":1,"<|im_end|>":2,"!":3,"\"":4,"#":5,"$":6,"%":7,"&":8,"'":9,"(":10,")":11,"*":12,"+":13,",":14,"-":15,".":16,"/":17,"0":18,"1":19,"2":20,"3":21,"4":22,"5":23,"6":24,"7":25,"8":26,"9":27,":":28,";":29,"<":30,"=":31,">":32,"?":33,"@":34,"A":35,"B":36,"C":37,"D":38,"E":39,"F":40,"G":41,"H":42,"I":43,"J":44,"K":45,"L":46,"M":47,"N":48,"O":49,"P":50,"Q":51,"R":52,"S":53,"T":54,"U":55,"V":56,"W":57,"X":58,"Y":59,"Z":60,"[":61,"\\":62,"]":63,"^":64,"_":65,"`":66,"a":67,"b":68,"c":69,"d":70,"e":71,"f":72,"g":73,"h":74,"i":75,"j":76,"k":77,"l":78,"m":79,"n":80,"o":81,"p":82,"q":83,"r":84,"s":85,"t":86,"u":87,"v":88,"w":89,"x":90,"y":91,"z":92,"{":93,"|":94,"}":95,"~":96,"¡":97,"¢":98,"£":99,"¤":100,"¥":101,"¦":102,"§":103,"¨":104,"©":105,"ª":106,"«":107,"¬":108,"®":109,"¯":110,"°":111,"±":112,"²":113,"³":114,"´":115,"µ":116,"¶":117,"·":118,"¸":119,"¹":120,"º":121,"»":122,"¼":123,"½":124,"¾":125,"¿":126,"À":127,"Á":128,"Â":129,"Ã":130,"Ä":131,"Å":132,"Æ":133,"Ç":134,"È":135,"É":136,"Ê":137,"Ë":138,"Ì":139,"Í":140,"Î":141,"Ï":142,"Ð":143,"Ñ":144,"Ò":145,"Ó":146,"Ô":147,"Õ":148,"Ö":149,"×":150,"Ø":151,"Ù":152,"Ú":153,"Û":154,"Ü":155,"Ý":156,"Þ":157,"ß":158,"à":159,"á":160,"â":161,"ã":162,"ä":163,"å":164,"æ":165,"ç":166,"è":167,"é":168,"ê":169,"ë":170,"ì":171,"í":172,"î":173,"ï":174,"ð":175,"ñ":176,"ò":177,"ó":178,"ô":179,"õ":180,"ö":181,"÷":182,"ø":183,"ù":184,"ú":185,"û":186,"ü":187,"ý":188,"þ":189,"ÿ":190,"Ā":191,"ā":192,"Ă":193,"ă":194,"Ą":195,"ą":196,"Ć":197,"ć":198,"Ĉ":199,"ĉ":200,"Ċ":201,"ċ":202,"Č":203,"č":204,"Ď":205,"ď":206,"Đ":207,"đ":208,"Ē":209,"ē":210,"Ĕ":211,"ĕ":212,"Ė":213,"ė":214,"Ę":215,"ę":216,"Ě":217,"ě":218,"Ĝ":219,"ĝ":220,"Ğ":221,"ğ":222,"Ġ":223,"ġ":224,"Ģ":225,"ģ":226,"Ĥ":227,"ĥ":228,"Ħ":229,"ħ":230,"Ĩ":231,"ĩ":232,"Ī":233,"ī":234,"Ĭ":235,"ĭ":236,"Į":237,"į":238,"İ":239,"ı":240,"Ĳ":241,"ĳ":242,"Ĵ":243,"ĵ":244,"Ķ":245,"ķ":246,"ĸ":247,"Ĺ":248,"ĺ":249,"Ļ":250,"ļ":251,"Ľ":252,"ľ":253,"Ŀ":254,"ŀ":255,"Ł":256,"ł":257,"Ń":258,"ä¸":259,"ï¼":260,"ãĢ":261,"im":262,"<|":263,"|>":264,"ãĢĤ":265,"çļ":266,"çļĦ":267,"ï¼Į":268,"åı":269,"ä»":270,"è¯":271,"äº":272,"æľ":273,"æĪ":274,"ar":275,"en":276,"st":277,"star":278,"end":279,"start":280,"Ġ<|":281,"æĸ":282,"ä¸Ģ":283,"è¿":284,"å¤":285,"ä½":286,"æĺ":287,"åħ":288,"ãĢĤ<|":289,"å®":290,"åŃ":291,"ï¼ļ":292,"åĲ":293,"æĪĳ":294,"ä¹":295,"çĶ":296,"ä¸ª":297,"åĪ":298,"åľ":299,"ç»":300,"æĺ¯":301,"æĸĩ":302,"åı¥":303,"å°":304,"åĬ":305,"ä»¥":306,"åŃĲ":307,"åĨ":308,"ä¸ĭ":309,"åĽ":310,"æľī":311,"ä¸Ń":312,"åľ¨":313,"é¢":314,"è¿Ļ":315,"æĹ":316,"äºĨ":317,"å¥":318,"å¸":319,"éĹ":320,"ãĢģ":321,"ä¸º":322,"åı¥åŃĲ":323,"åĩ":324,"éĩ":325,"åĴ":326,"å¾":327,"å¤©":328,"è®":329,"æł":330,"ä¸Ģä¸ª":331,"æĪĲ":332,"åį":333,"æı":334,"äºº":335,"è¡":336,"ä¸į":337,"åĴĮ":338,"é¢ĺ":339,"ĥ½":340,"ï¼Ł":341,"âĢ":342,"æŃ":343,"æĿ":344,"æ°":345,"åº":346,"å½":347,"éĿ":348,"åİ":349,"å¹":350,"ä¼":351,"æī":352,"æľ¬":353,"æıĲ":354,"çĶŁ":355,"å·":356,"è¦":357,"åĩº":358,"ä»ĸ":359,"è¦ģ":360,"ç»Ļ":361,"æĥ":362,"ä½ł":363,"å¯":364,"éĢ":365,"æĽ":366,"æĢ":367,"æĦ":368,"ç§":369,"çĽ":370,"åĨĻ":371,"è¯·":372,"èĥ½":373,"ç«":374,"åĮ":375,"å¥½":376,"çİ":377,"æĬ":378,"æŀ":379,"çŃ":380,"çī":381,"éĹ®":382,"å¼":383,"ä»¥ä¸ĭ":384,"è¯į":385,"è¯Ń":386,"å®ļ":387,"æķ":388,"åħ¶":389,"ä¸Ĭ":390,"åı¯":391,"åĳ":392,"åĵ":393,"æĻ":394,"æĸĩæľ¬":395,"è§":396,"ç®":397,"æ³":398,"æĶ":399,"è¾":400,"æĽ´":401,"å¿":402,"è¡Į":403,"ä¾":404,"ä¿":405,"æ°Ķ":406,"æ¬":407,"åħ³":408,"çĶ¨":409,"äºİ":410,"æĤ":411,"æį":412,"å°Ĩ":413,"å¾Ī":414,"ä¹Ī":415,"èĢ":416,"éĶ":417,"ä»¬":418,"ç«ł":419,"åĪ°":420,"æµ":421,"æ²":422,"åĸ":423,"æĸĩç«ł":424,"æĸ°":425,"çľ":426,"é£":427,"éĩį":428,"æĭ":429,"ä½¿":430,"èµ":431,"çĲ":432,"æ´":433,"åİ»":434,"æĿ¥":435,"éĿ¢":436,"æľĢ":437,"æİ":438,"ä½ĵ":439,"çº":440,"æ¸":441,"å±":442,"çŁ":443,"æĹ¶":444,"å¦":445,"âĢĿ":446,"æĤ¨":447,"å¯¹":448,"å¤§":449,"èĩ":450,"ä¼ļ":451,"åıĸ":452,"éĹ®é¢ĺ":453,"åŃ¦":454,"æĺİ":455,"åı¯ä»¥":456,"è°":457,"åľ°":458,"ç»Ļå®ļ":459,"æ¯":460,"âĢľ":461,"æ±":462,"ç±":463,"åĲį":464,"æį®":465,"ä»Ģ":466,"éľ":467,"çĶŁæĪĲ":468,"ä»Ģä¹Ī":469,"çŃĶ":470,"åĸľ":471,"çĶµ":472,"è¯Ŀ":473,"è´":474,"çĦ":475,"åĬ¨":476,"æĥħ":477,"å¸¸":478,"è¿Ļä¸ª":479,"æ³ķ":480,"æ¬¢":481,"åģ":482,"å¦Ĥ":483,"çĤ":484,"æŃ£":485,"åĬł":486,"ä¾Ľ":487,"æĮ":488,"åĽ½":489,"ç®Ģ":490,"ä»¥ä¸ĭåı¥åŃĲ":491,"å½±":492,"å®ŀ":493,"çī©":494,"çĦ¶":495,"ä½ľ":496,"æıĲä¾Ľ":497,"æĦŁ":498,"åŁ":499,"è¿Ľ":500,"å¤ļ":501,"éĻ":502,"å®¶":503,"åĪĨ":504,"è½":505,"ä¸»":506,"æł¹":507,"éģ":508,"èģ":509,"å·¥":510,"æłĩ":511,"å¤©æ°Ķ":512,"åĸľæ¬¢":513,"ç±»":514,"ç¯":515,"éĺ":516,"å¹¶":517,"æł¹æį®":518,"æīĢ":519,"éľĢ":520,"é«":521,"çİ°":522,"é¦":523,"åĲĮ":524,"é«ĺ":525,"ç¾":526,"æĶ¹":527,"çĽ¸":528,"åĽł":529,"æĦı":530,"èĩª":531,"åī":532,"æ¡":533,"ç¯ĩ":534,"èī":535,"å°ı":536,"åįķ":537,"äºĽ":538,"èĬ":539,"ä¹ī":540,"è¶":541,"æŀľ":542,"ä¸ŃçļĦ":543,"éĩĮ":544,"çľĭ":545,"æģ":546,"éĿŀ":547,"éĤ":548,"åıĳ":549,"ä»İ":550,"éĽ":551,"éĶĻ":552,"è¯Ĺ":553,"å®ĥ":554,"éľĢè¦ģ":555,"é¡":556,"æ²¡":557,"åħ¬":558,"æĸ¹":559,"æĥ³":560,"ä½Ĩ":561,"è¡¨":562,"çĤ¹":563,"æĹł":564,"å¾Ĺ":565,"ç¾İ":566,"å¸®":567,"æĪĸ":568,"çļĦåı¥åŃĲ":569,"çĶµå½±":570,"å¥½çļĦ":571,"å½ĵ":572,"ç©":573,"åĽŀ":574,"è¿Ľè¡Į":575,"è¿ĩ":576,"éĿŀå¸¸":577,"è¿°":578,"ä½¿åħ¶":579,"è¨":580,"ç¬":581,"åĬĽ":582,"ç¿":583,"ä»Ĭ":584,"åŃĹ":585,"ä¹ĭ":586,"çķ":587,"ï¼Ł<|":588,"ç¼":589,"æĪĳä»¬":590,"å¹´":591,"è·":592,"è¨Ģ":593,"çĲĨ":594,"æŁ":595,"è¿ĺ":596,"åĵª":597,"åĢ":598,"åı¥è¯Ŀ":599,"æ®":600,"å¥¹":601,"èĭ":602,"æķ°":603,"æıĲåıĸ":604,"æľº":605,"åĲĹ":606,"æłĩé¢ĺ":607,"ï¼ģ":608,"æ¡Ī":609,"åºĶ":610,"ç»ı":611,"éļ":612,"å®ŀä½ĵ":613,"å¸Ĥ":614,"å»":615,"å¿ĥ":616,"çĭ":617,"é£İ":618,"èī²":619,"æĹ¥":620,"èĲ":621,"ä¸¤":622,"ç³":623,"éķ":624,"åīį":625,"äºĭ":626,"çŃī":627,"æ²¡æľī":628,"åº¦":629,"çĸ":630,"è§£":631,"éĹ´":632,"æĻº":633,"ä¸ī":634,"ä½¿åħ¶æĽ´":635,"éĥ":636,"ä¿Ŀ":637,"çĪ":638,"å¼Ģ":639,"ä¿¡":640,"çĲĥ":641,"åĪ«":642,"éĤ£":643,"ä½ķ":644,"èį":645,"æ°´":646,"è°¢":647,"è¯´":648,"æ®µ":649,"éģĵ":650,"ç§į":651,"éĩįåĨĻ":652,"è¢":653,"éĥ½":654,"æĢ§":655,"åĵģ":656,"çĿ":657,"è¯¥":658,"åįķè¯į":659,"æĻºèĥ½":660,"æµ·":661,"åŀ":662,"çŃĶæ¡Ī":663,"åĲİ":664,"å¤ª":665,"æ´ģ":666,"å»º":667,"åĳĬ":668,"æ¯Ķ":669,"ä¸ĭéĿ¢":670,"çĥ":671,"åĮħ":672,"åĮĸ":673,"æ¶":674,"éķ¿":675,"ä¹¦":676,"çĶŁæĪĲä¸Ģä¸ª":677,"ä»Ĭå¤©":678,"ç¿»":679,"åĲĪ":680,"èµ·":681,"å±±":682,"åħ¥":683,"æ·":684,"çĻ":685,"ç»Ļå®ļçļĦ":686,"ç¡":687,"ç®Ģæ´ģ":688,"èĤ":689,"è¯ĳ":690,"ä»£":691,"ãĢĤâĢĿ":692,"ç¿»è¯ĳ":693,"åķ":694,"ç¨":695,"å°½":696,"æģ¯":697,"åĲ«":698,"èģĶ":699,"ç´":700,"é¦ĸ":701,"ç¤":702,"åħ·":703,"ä¸İ":704,"åĽłä¸º":705,"ç¯ĩæĸĩç«ł":706,"åĲĥ":707,"ç½":708,"çŁŃ":709,"åı¤":710,"ä¹ł":711,"çĽ®":712,"åıĺ":713,"åĿ":714,"å®¹":715,"è¾¾":716,"è¯¯":717,"åŁİ":718,"è¢«":719,"éĥ¨":720,"æŀģ":721,"èĻ":722,"æĬĢ":723,"çŁ¥":724,"ä¹Ĳ":725,"ç¼ĸ":726,"æĢĿ":727,"æıı":728,"é£Ł":729,"ç¡®":730,"ä¸ĸ":731,"åĽŀçŃĶ":732,"å¢":733,"éĢī":734,"æĸŃ":735,"äººå·¥":736,"æ¸¸":737,"åħ³äºİ":738,"éĶĻè¯¯":739,"ä»»":740,"å§":741,"äººå·¥æĻºèĥ½":742,"é¤":743,"èĢħ":744,"åħ¨":745,"çĮ":746,"å¼ı":747,"ç¥":748,"è®©":749,"é¤Ĳ":750,"æ±Ĥ":751,"æİ¨":752,"åĪĹ":753,"ä¸»é¢ĺ":754,"æııè¿°":755,"åĨħ":756,"ä¸ļ":757,"éĢļ":758,"ç³»":759,"èĪ":760,"æ»":761,"èĢĮ":762,"éĶ®":763,"ç»Ļåĩº":764,"è®º":765,"ä½į":766,"é»":767,"ä¸¤ä¸ª":768,"è®®":769,"åŀĭ":770,"éŁ":771,"ä¿¡æģ¯":772,"èĬ±":773,"è¾ĵ":774,"çĶ±":775,"åħ³éĶ®":776,"åĬ©":777,"è®¡":778,"æľĪ":779,"æ¼":780,"ç§ĳ":781,"è¯ī":782,"æĺ¯ä»Ģä¹Ī":783,"é¥":784,"é©":785,"å¤Ħ":786,"æĺ¯ä¸Ģ":787,"ä»¶":788,"æŃĮ":789,"ä¹Ł":790,"æĺŁ":791,"åıª":792,"å£":793,"é¡¹":794,"åĳĬè¯ī":795,"çĿĢ":796,"çģ":797,"ç»ĵ":798,"åŃ¦ä¹ł":799,"åŃĺ":800,"æŃ¥":801,"è¿ĳ":802,"ç®¡":803,"çĹ":804,"åĬ¡":805,"çī¹":806,"åİŁ":807,"å®Į":808,"çķĮ":809,"æĭ¬":810,"çİ¯":811,"çĪ±":812,"è½¦":813,"æµģ":814,"æ¸ħ":815,"ä¸ĢäºĽ":816,"ä½¿åħ¶æĽ´åĬł":817,"å°±":818,"æľª":819,"æ´»":820,"åľº":821,"å·²":822,"åĲ¦":823,"å°ĳ":824,"åģ¥":825,"å½¢":826,"äºĶ":827,"è¿Ļç¯ĩæĸĩç«ł":828,"ç¿»è¯ĳæĪĲ":829,"çĭĹ":830,"é¸":831,"æĻļ":832,"æĢ»":833,"æīĢæľī":834,"çł":835,"åĳĬè¯īæĪĳ":836,"ä¸ŃæıĲåıĸ":837,"åĨ³":838,"åı¸":839,"åĮĹ":840,"ä¹īè¯į":841,"æĥħæĦŁ":842,"æĳ":843,"åĪĽ":844,"ä½¿çĶ¨":845,"æ¨":846,"æĶ¹åĨĻ":847,"æł¼":848,"éĽ¨":849,"è¯Ĩ":850,"æĬ¥":851,"ç©º":852,"éĴ":853,"ä¹°":854,"éĢĤ":855,"ç»Ħ":856,"æī¾":857,"ç¨ĭ":858,"èİ":859,"éĹ»":860,"æĹħ":861,"ä»ĸä»¬":862,"ãĢĤ\"":863,"æĮģ":864,"èº":865,"é¢Ĩ":866,"å¿«":867,"è¥":868,"ä¸ĸçķĮ":869,"åĽŃ":870,"ä¸Ģä¸ĭ":871,"è¯ķ":872,"åŁİå¸Ĥ":873,"ãĢĤ\\":874,"éĺ³":875,"æĻ¯":876,"åĪ¤":877,"èĲ½":878,"è¯·éĹ®":879,"è¯Ħ":880,"æīĭ":881,"ä¸ŃåĽ½":882,"ä½łçļĦ":883,"æľ¯":884,"åįģ":885,"éŁ³":886,"å¦Ĥæŀľ":887,"æ¶Ī":888,"åŃĺåľ¨":889,"ãĢĭ":890,"ãĢĬ":891,"æĮĩ":892,"å¦Ĥä½ķ":893,"è¥¿":894,"åģļ":895,"æľŁ":896,"æŃ¤":897,"æ¯ı":898,"ç¦":899,"ï¼ļâĢľ":900,"æĬĬ":901,"å¸®åĬ©":902,"äº§":903,"æļ":904,"éħ":905,"èº«":906,"äº¬":907,"ä¸Ģåı¥è¯Ŀ":908,"è¡¨è¾¾":909,"åĪĨç±»":910,"èı":911,"ç»ĻæĪĳ":912,"çľŁ":913,"é¢Ħ":914,"è¯Ńæ³ķ":915,"è¿Ļåı¥è¯Ŀ":916,"å¤ĸ":917,"æĺ¨":918,"åıį":919,"åĪ¤æĸŃ":920,"åı·":921,"åħ¬åı¸":922,"æ£":923,"æł·":924,"è¯Ńè¨Ģ":925,"è¯»":926,"çļĦå¤©æ°Ķ":927,"éĩı":928,"èĬĤ":929,"å¹³":930,"æį¢":931,"äºĨä¸Ģ":932,"èĦ":933,"çı":934,"ç«ĭ":935,"äºĮ":936,"èĥ":937,"éĩĳ":938,"åħ´":939,"åĻ":940,"æĪĳçļĦ":941,"ç§ĭ":942,"åıĹ":943,"åĮ»":944,"æĸ°éĹ»":945,"æĶ¾":946,"æ¢":947,"åŁŁ":948,"çİ°åľ¨":949,"æ¸©":950,"åħī":951,"éĩįæĸ°":952,"æŁ¥":953,"ç§¯":954,"å±ķ":955,"æĺĵ":956,"çº¢":957,"åº·":958,"åħ³éĶ®è¯į":959,"æ¨¡":960,"è¦ģæ±Ĥ":961,"ç»Ń":962,"è±":963,"å·¥ä½ľ":964,"æĹłæ³ķ":965,"å¸®æĪĳ":966,"åºĶçĶ¨":967,"è®¾":968,"æĺ¯åĲ¦":969,"å»ºè®®":970,"çĮ«":971,"ç¬¬":972,"è¶£":973,"åĻ¨":974,"æĹ©":975,"çº¦":976,"åĪ©":977,"è½¬":978,"éĩįåĨĻä»¥ä¸ĭåı¥åŃĲ":979,"æĹ¶éĹ´":980,"å°½ç®¡":981,"æľį":982,"åı£":983,"æĺ¥":984,"çĬ":985,"æĺ¯ä¸Ģä¸ª":986,"åİĨ":987,"è¿ĺæĺ¯":988,"å½ĵçĦ¶":989,"æº":990,"ç®Ĺ":991,"äº¤":992,"çļĦéĹ®é¢ĺ":993,"é¢ĨåŁŁ":994,"åģ¥åº·":995,"åıĭ":996,"åĳ¨":997,"å¢ĥ":998,"åĪ¶":999,"åĳ¢":1000,"éª":1001,"åı²":1002,"åħ¶ä»ĸ":1003,"éļı":1004,"æŃ£åľ¨":1005,"åı¤è¯Ĺ":1006,"æĢģ":1007,"ä¿®":1008,"çĥŃ":1009,"çĶ±äºİ":1010,"çĻ½":1011,"åĲ¬":1012,"è¾ĵåħ¥":1013,"æĪĳåĸľæ¬¢":1014,"åĶ":1015,"æľĽ":1016,"ĊĊ":1017,"åĮħæĭ¬":1018,"å²":1019,"éĹ¨":1020,"åĢĻ":1021,"å®¢":1022,"ç§°":1023,"å§ĭ":1024,"åĨħå®¹":1025,"åĮĹäº¬":1026,"æĦıæĢĿ":1027,"æīĵ":1028,"åĽĽ":1029,"æĺİå¤©":1030,"å®ī":1031,"æ¬¡":1032,"éļ¾":1033,"å³":1034,"çħ":1035,"ä½¿åħ¶æĽ´åĬłç®Ģæ´ģ":1036,"å¼ł":1037,"çĽ¸åĲĮ":1038,"è§ģ":1039,"åıĬ":1040,"åĬ¨çī©":1041,"å¤ı":1042,"è¾ĳ":1043,"èķ":1044,"æĺİäºĨ":1045,"ä¸Ģæ®µ":1046,"åĩł":1047,"èĢĥ":1048,"é©¬":1049,"çİĭ":1050,"æĺ¨å¤©":1051,"èµĽ":1052,"åı¯èĥ½":1053,"èĢģ":1054,"æĬ½":1055,"æĿ¡":1056,"è§Ĥ":1057,"çĹħ":1058,"æķħ":1059,"åĲĳ":1060,"æ·±":1061,"éĵ":1062,"å¤´":1063,"åĨį":1064,"ä¸ľ":1065,"ç§¯æŀģ":1066,"åħ·ä½ĵ":1067,"æł¹æį®ç»Ļå®ļçļĦ":1068,"ä¸Ģç¯ĩ":1069,"åĪ°äºĨ":1070,"è¿Ĳ":1071,"åĮº":1072,"èıľ":1073,"åºı":1074,"èĭ±":1075,"åİ»äºĨ":1076,"åĵį":1077,"å¤į":1078,"ç²":1079,"çŁ¥éģĵ":1080,"èĮ":1081,"è·ĳ":1082,"å·²ç»ı":1083,"æĢİ":1084,"ä¸Ģé¦ĸ":1085,"å°Ĩä»¥ä¸ĭåı¥åŃĲ":1086,"è§ī":1087,"\"<|":1088,"æĪ·":1089,"ä»·":1090,"æīį":1091,"æ¦":1092,"åģĩ":1093,"æĬĢæľ¯":1094,"åĳ³":1095,"è·¯":1096,"åĵªäºĽ":1097,"èĩªçĦ¶":1098,"Â·":1099,"åĬŁ":1100,"å®ĥä»¬":1101,"ç¤º":1102,"æİĴ":1103,"å·±":1104,"éĢīé¡¹":1105,"çĸĹ":1106,"å¤Ł":1107,"è°¢è°¢":1108,"å³°":1109,"çºł":1110,"ç¼ĸè¾ĳ":1111,"å®ĮæĪĲ":1112,"æĬ½åıĸ":1113,"ä»½":1114,"äºĳ":1115,"æĪĳæĥ³":1116,"è¯ĨåĪ«":1117,"åİħ":1118,"åħ¬åĽŃ":1119,"åįĹ":1120,"ä»¥ä¸ĭæĸĩæľ¬":1121,"é¦Ļ":1122,"é£ŀ":1123,"åĳĺ":1124,"æĪĳä¼ļ":1125,"èįĲ":1126,"åħĭ":1127,"åįİ":1128,"ç»Ł":1129,"èĳ":1130,"çĽ¸åħ³":1131,"éĢł":1132,"ä¾ĭ":1133,"ä¸Ģä¸ªåı¥åŃĲ":1134,"è¿Ļä¸ªåı¥åŃĲ":1135,"å¸¦":1136,"åĳ½":1137,"æľĢè¿ĳ":1138,"æŃ£ç¡®":1139,"äººåĲį":1140,"çīĩ":1141,"æĸ¯":1142,"æ»¡":1143,"èĩªå·±":1144,"èĻ½":1145,"ä¸ĩ":1146,"å¤ľ":1147,"åħ³ç³»":1148,"æİ¨èįĲ":1149,"è£":1150,"æĳĺ":1151,"çħ§":1152,"æľªæĿ¥":1153,"åıĤ":1154,"æķ´":1155,"åĲĮä¹īè¯į":1156,"èģĬ":1157,"è®¤":1158,"åķĨ":1159,"å¼ķ":1160,"åĪĴ":1161,"é¤Ĳåİħ":1162,"æĸĩç«łä¸ŃæıĲåıĸ":1163,"å½±åĵį":1164,"æīĢä»¥":1165,"å¡":1166,"æĿİ":1167,"ä»ĸçļĦ":1168,"å¯¼":1169,"éĩįè¦ģ":1170,"ä¸įåŃĺåľ¨":1171,"ä¸ĬæľĢ":1172,"æĦŁåĪ°":1173,"ä¼ł":1174,"åĮħåĲ«":1175,"æ¦Ĥ":1176,"æķĻ":1177,"åı¶":1178,"è¶³":1179,"èĭ¹":1180,"éŁ³ä¹Ĳ":1181,"è¯·æıĲä¾Ľ":1182,"æİ¥":1183,"æ¼Ķ":1184,"è¯Ħè®º":1185,"ä¸įåŃĺåľ¨å®ŀä½ĵ":1186,"çİ°ä»£":1187,"èĭ¹æŀľ":1188,"æľīè¶£":1189,"ä¸¤ä¸ªåı¥åŃĲ":1190,"åĩĨ":1191,"æĢİä¹Ī":1192,"è´¨":1193,"æīĢæľīçļĦ":1194,"ä¸ºæĤ¨":1195,"åıĳå±ķ":1196,"ç¤¾":1197,"æŀĲ":1198,"å¹¿":1199,"æľºåĻ¨":1200,"æĽ´åĬł":1201,"è´Ń":1202,"æĪĺ":1203,"ç¬ĳ":1204,"åĨµ":1205,"åħ¨çĲĥ":1206,"è§Ĩ":1207,"ä¸»è¦ģ":1208,"æĬ¤":1209,"åĭ":1210,"æĶ¿":1211,"æľĭ":1212,"ç¾İåĽ½":1213,"ä¸½":1214,"æķ£":1215,"è±¡":1216,"ä¸ºä»Ģä¹Ī":1217,"åħĥ":1218,"è¶ħ":1219,"çİ¯å¢ĥ":1220,"åĥ":1221,"äººç±»":1222,"å¥³":1223,"çĶŁæ´»":1224,"è¾¹":1225,"ç´¢":1226,"æĪ¿":1227,"åĨĻä¸Ģä¸ª":1228,"æºĲ":1229,"åĩı":1230,"ä»»åĬ¡":1231,"å£°":1232,"èĻ½çĦ¶":1233,"åĽ¾":1234,"çļĦæĸĩæľ¬":1235,"æİ¢":1236,"åĵªä¸ª":1237,"åĪĨæŀĲ":1238,"æķ°æį®":1239,"æħ":1240,"åĲįç§°":1241,"æĪĳå¾Ī":1242,"æľĭåıĭ":1243,"çģ«":1244,"ç®Ģåįķ":1245,"æĪĲè¯Ń":1246,"ç½ĳ":1247,"èĥ½å¤Ł":1248,"åİĨåı²":1249,"çİ¯ä¿Ŀ":1250,"ä¸įåĲĮ":1251,"è®°":1252,"æĬ½åıĸåĩº":1253,"æĸ°çļĦ":1254,"åĨ·":1255,"å¸Į":1256,"æĪĳä¸į":1257,"åºĶè¯¥":1258,"æ¯ĶèµĽ":1259,"æĪĳåı¯ä»¥":1260,"æĭ©":1261,"å¼º":1262,"ç¬¦":1263,"æķĪ":1264,"ç±»åŀĭ":1265,"ä»į":1266,"è¿ĺæľī":1267,"é»Ħ":1268,"èµ°":1269,"ï¼ģ<|":1270,"ä¸Ķ":1271,"åĦ":1272,"æŀĹ":1273,"æĸĩè¨Ģ":1274,"æĸĩè¨Ģæĸĩ":1275,"å¤±":1276,"ä¼¼":1277,"ä»¤":1278,"éĢīæĭ©":1279,"çļĦäºº":1280,"åĨ³å®ļ":1281,"æ¨¡åŀĭ":1282,"ç»Ĩ":1283,"é¸Ł":1284,"å¾Īå¤ļ":1285,"éĤ£ä¹Ī":1286,"èįī":1287,"çİ©":1288,"ä¸īä¸ª":1289,"åł":1290,"ä¸ĸçķĮä¸ĬæľĢ":1291,"äº§åĵģ":1292,"åŁº":1293,"æĳĺè¦ģ":1294,"çĭ¬":1295,"åħ±":1296,"ç¥ŀ":1297,"ç»ŃåĨĻ":1298,"çĽ´":1299,"ä»İæĸĩç«łä¸ŃæıĲåıĸ":1300,"åºĹ":1301,"å·´":1302,"ä½Ĩæĺ¯":1303,"æĭ¼":1304,"åĴĸ":1305,"æľīåħ³":1306,"èĩ³":1307,"å¾Īå¥½":1308,"å°Ĩåħ¶":1309,"å°Ķ":1310,"æłĳ":1311,"åķ¡":1312,"çłĶ":1313,"æĽ¿":1314,"åĮ»çĸĹ":1315,"åĴĸåķ¡":1316,"çª":1317,"èĩ´":1318,"èİ·":1319,"è¯¢":1320,"çļĦæĸĩç«ł":1321,"è½»":1322,"ä¾¿":1323,"ä¸ĭåĪĹ":1324,"æĶ¶":1325,"è®¡åĪĴ":1326,"å¤ĩ":1327,"æĲ":1328,"æ²³":1329,"æĹħæ¸¸":1330,"åıĪ":1331,"é¦Ĩ":1332,"èķ´":1333,"æĸĻ":1334,"ç©¶":1335,"æĸ¹å¼ı":1336,"æ¹":1337,"åĬª":1338,"ä¸Ńç«ĭ":1339,"çĽ¾":1340,"çļĦè¯Ń":1341,"çŁŃè¯Ń":1342,"åĬªåĬĽ":1343,"åĦ¿":1344,"å±ŀ":1345,"å·ŀ":1346,"ç§ĳæĬĢ":1347,"é¢ĺçĽ®":1348,"çŁĽ":1349,"éĺŁ":1350,"é²":1351,"é«ĺçļĦ":1352,"çŁĽçĽ¾":1353,"ä¼ĺ":1354,"æĭī":1355,"å¤§çļĦ":1356,"é¥®":1357,"æĤ¨çļĦ":1358,"ä¿®æĶ¹":1359,"èķ´åĲ«":1360,"ç»Ļå®ļçļĦåı¥åŃĲ":1361,"èĽ":1362,"éĢļè¿ĩ":1363,"çĻ¾":1364,"çļĦä¿¡æģ¯":1365,"æĽ²":1366,"ä¸ĭèģĶ":1367,"æµĭ":1368,"æ³¨":1369,"é«ĺåħ´":1370,"åŃ£":1371,"è°ģ":1372,"éĥ¨çĶµå½±":1373,"å¿ħ":1374,"ç¢":1375,"æĬ±":1376,"æļĸ":1377,"é±":1378,"æŀĦ":1379,"æ¥":1380,"è®¸":1381,"é±¼":1382,"æ²»":1383,"è®²":1384,"æĭ¼åĨĻ":1385,"ç¿»è¯ĳæĪĲæĸĩè¨Ģæĸĩ":1386,"æĮī":1387,"è¾ĵåĩº":1388,"æĸĩä¸Ń":1389,"æ°ĳ":1390,"çĲĨè§£":1391,"éļıæĹ¶":1392,"åĨĽ":1393,"çİ°ä»£æĸĩ":1394,"å¸ĮæľĽ":1395,"ç±³":1396,"åĥı":1397,"åĲ§":1398,"è®¡ç®Ĺ":1399,"æľĹ":1400,"å¸ĥ":1401,"ç¿»è¯ĳæĪĲçİ°ä»£æĸĩ":1402,"æĹħè¡Į":1403,"æĸĩç«łä¸Ń":1404,"ç¦»":1405,"è¿ľ":1406,"é¾":1407,"æŁĵ":1408,"ç»Ŀ":1409,"æ´»åĬ¨":1410,"æ¢¦":1411,"çĨ":1412,"è¡£":1413,"è¶Ĭ":1414,"è¯Ńæ³ķéĶĻè¯¯":1415,"èī²çļĦ":1416,"å¨":1417,"å½ĵçĦ¶åı¯ä»¥":1418,"ç®ĢçŁŃ":1419,"ãĢĤâĢĿ<|":1420,"å°ıè¯´":1421,"çļĦæłĩé¢ĺ":1422,"æ±Ł":1423,"æĸĩåŃĹ":1424,"Ġåħ¶":1425,"è¿ĻäºĽ":1426,"çĶ»":1427,"é£İæł¼":1428,"æĴ":1429,"åĲĦ":1430,"æĩ":1431,"éĻ¢":1432,"å£«":1433,"åįĥ":1434,"æķħäºĭ":1435,"æĸ¹éĿ¢":1436,"æĽ¿æį¢":1437,"éĢŁ":1438,"æī¾åĪ°":1439,"20":1440,"æıĲä¾Ľä¸Ģä¸ª":1441,"ç§ĳåŃ¦":1442,"æľīä»Ģä¹Ī":1443,"è¿ĲåĬ¨":1444,"å¯Ĵ":1445,"æĸ¹æ³ķ":1446,"è¯ŃæĢģ":1447,"è¡¨è¾¾äºĨ":1448,"ï¼ī":1449,"èĵ":1450,"çıŃ":1451,"çĳ":1452,"æ¸ħæĻ":1453,"ä½¿åħ¶æĽ´åĬłç®Ģæ´ģæĺİäºĨ":1454,"åĬ¨è¯ŃæĢģ":1455,"å¾·":1456,"ä½łèĥ½":1457,"å¤ªéĺ³":1458,"é¥Ń":1459,"å¸Ī":1460,"çłĶç©¶":1461,"éħĴ":1462,"çĬ¶":1463,"åĸĿ":1464,"10":1465,"äºļ":1466,"éĻ¤":1467,"ï¼Ī":1468,"ä¸įèĥ½":1469,"æľįåĬ¡":1470,"è§£åĨ³":1471,"èĤ²":1472,"çľĭçĶµå½±":1473,"åĪĻ":1474,"è´Ł":1475,"æĪĸèĢħ":1476,"ä¸ĭéĿ¢çļĦåı¥åŃĲ":1477,"çļĦçĶµå½±":1478,"é¡º":1479,"åħĪ":1480,"ä½İ":1481,"å¢ŀ":1482,"äº®":1483,"ç»¿":1484,"ä½łå¥½":1485,"é¢ĦæĬ¥":1486,"ç»ĩ":1487,"éĻ©":1488,"ä¿ĿæĬ¤":1489,"éĨ":1490,"æĪĲåĬŁ":1491,"è¯ĹæŃĮ":1492,"ä»»ä½ķ":1493,"æľ¬ä¹¦":1494,"åį³":1495,"åģĩè®¾":1496,"ä¸¾":1497,"åıĸæ¶Ī":1498,"ä¿ĿæĮģ":1499,"ç²¾":1500,"åīįæıĲ":1501,"æĽ´å¤ļ":1502,"å½¢å®¹":1503,"èĳĹ":1504,"ä¸Ģèµ·":1505,"æıĲé«ĺ":1506,"æĥħåĨµ":1507,"çļĦåľ°":1508,"éĩĬ":1509,"è¯·åĳĬè¯īæĪĳ":1510,"æ¦Ĥæĭ¬":1511,"éĿĴ":1512,"åŃ©":1513,"ä¸ŃçļĦå®ŀä½ĵ":1514,"æĹ©ä¸Ĭ":1515,"é»ĳ":1516,"ç´ł":1517,"èµĦ":1518,"é¹":1519,"åı°":1520,"é£Łçī©":1521,"è®¤ä¸º":1522,"åľ¨å®¶":1523,"æ®µèĲ½":1524,"åıĺåĮĸ":1525,"ç»ĵæŀľ":1526,"ç©¿":1527,"éĩİ":1528,"æŃī":1529,"ä¸Ģåı¥":1530,"æł¡":1531,"åĨ°":1532,"è®¨":1533,"æĿ¯":1534,"èħ":1535,"ç½®":1536,"èµ·æĿ¥":1537,"æĢ»ç»ĵ":1538,"åĩºå¤Ħ":1539,"ç¼ĸåĨĻ":1540,"åıĳçİ°":1541,"åĲįåŃĹ":1542,"è¿Ļéĥ¨çĶµå½±":1543,"è½¬æį¢":1544,"æľĿ":1545,"æ²Ļ":1546,"å¼Ģå§ĭ":1547,"æķ£æŃ¥":1548,"åħ·æľī":1549,"è§Ħ":1550,"åıĤåĬł":1551,"ä»ĭ":1552,"è¯·ä½ł":1553,"éĤ®":1554,"ä¸Ńæĸĩ":1555,"åľ°çĲĥ":1556,"æĹ¶åĢĻ":1557,"å®ŀä½ĵè¯ĨåĪ«":1558,"å°Ĩä»¥ä¸ĭ":1559,"âĢĿãĢĤ":1560,"è·ĳæŃ¥":1561,"ä¸įéĶĻ":1562,"å·§":1563,"çķħ":1564,"æİ¨çĲĨ":1565,"æĪĲè¯Ńåĩºå¤Ħ":1566,"æĬ±æŃī":1567,"æ¤":1568,"æ¯į":1569,"ä¸ĬèģĶ":1570,"äººçļĦ":1571,"æ¸ħæĻ°":1572,"å¾®":1573,"ä¸įæĺ¯":1574,"å½Ĵ":1575,"ç»Ħç»ĩ":1576,"å¤ļå°ĳ":1577,"çĶ±äºİå¤©æ°Ķ":1578,"éĢģ":1579,"çİĩ":1580,"åįĩ":1581,"èĦĳ":1582,"åıįä¹īè¯į":1583,"çļĦåįķè¯į":1584,"æīįèĥ½":1585,"æĸ½":1586,"çŁ³":1587,"æŃ£éĿ¢":1588,"å±ŀäºİ":1589,"å¾Ģ":1590,"éĺħ":1591,"æ±¡":1592,"æµİ":1593,"è¿Ļæ®µ":1594,"æ³³":1595,"è°ĥ":1596,"æŁĲ":1597,"ä¸ĭéĽ¨":1598,"å¾ħ":1599,"çºłéĶĻ":1600,"äº«":1601,"å¤©çļĦ":1602,"æĶ¯":1603,"åĢ¼":1604,"åĩıå°ĳ":1605,"çīĽ":1606,"æĪĳä»¬çļĦ":1607,"åįĪ":1608,"æ´²":1609,"æ½":1610,"ä¹ĭéĹ´":1611,"åĿļ":1612,"ä¸Ģç¯ĩæĸĩç«ł":1613,"è¿Ļæĺ¯ä¸Ģ":1614,"ç»į":1615,"æ¯ıå¤©":1616,"çľ¼":1617,"äººä»¬":1618,"éĻį":1619,"æ°ĶåĢĻ":1620,"å°ıæĺİ":1621,"åĲįè¯į":1622,"æĿ¾":1623,"éĿĻ":1624,"éªĮ":1625,"æ¬¾":1626,"åħ³ç³»åĪ¤æĸŃ":1627,"ä¸Ńç«ĭçŃĶæ¡Ī":1628,"æİ¨çĲĨåħ³ç³»åĪ¤æĸŃ":1629,"è¿Ļä¸ªéĹ®é¢ĺ":1630,"èĪŀ":1631,"å¿Ļ":1632,"æ¸¸æ³³":1633,"å°Ŀ":1634,"æĸĩæľ¬ä¸Ń":1635,"çļĦåºĶçĶ¨":1636,"ç»Ļåĩºä¸Ģä¸ª":1637,"è¯·éĹ®æĤ¨":1638,"æ±¡æŁĵ":1639,"ç»Ļå®ļä¸Ģä¸ª":1640,"åĵªéĩĮ":1641,"æĪı":1642,"èĥľ":1643,"çłģ":1644,"è®¸å¤ļ":1645,"åº§":1646,"æĪĲä¸º":1647,"ä»įçĦ¶":1648,"åĸĦ":1649,"AI":1650,"çĤİ":1651,"éģĩ":1652,"èĵĿ":1653,"è¿İ":1654,"å°¼":1655,"æ±ī":1656,"çĸ«":1657,"æĸĩåĮĸ":1658,"ä¸Ĭæµ·":1659,"å±ħ":1660,"èº«ä½ĵ":1661,"é¼":1662,"è¿Ļæĺ¯ä¸Ģä¸ª":1663,"è§Ĵ":1664,"çĦ¶åĲİ":1665,"ä»İè¿Ļç¯ĩæĸĩç«ł":1666,"æ°´æŀľ":1667,"åĨĻè¯Ĺ":1668,"ä½Ĩä»ĸ":1669,"æľºåĻ¨åŃ¦ä¹ł":1670,"éĺħè¯»":1671,"è¯įè¯Ń":1672,"å®³":1673,"è®©æĪĳ":1674,"éĥ½æĺ¯":1675,"åħŃ":1676,"åī§":1677,"æ©":1678,"æ£Ģ":1679,"è¾ĥ":1680,"çº¿":1681,"èĻĳ":1682,"çĵ":1683,"èĽĭ":1684,"åĲ¸":1685,"éĢĤåĲĪ":1686,"è¿Ļå®¶":1687,"åºľ":1688,"é«ĺçļĦå±±":1689,"ä¸Ģç»Ħ":1690,"æ¿":1691,"æ¶Īæŀģ":1692,"æľ«":1693,"å¿µ":1694,"ï¼Ľ":1695,"ä¼ļè®®":1696,"å¯¼èĩ´":1697,"èĩªå·±çļĦ":1698,"å®ĺ":1699,"ç¾İä¸½":1700,"åħ¶ä¸Ń":1701,"å®ĥçļĦ":1702,"å½¢å¼ı":1703,"ç¬¬ä¸Ģ":1704,"åħ»":1705,"æ±½":1706,"çĿ¡":1707,"å¦Ĥæŀľä½ł":1708,"ä»ĭç»į":1709,"è¿ŀ":1710,"åħħ":1711,"æĦıä¹ī":1712,"æģ¶":1713,"çķĻ":1714,"éĴ±":1715,"ç¦ı":1716,"æĵ":1717,"ä¸ªäºº":1718,"çĶ¨ä¸Ģåı¥è¯Ŀ":1719,"æķ°åŃĹ":1720,"ä¼¤":1721,"åĲ«ä¹ī":1722,"ä½³":1723,"åľ°çĤ¹":1724,"é¡»":1725,"å¤ĦçĲĨ":1726,"æĻļä¸Ĭ":1727,"ç»Ī":1728,"æĻ´":1729,"èģĮ":1730,"éĽª":1731,"æīĭæľº":1732,"ä»¥åıĬ":1733,"æľĢåĸľæ¬¢":1734,"éĻĪ":1735,"ç»ĥ":1736,"ä¸Ģåıª":1737,"ä¸Ģä»½":1738,"æ£Ĵ":1739,"èŀ":1740,"åĬŀ":1741,"æ»©":1742,"å¯»":1743,"æ±ĩ":1744,"çºłæŃ£":1745,"é¢ľ":1746,"ä¹°äºĨ":1747,"ä¸Ģç§į":1748,"ç«Ļ":1749,"æĪĳéľĢè¦ģ":1750,"çļĦé£İæł¼":1751,"ç»ıæµİ":1752,"åŃ¦çĶŁ":1753,"éĽĨ":1754,"é¥®é£Ł":1755,"ç¤¼":1756,"ä¹ĭä¸Ģ":1757,"èĲ¥":1758,"ä¸¤ä¸ªåı¥åŃĲæĺ¯åĲ¦":1759,"æĮīçħ§":1760,"çĶ¨æĪ·":1761,"çļĦæĦıæĢĿ":1762,"å¯Ĩ":1763,"éĶĢ":1764,"æł¹æį®ä»¥ä¸ĭ":1765,"åħ«":1766,"åĬ¿":1767,"æµģçķħ":1768,"çļĦè¯Ńä¹ī":1769,"éĤ®ä»¶":1770,"ç¨ĭåºı":1771,"çīĮ":1772,"äºĨè§£":1773,"éĺ³åħī":1774,"çļĦä¸»é¢ĺ":1775,"ç»ª":1776,"éĻħ":1777,"ä¸ĥ":1778,"æĥĬ":1779,"åĽ½å®¶":1780,"è¿Ļæĺ¯":1781,"å¥ĩ":1782,"æ±½è½¦":1783,"çİĽ":1784,"èĤī":1785,"èĶ":1786,"ç´¯":1787,"éº":1788,"ä¹Ŀ":1789,"æĪĳæĹłæ³ķ":1790,"é«ĺçļĦå±±å³°":1791,"äº²":1792,"åĵĪ":1793,"æĬĬè¿Ļåı¥è¯Ŀ":1794,"è´ŁéĿ¢":1795,"çĶ·":1796,"ä½ľä¸º":1797,"æĪĳåľ¨":1798,"æ·»":1799,"ç¥¨":1800,"å½©":1801,"çº½":1802,"åĨĻä¸Ģä¸ªæłĩé¢ĺ":1803,"__":1804,"çļĦäºĭ":1805,"éĺ²":1806,"çıł":1807,"èŀį":1808,"å¯Į":1809,"èĢĥè¯ķ":1810,"è¿½":1811,"é¸¡":1812,"éĴŁ":1813,"æİª":1814,"çĶŁæĪĲä¸Ģé¦ĸ":1815,"æ´ĭ":1816,"æ¼«":1817,"æĭ¥":1818,"èĲ¨":1819,"å¹²":1820,"æĦŁè°¢":1821,"è¿ĺæľīåħ¶ä»ĸ":1822,"é¾Ļ":1823,"çĸĳ":1824,"æĬ¥éģĵ":1825,"åĩī":1826,"åĪ¤æĸŃä¸ĭéĿ¢":1827,"ç¤¾ä¼ļ":1828,"æµª":1829,"æľ¨":1830,"åĽ°":1831,"çº½çº¦":1832,"åĪĿ":1833,"çĽ¸åĲĮçļĦè¯Ńä¹ī":1834,"å®¤":1835,"åĪļ":1836,"ä¾ĭå¦Ĥ":1837,"è¿Ļæľ¬ä¹¦":1838,"ä»İæĸĩç«łä¸ŃæıĲåıĸåĩº":1839,"ä¸įå¥½":1840,"æĪĳæĺ¨å¤©":1841,"å¸Ŀ":1842,"å¦ĤæŀľæĤ¨":1843,"æĪĳä»Ĭå¤©":1844,"ç»ıå¸¸":1845,"ç½Ĺ":1846,"åı¤è¯ĹçĶŁæĪĲ":1847,"è¡¨è¾¾äºĨçĽ¸åĲĮçļĦè¯Ńä¹ī":1848,"ä¸¤ä¸ªåı¥åŃĲæĺ¯åĲ¦è¡¨è¾¾äºĨçĽ¸åĲĮçļĦè¯Ńä¹ī":1849,"åĪ¤æĸŃä¸ĭéĿ¢ä¸¤ä¸ªåı¥åŃĲæĺ¯åĲ¦è¡¨è¾¾äºĨçĽ¸åĲĮçļĦè¯Ńä¹ī":1850,"ĥåľ":1851,"æĶ¹åĨĻä¸º":1852,"æ¸©åº¦":1853,"è¯·æıĲåıĸ":1854,"æŃ£ç¡®çļĦ":1855,"çĤ¼":1856,"æĮĳ":1857,"åŀĥåľ":1858,"åĪĽå»º":1859,"åŀĥåľ¾":1860,"éŃ":1861,"æİ¢ç´¢":1862,"éĻĲ":1863,"æĩĤ":1864,"ä¼ģ":1865,"åį´":1866,"æĿĲ":1867,"å¥¶":1868,"ä»Ĭå¤©å¤©æ°Ķ":1869,"äº¤éĢļ":1870,"ä»İè¿Ļç¯ĩæĸĩç«łä¸ŃæıĲåıĸ":1871,"æł¹æį®æıĲä¾Ľ":1872,"åħ¶ä¸ŃçļĦ":1873,"æĸĩä¸ŃæīĢæľīçļĦ":1874,"æ³¢":1875,"åŃ¦æł¡":1876,"æĬ½åıĸåĩºæĸĩä¸ŃæīĢæľīçļĦ":1877,"æĬ½åıĸåĩºæĸĩä¸ŃæīĢæľīçļĦå®ŀä½ĵ":1878,"çĸ¾":1879,"åª":1880,"æŁ¥è¯¢":1881,"èīº":1882,"è¢«åĬ¨è¯ŃæĢģ":1883,"åİŁåĽł":1884,"å¿«ä¹Ĳ":1885,"ä¸įçĶ¨":1886,"æ°Ķæ¸©":1887,"å°Ĩä¸ĭéĿ¢":1888,"è´¹":1889,"ãĢĤ'":1890,"å¥¹çļĦ":1891,"åħ·ä½ĵçļĦ":1892,"æĥ³è¦ģ":1893,"æĺ¯ä¸Ģç§į":1894,"åĽ´":1895,"æıĲåĪ°":1896,"çŃĸ":1897,"ç³ķ":1898,"æ¥¼":1899,"ç»´":1900,"æķĻèĤ²":1901,"èľ":1902,"æŃĮæĽ²":1903,"ä¸ĭåĪĹåı¥åŃĲ":1904,"æĺ¾":1905,"æĭ¼åĨĻéĶĻè¯¯":1906,"çļĦå½±åĵį":1907,"éĩĩ":1908,"åķĬ":1909,"éĢĤå½ĵ":1910,"âĢĶ":1911,"åĽłæŃ¤":1912,"éĶĻåĪ«":1913,"çĩ":1914,"åįļ":1915,"çľĭåĪ°":1916,"å²ģ":1917,"éĶĻåĪ«åŃĹ":1918,"è¯¦":1919,"éĺ¿":1920,"æ°ĶåĢĻåıĺåĮĸ":1921,"åĨł":1922,"æ¸¸æĪı":1923,"å®¢æ°Ķ":1924,"åŃ¤":1925,"æĸĩæľ¬éĶĻè¯¯":1926,"çĶµè§Ĩ":1927,"ç®Ģæ´ģæĺİäºĨ":1928,"èĳĹåĲį":1929,"å°ģ":1930,"ä¸ĬçļĦ":1931,"åıĳçĶŁ":1932,"è°¢è°¢ä½łçļĦ":1933,"ç¬ĳè¯Ŀ":1934,"æĪĲä¸Ģä¸ª":1935,"çº§":1936,"çļĦè¯Ńè¨Ģ":1937,"å¥¥":1938,"æĺĵäºİ":1939,"åĿĲ":1940,"åŃĺåľ¨åĵªäºĽ":1941,"çīĪ":1942,"åı¤è¯Ĺç»ŃåĨĻ":1943,"åŃĺåľ¨åĵªäºĽå®ŀä½ĵ":1944,"æĦī":1945,"æĶ¹åıĺ":1946,"äºĶè¨Ģ":1947,"æ¹ĸ":1948,"å°Ŀè¯ķ":1949,"çľŁçļĦ":1950,"æĢ»æĺ¯":1951,"ç¡®å®ļ":1952,"å¯¹èģĶ":1953,"ä½įäºİ":1954,"è½¬æį¢ä¸º":1955,"ç¹":1956,"çľģ":1957,"ç»Ļå®ļçļĦæĸĩæľ¬":1958,"åİŁå§ĭ":1959,"æĸĩä¸ŃçļĦå®ŀä½ĵ":1960,"çĽ®åīį":1961,"å¤ıå¤©":1962,"æłĩçĤ¹":1963,"æķ°åŃ¦":1964,"è´Ńçī©":1965,"èİ·å¾Ĺ":1966,"å®Ŀ":1967,"è¡¨çİ°":1968,"èĿ":1969,"çĽĽ":1970,"å®£":1971,"ä»ĸå¾Ī":1972,"æĸ°éĹ»æłĩé¢ĺ":1973,"ç®ĢçŁŃçļĦ":1974,"æ¿Ģ":1975,"ï¼ļ'":1976,"é¡¹çĽ®":1977,"åĶ±":1978,"å½¢å®¹è¯į":1979,"ç¬¦åı·":1980,"èĹ":1981,"ä¼Ĺ":1982,"æĥħç»ª":1983,"ç»ŃåĨĻåı¤è¯Ĺ":1984,"ä¸´":1985,"çĨĬ":1986,"åĬ¨è¯į":1987,"éħį":1988,"Ġ\"":1989,"ä¹ħ":1990,"åħ¸":1991,"è£ħ":1992,"è¶³çĲĥ":1993,"ä»·æł¼":1994,"ä¸ĸçķĮä¸ĬæľĢé«ĺçļĦå±±å³°":1995,"æŃ»":1996,"ç¾İåĳ³":1997,"åĿļæĮģ":1998,"ä½ı":1999,"å¯¹äºİ":2000,"ç¼º":2001,"æİªæĸ½":2002,"è¿Ł":2003,"å¼łä¸ī":2004,"æ¤į":2005,"çĶµåŃĲ":2006,"åĳ¨æľ«":2007,"çļĦä¸»è¦ģ":2008,"äºī":2009,"çł´":2010,"æĥħæĦŁåĪĨæŀĲ":2011,"åį°":2012,"æ£ĢæŁ¥":2013,"çĪ±æĥħ":2014,"æĮĳæĪĺ":2015,"çļĦæľĢ":2016,"äºĨä¸Ģä¸ª":2017,"éĿŀå¸¸å¥½":2018,"è®¡ç®Ĺæľº":2019,"æĶ¹åĨĻæĪĲ":2020,"æ·»åĬł":2021,"åĲĪå¹¶":2022,"æīĢåľ¨":2023,"å¿ħé¡»":2024,"åħį":2025,"èĥ½åĬĽ":2026,"æĦŁè§ī":2027,"è¯·ä¸º":2028,"çĹĩ":2029,"éĶ»":2030,"çĶµèĦĳ":2031,"ç±»åĪ«":2032,"åºŃ":2033,"çİī":2034,"æĻ®":2035,"äºĭä»¶":2036,"åĲĪéĢĤ":2037,"èĭ±æĸĩ":2038,"åĩĨç¡®":2039,"åĽ¢":2040,"åĿĩ":2041,"èĪª":2042,"å¤«":2043,"æ¶ĪæŀģçŃĶæ¡Ī":2044,"éĶ»çĤ¼":2045,"è¯ģ":2046,"ä½łåı¯ä»¥":2047,"è¿Ľè¡ĮæĶ¹åĨĻ":2048,"ç¹ģ":2049,"åįĬ":2050,"ä¸įä¼ļ":2051,"æĽ¾":2052,"æ¼Ĥ":2053,"è¯¦ç»Ĩ":2054,"ä½ĨæĪĳ":2055,"æľīè¶£çļĦ":2056,"ç»§":2057,"å¸Ĥåľº":2058,"åı«":2059,"æłĩçĤ¹ç¬¦åı·":2060,"ä¸ĵ":2061,"è¯įæ±ĩ":2062,"ä¾Ŀ":2063,"ä¸ľè¥¿":2064,"çĸ¾çĹħ":2065,"å¾ģ":2066,"è·³":2067,"æĿĤ":2068,"åĩºçİ°":2069,"è§īå¾Ĺ":2070,"æĲľ":2071,"çļĦä¸Ģ":2072,"ä»¿":2073,"æĶ¿åºľ":2074,"èŃ":2075,"ç»Ļå®ļä¸Ģä¸ªåı¥åŃĲ":2076,"æ¬¢è¿İ":2077,"æĺĵäºİçĲĨè§£":2078,"åĪĹè¡¨":2079,"é£ĺ":2080,"åĩĨå¤ĩ":2081,"åĲĽ":2082,"åĸľæ¬¢åĲĥ":2083,"çĽ¸åıį":2084,"åį¡":2085,"çĽ¸åħ³çļĦ":2086,"ç©Ĩ":2087,"ä½ľèĢħ":2088,"ç³»ç»Ł":2089,"å¾ĭ":2090,"å¹»":2091,"æĬ«":2092,"éĹ®åı¥":2093,"èĮĥ":2094,"åĪ»":2095,"æ°ı":2096,"çŃīçŃī":2097,"èķī":2098,"åĨ¬":2099,"é¢ľèī²":2100,"å¹¸":2101,"æĪĳä¼ļå°½":2102,"ä¸Ģæ®µæĸĩæľ¬":2103,"é¤ĲåİħçļĦ":2104,"åİĭ":2105,"åİŁåı¥":2106,"ä¹°äºĨä¸Ģ":2107,"00":2108,"ï¼ŁâĢĿ":2109,"æĢ»ç»Ł":2110,"åĤ":2111,"åľŁ":2112,"è§£éĩĬ":2113,"æĶ¹ä¸º":2114,"èĩªåĬ¨":2115,"å®īåħ¨":2116,"åıĮ":2117,"è¯Ĭ":2118,"äºĴ":2119,"è¶ħå¸Ĥ":2120,"æĪĳæ²¡æľī":2121,"è´µ":2122,"åĪĽä½ľ":2123,"çļĦå¤©æ°Ķé¢ĦæĬ¥":2124,"é¡¿":2125,"æĺ¨æĻļ":2126,"çĸ²":2127,"å°±æĺ¯":2128,"æĳĦ":2129,"éĨĴ":2130,"å¼Ĥ":2131,"æĸĩç«łä¸ŃçļĦ":2132,"é»İ":2133,"é¦Ļèķī":2134,"èĥ½æºĲ":2135,"èģª":2136,"åĽłä¸ºå¤©æ°Ķ":2137,"çļĦæĺ¯":2138,"è·Ł":2139,"åĹ":2140,"èĸ":2141,"èī¯":2142,"éĤ£ä¸ª":2143,"èĶ¬":2144,"æĦ¿":2145,"éĵ¶":2146,"è´¨éĩı":2147,"çĽĬ":2148,"ç¬Ķ":2149,"ä»¥ä¾¿":2150,"ä»¤äºº":2151,"å·®":2152,"ç¼ĸç¨ĭ":2153,"çģµ":2154,"éĵģ":2155,"å©":2156,"çĥŁ":2157,"åľ°åĮº":2158,"æ°¸":2159,"èģĬå¤©":2160,"çļĦçŃĶæ¡Ī":2161,"å¸¦æĿ¥":2162,"å¼ĢæĶ¾":2163,"åħ¬åı¸çļĦ":2164,"ç¾İé£Ł":2165,"è¯Ħä»·":2166,"ç¼ĸè¾ĳä»¥ä¸ĭåı¥åŃĲ":2167,"è¡£æľį":2168,"åģľ":2169,"æĺŁæľŁ":2170,"æī¾åĩº":2171,"æĬķ":2172,"åĩłä¸ª":2173,"åŃ©åŃĲ":2174,"ä¹¡":2175,"ä¼¦":2176,"å·¦":2177,"ãĢĤ\"<|":2178,"åĲ¹":2179,"æĿĳ":2180,"ç§ĺ":2181,"èģļ":2182,"åĢĭ":2183,"å¨ģ":2184,"æĸĩæľ¬ä¸ŃçļĦ":2185,"æĽ´æŃ£":2186,"åĪĹåĩº":2187,"å°ļ":2188,"æĤ¨åı¯ä»¥":2189,"è¿ĩåİ»":2190,"éĩįæĸ°ç¼ĸåĨĻ":2191,"çŁ¥è¯Ĩ":2192,"èĩªçĦ¶è¯Ńè¨Ģ":2193,"æŃ¦":2194,"å¿ĺ":2195,"å°ıæĹ¶":2196,"èĴ":2197,"è¿Ļé¦ĸ":2198,"è¡Ĺ":2199,"æĺĵæĩĤ":2200,"åĶ®":2201,"æł¹æį®ç»Ļå®ļçļĦæĸĩæľ¬":2202,"èĭ±è¯Ń":2203,"èĶ¬èıľ":2204,"ä¸ĢçĽ´":2205,"åıĺæļĸ":2206,"ç»ĻæĪĳä¸Ģä¸ª":2207,"åħ´è¶£":2208,"åľ¨åħ¬åĽŃ":2209,"é²ľ":2210,"æ¼Ĥäº®":2211,"çļĦæĹ¶åĢĻ":2212,"æŃ¢":2213,"åĨľ":2214,"æĹ¥æľŁ":2215,"ä½įç½®":2216,"çļĦåŁİå¸Ĥ":2217,"åĵ¦":2218,"ä»£çłģ":2219,"çıłç©Ĩ":2220,"çıłç©ĨæľĹ":2221,"å½ķ":2222,"çĻ»":2223,"èģªæĺİ":2224,"æĹ¥æľ¬":2225,"èĪĴ":2226,"éĩĳèŀį":2227,"éĩįæĸ°åĨĻ":2228,"çİĽå³°":2229,"çıłç©ĨæľĹçİĽå³°":2230,"é¢ĳ":2231,"å¯¹æĸĩæľ¬éĶĻè¯¯":2232,"æĬ¥åĳĬ":2233,"çªģ":2234,"å¯¹æĸĩæľ¬éĶĻè¯¯è¿Ľè¡Į":2235,"ç¥Ŀ":2236,"åĪ¶ä½ľ":2237,"èª":2238,"åı¤ä»£":2239,"æĸ°éĹ»æĬ¥éģĵ":2240,"è®¢":2241,"èĢĥèĻĳ":2242,"åľ¨å®¶éĩĮ":2243,"çī¹å®ļ":2244,"è§ĤçĤ¹":2245,"åģ¥èº«":2246,"è´Ńä¹°":2247,"è½¯":2248,"æĹ¨":2249,"ç§Ģ":2250,"è¯Ŀé¢ĺ":2251,"è´¥":2252,"çī¹åĪ«":2253,"å®ľ":2254,"æ¯Ķå¦Ĥ":2255,"åĪĽå»ºä¸Ģä¸ª":2256,"åĵģçīĮ":2257,"æĶ¹æŃ£":2258,"èĭ¦":2259,"..":2260,"ä¸Ńå¿ĥ":2261,"åı¦":2262,"ä½Ļ":2263,"åħµ":2264,"åĬ£":2265,"ä¸ºä»¥ä¸ĭ":2266,"å¤§åĪ©":2267,"å®ŀçİ°":2268,"éĥ¨åĪĨ":2269,"æĪĳåİ»":2270,"æĺ¯çļĦ":2271,"æ¨¡ä»¿":2272,"è°¢è°¢ä½ł":2273,"ä¸įåĲĮçļĦ":2274,"è¯¾":2275,"è¿Ļæł·":2276,"æĲľç´¢":2277,"çĶľ":2278,"èį¯":2279,"è®¨è®º":2280,"æĭ¿":2281,"æĤ¨éľĢè¦ģ":2282,"æ¯Ľ":2283,"åĪĺ":2284,"æħ¢":2285,"å®«":2286,"æľīå¾Īå¤ļ":2287,"å¿Ĺ":2288,"æł¹æį®è¾ĵåħ¥":2289,"ä¼ģä¸ļ":2290,"çļĩ":2291,"è¶ħè¿ĩ":2292,"å·´é»İ":2293,"çªĹ":2294,"è¡ĮæĺŁ":2295,"æĤ²":2296,"äº«åıĹ":2297,"ï¼ļãĢĬ":2298,"å¥ĭ":2299,"éĿŀå¸¸æĦŁè°¢":2300,"æĭĶ":2301,"æľĢåĸľæ¬¢çļĦ":2302,"è©":2303,"âĢĿãĢĤ<|":2304,"ç©ºæ°Ķ":2305,"æĢİä¹Īæł·":2306,"ç®Ģæĺİ":2307,"ç³ĸ":2308,"ä¸¥":2309,"åĪĩ":2310,"ä¼ĳ":2311,"æ¯Ĵ":2312,"ç¬¬äºĮ":2313,"æĬ«èĲ¨":2314,"è¸":2315,"åı³":2316,"æİĴåĪĹ":2317,"åħ¨çĲĥåıĺæļĸ":2318,"ä¸ºæĤ¨æıĲä¾Ľ":2319,"å°Ĩä»¥ä¸ĭæĸĩæľ¬":2320,"çĽ®æłĩ":2321,"é©¾":2322,"æĹ§":2323,"æµ·æ´ĭ":2324,"è®ºæĸĩ":2325,"æĻ¯çĤ¹":2326,"æĮĩå®ļ":2327,"è¯ĬæĸŃ":2328,"ä¸ºä¸Ģç¯ĩ":2329,"æ²¹":2330,"æ´¾":2331,"æ¯Ķè¾ĥ":2332,"åħ°":2333,"éĽħ":2334,"çļĦä¸»":2335,"å¥ĸ":2336,"çŃ¾":2337,"èĮ¶":2338,"åĨĴ":2339,"æľīåĵªäºĽ":2340,"çĽĳ":2341,"çĪ¶":2342,"æ©Ļ":2343,"æķĳ":2344,"å½ĵåľ°":2345,"é¡ºåºı":2346,"è¦ģåİ»":2347,"ä½¿å¾Ĺ":2348,"è°·":2349,"ä¹ĭéĹ´çļĦ":2350,"æľīæķĪ":2351,"åıĸæ¶ĪäºĨ":2352,"å¯¹ä»¥ä¸ĭåı¥åŃĲ":2353,"éĻĦ":2354,"å½ĵåīį":2355,"åĮ»çĶŁ":2356,"çļĦåħ³éĶ®è¯į":2357,"ä¸ĢæĿ¡":2358,"è´£":2359,"éĩįåĨĻä¸º":2360,"ä»Ĭå¤©çļĦå¤©æ°Ķ":2361,"å¹¿åĳĬ":2362,"æģ¶åĬ£":2363,"è¿Ķ":2364,"åĳ¼":2365,"ä»ĸä»¬çļĦ":2366,"æ³¨æĦı":2367,"å¢ŀåĬł":2368,"æĬ½åıĸåĩºæĸĩä¸ŃæīĢæľīçļĦå®ŀä½ĵä¸įåŃĺåľ¨å®ŀä½ĵ":2369,"å±Ģ":2370,"ç»Ŀåı¥":2371,"æĪĳæŃ£åľ¨":2372,"åĩ»":2373,"æıĲåıĸåĩº":2374,"æµ·æ»©":2375,"çĸ«æĥħ":2376,"éĢļå¸¸":2377,"çĹĽ":2378,"è¿·":2379,"åĪĽæĦı":2380,"å´":2381,"æľīä¸Ģä¸ª":2382,"äºĶä¸ª":2383,"çŃĳ":2384,"æİ§":2385,"è°ĵ":2386,"ç¯®":2387,"åı£åı·":2388,"æĪ¿éĹ´":2389,"ä»ĸåľ¨":2390,"çĤİçĥŃ":2391,"æĪĳå°Ĩ":2392,"è¿ĻéĩĮ":2393,"éľ²":2394,"çĶŁæĪĲä¸Ģä¸ªæłĩé¢ĺ":2395,"ï¼ļ\"":2396,"æŀĿ":2397,"ç±į":2398,"éľĢæ±Ĥ":2399,"èĭı":2400,"ç®¡çĲĨ":2401,"æĦīå¿«":2402,"çļĦéĩįè¦ģ":2403,"å¤©ç©º":2404,"çĶ¨äºİ":2405,"æ¸Ĳ":2406,"åľºæĻ¯":2407,"åĪĽéĢł":2408,"è®¾è®¡":2409,"æ·ĭ":2410,"ä¸Ģæ¬¡":2411,"ä¹³":2412,"ä¸ºç»Ļå®ļçļĦ":2413,"å¤§åŃ¦":2414,"é¢Ħæµĭ":2415,"ä¸°":2416,"è¯·éļıæĹ¶":2417,"æĸĩæľ¬çºłéĶĻ":2418,"æĽ´å¥½":2419,"æ¯ıä¸ª":2420,"åĭĩ":2421,"GP":2422,"æĪĳéĿŀå¸¸":2423,"åıĺå¾Ĺ":2424,"å®Įæķ´":2425,"åĺ":2426,"æıĲåĩº":2427,"èīºæľ¯":2428,"è¿Ļç§į":2429,"çºª":2430,"çģ¾":2431,"å®Ī":2432,"åĸ»":2433,"æľºåĻ¨äºº":2434,"éĩİé¤Ĳ":2435,"éĢĤå½ĵçļĦ":2436,"GPT":2437,"æĺ¯åĵª":2438,"å¹¶ä¸Ķ":2439,"åħĭåĬĽ":2440,"å·§åħĭåĬĽ":2441,"ä¸ĭæĿ¥":2442,"æ¬²":2443,"ä»Ĺ":2444,"æģĲ":2445,"ç»ĵæŀĦ":2446,"åĶĲ":2447,"åį«":2448,"æĽ´ç®Ģæ´ģ":2449,"è¯¥åı¥åŃĲ":2450,"æĺ¯å¤ļå°ĳ":2451,"çĶŁåĳ½":2452,"å·¨":2453,"èĩªçĶ±":2454,"æĭ¥æľī":2455,"Ġ-":2456,"æĢĢ":2457,"æľĢé«ĺ":2458,"ç¾¤":2459,"ç»§ç»Ń":2460,"éŀ":2461,"ä¸Ģå®ļ":2462,"æĽ°":2463,"æ³Ľ":2464,"æĮģç»Ń":2465,"éĻĪè¿°":2466,"æ±ł":2467,"éģį":2468,"åºķ":2469,"å®¹æĺĵ":2470,"ä¸įå®¢æ°Ķ":2471,"ç±»åŀĭçļĦ":2472,"ä»İè¿Ļç¯ĩæĸĩç«łä¸ŃæıĲåıĸåĩº":2473,"æĺ¯åľ¨":2474,"çĽ¸ä¼¼":2475,"å°ıçĭĹ":2476,"è§£çŃĶ":2477,"èģĶç³»":2478,"ç´§":2479,"æ¢ħ":2480,"å°½ç®¡ä»ĸ":2481,"è®Ń":2482,"é£Łåĵģ":2483,"äººå·¥æĻºèĥ½åľ¨":2484,"åĳ½åĲį":2485,"æĺł":2486,"åĽŀå®¶":2487,"åŃĹæ¯į":2488,"ä¼´":2489,"æļ´":2490,"å°½ç®¡å¤©æ°Ķ":2491,"çļĦé¦ĸ":2492,"ä¸ĭåįĪ":2493,"éĹŃ":2494,"è¾Ĩ":2495,"çķ¥":2496,"é©¶":2497,"è¯¢éĹ®":2498,"çļĦåĲĮä¹īè¯į":2499,"ä¸Ģæľ¬":2500,"æĢ§çļĦ":2501,"å¡Ķ":2502,"éĸ":2503,"è¡ĮåĬ¨":2504,"åİ»åħ¬åĽŃ":2505,"åĲ¸å¼ķ":2506,"æ²ī":2507,"éĩįè¿°":2508,"éľĢè¦ģæĪĳ":2509,"äº§çĶŁ":2510,"ä¸Ģä½į":2511,"å¿Ĩ":2512,"ä¸ĭéĿ¢è¿Ļä¸ªåı¥åŃĲ":2513,"ç§ĳå¹»":2514,"åĪº":2515,"ç¿°":2516,"è¦ģæ±Ĥå¯¹":2517,"è¿Ļç¯ĩ":2518,"åŁºäºİ":2519,"æ²»çĸĹ":2520,"æĬĢå·§":2521,"åı¯çĪ±":2522,"æ¬§":2523,"ç§ĳåŃ¦å®¶":2524,"å®Ĺ":2525,"çĥĪ":2526,"åĬ³":2527,"å¤©æ°Ķé¢ĦæĬ¥":2528,"å¾ĹåĪ°":2529,"å¸®æĤ¨":2530,"çīĽå¥¶":2531,"æľĢå¤§çļĦ":2532,"äººå·¥æĻºèĥ½çļĦ":2533,"æĪĳåĸľæ¬¢åĲĥ":2534,"éĩįè¦ģçļĦ":2535,"æĪĳå¾Īé«ĺåħ´":2536,"å®ł":2537,"æĻ¨":2538,"ä¹İ":2539,"æµĵ":2540,"æĦıå¤§åĪ©":2541,"æĸ¹æ¡Ī":2542,"æĿ¡ä»¶":2543,"æĦŁåĪ°éĿŀå¸¸":2544,"æĿĥ":2545,"éĹ®æĪĳ":2546,"èĻİ":2547,"è¯Ńè¨Ģæ¨¡åŀĭ":2548,"äº¦":2549,"éķ¿çļĦ":2550,"èŃ¦":2551,"ä»Ģä¹Īæĺ¯":2552,"å·¥æķ´":2553,"è¿Ľè¡ĮçºłéĶĻ":2554,"çĬ¹":2555,"ä»Ĺå·¥æķ´":2556,"è¦ģæ±Ĥå¯¹ä»Ĺå·¥æķ´":2557,"åĪł":2558,"åĩºéĹ¨":2559,"æľĢå¥½çļĦ":2560,"éĴĪ":2561,"ãĢĤâĢľ":2562,"æľīäºĽ":2563,"ä¸ĬçıŃ":2564,"èĥĮ":2565,"èĹı":2566,"æł·çļĦ":2567,"éªĳ":2568,"å¯»æī¾":2569,"èĳĹåĲįçļĦ":2570,"åľ°æĸ¹":2571,"åĿĹ":2572,"ä¸ºä»¥ä¸ĭåı¥åŃĲ":2573,"çº³":2574,"èĩªçĦ¶è¯Ńè¨Ģå¤ĦçĲĨ":2575,"è¡Ģ":2576,"è¶ĭ":2577,"çĥ¤":2578,"åĲĥäºĨ":2579,"çľŁæĺ¯":2580,"æĴŃ":2581,"çļĦåħ³éĶ®":2582,"å®¾":2583,"éĿ©":2584,"åĵ¥":2585,"çŁŃæĸĩ":2586,"èİ«":2587,"å¤ªéĺ³ç³»":2588,"ä¸ºä¸Ģä¸ª":2589,"çľł":2590,"éĺ´":2591,"çļĦæĸ°":2592,"ä¸Ģéĥ¨":2593,"ä¸»åĬ¨è¯ŃæĢģ":2594,"ç±»ä¼¼":2595,"å»ºçŃĳ":2596,"æĪĳæĥ³çŁ¥éģĵ":2597,"åį±":2598,"åĵº":2599,"èµı":2600,"æ¯Ķåĸ»":2601,"æĶ¹åĨĻä»¥ä¸ĭåı¥åŃĲ":2602,"æĻ´æľĹ":2603,"æ¾":2604,"çļĦåĲ«ä¹ī":2605,"ç»©":2606,"èĻļ":2607,"åĲ¬èµ·æĿ¥":2608,"çļ®":2609,"æĪĳåİ»äºĨ":2610,"éĢĲ":2611,"å¹¶è¾ĵåĩº":2612,"æ¡¥":2613,"èĤ¡":2614,"å¯ĴåĨ·":2615,"ä¹ĺ":2616,"åºĬ":2617,"å¹½":2618,"åĬŁèĥ½":2619,"ä¸įçĽ¸åĲĮ":2620,"çº·":2621,"éĢŁåº¦":2622,"éĹ²":2623,"éģ¿":2624,"éĽ¶":2625,"æĺ¯ä»Ģä¹ĪæĦıæĢĿ":2626,"Ġå¥½çļĦ":2627,"æł¸":2628,"æİī":2629,"å¡ĳ":2630,"åľ¨åħ¬åĽŃéĩĮ":2631,"è¯Ńåı¥":2632,"ä¸Ĭè¿°":2633,"çº¢èī²":2634,"æ¤įçī©":2635,"é½":2636,"æĿĢ":2637,"æĽ´ç®Ģåįķ":2638,"å®¶åºŃ":2639,"ç¤¾äº¤":2640,"ä¸Ģå®¶":2641,"æıĲç¤º":2642,"åģı":2643,"åĵºä¹³":2644,"çĶµè¯Ŀ":2645,"è¿ĳä¹īè¯į":2646,"æ£®":2647,"åĲĦç§į":2648,"çļĦæĸ¹æ³ķ":2649,"éĩĮçļĦ":2650,"æĢİä¹Īè¯´":2651,"åŃ£èĬĤ":2652,"çļĦåľ°æĸ¹":2653,"âĢ¦":2654,"å¯Ĥ":2655,"æł¹æį®ç»Ļå®ļçļĦåı¥åŃĲ":2656,"æµ·æĭĶ":2657,"çĵľ":2658,"çļĦå½¢å¼ı":2659,"éĿ¢åĮħ":2660,"éľľ":2661,"çī©åĵģ":2662,"ç¯®çĲĥ":2663,"å®ģ":2664,"çĶŁçī©":2665,"æĪ·å¤ĸ":2666,"ä¸Ĭä¸ĭ":2667,"è¡Įä¸º":2668,"èĭ¥":2669,"å¼Ģå¿ĥ":2670,"çİ°åľ¨è¯·ä½ł":2671,"æ¼Ķåĳĺ":2672,"è²":2673,"ä¹Ķ":2674,"âĢĿï¼Į":2675,"è´¢":2676,"èĢĮä¸Ķ":2677,"ç§ĭå¤©":2678,"å¤ıåŃ£":2679,"æĽ´å¤ļçļĦ":2680,"50":2681,"æĿ¿":2682,"ä»ĸåĸľæ¬¢":2683,"ä½ľåĵģ":2684,"åĲĮæĹ¶":2685,"çļĦäºĭæĥħ":2686,"ä»ĺ":2687,"å°Ħ":2688,"èĪ¬":2689,"æĶ¯æĮģ":2690,"åľĨ":2691,"å¾Īé«ĺåħ´":2692,"éļĲ":2693,"åĽ¾ä¹¦":2694,"æµĭè¯ķ":2695,"å®ĩ":2696,"æ´Ĺ":2697,"å»¶":2698,"é¤Ĳé¦Ĩ":2699,"çļĦåĲįç§°":2700,"è¡¨ç¤º":2701,"æ·ĩ":2702,"åĿ¦":2703,"æ³°":2704,"æĶ»":2705,"è·Ŀ":2706,"ç§ĭå¤©çļĦ":2707,"åłĤ":2708,"è¿Ļå®¶é¤ĲåİħçļĦ":2709,"19":2710,"84":2711,"ç«¹":2712,"è®©äºº":2713,"è¯·éĹ®ä½ł":2714,"æĪĳä¼ļå°½åĬĽ":2715,"éģĹ":2716,"çĶŁæĪĲä¸Ģä¸ªä¸İ":2717,"çļĦåĨħå®¹":2718,"è®¿":2719,"çĶŁæĹ¥":2720,"æĤ¦":2721,"çļĦåºĶçĶ¨é¢ĨåŁŁ":2722,"æĬĬè¿Ļåı¥è¯Ŀç¿»è¯ĳæĪĲæĸĩè¨Ģæĸĩ":2723,"è¿ĶåĽŀ":2724,"ä¸ĢæĿ¯":2725,"åľ£":2726,"å°Ĩä»¥ä¸ĭåı¥åŃĲä¸ŃçļĦ":2727,"ç½ĳç«Ļ":2728,"è¡ĮçļĦ":2729,"å¹³åĿĩ":2730,"çĬ¶åĨµ":2731,"åħħæ»¡":2732,"çĶ°":2733,"åĨĻä¸Ģé¦ĸ":2734,"å§Ĩ":2735,"èİĵ":2736,"èĦī":2737,"äºĶè¨Ģç»Ŀåı¥":2738,"åĲ¯":2739,"æĥ¯":2740,"æķ¦":2741,"ç³Ł":2742,"åĳ½åĲįå®ŀä½ĵè¯ĨåĪ«":2743,"æ·ĩæ·ĭ":2744,"è¯·å°Ĩ":2745,"ä½ľçĶ¨":2746,"ä¸»è¯Ń":2747,"é£İåĲ¹":2748,"åĨ°æ·ĩæ·ĭ":2749,"è¿Ļæĺ¯ä¸Ģç¯ĩ":2750,"éĶĢåĶ®":2751,"å®łçī©":2752,"çļĦæĥħæĦŁ":2753,"æľīçĤ¹":2754,"åľ¨åĵªéĩĮ":2755,"æī§":2756,"éķĩ":2757,"å¡«":2758,"å°Ĩåħ¶ä¸ŃçļĦ":2759,"ç¢§":2760,"è¿ĺæľīåħ¶ä»ĸéĹ®é¢ĺ":2761,"åĪłéĻ¤":2762,"è¶ĭåĬ¿":2763,"æıĲåĪ°äºĨ":2764,"åĢĴ":2765,"èĥ½åĲ¦":2766,"æļĹ":2767,"æĸ°éĹ»æĸĩç«ł":2768,"æŁĲä¸ª":2769,"åĽ°éļ¾":2770,"å¹¸ç¦ı":2771,"âĢĿ<|":2772,"çº¦ç¿°":2773,"æĬĬè¿Ļåı¥è¯Ŀç¿»è¯ĳæĪĲçİ°ä»£æĸĩ":2774,"å°Ĩä¸ĭéĿ¢åı¥åŃĲ":2775,"åĵºä¹³åĬ¨çī©":2776,"ä¸ĭæĸĩä¸Ń":2777,"æŀ«":2778,"ä½ľä¸ļ":2779,"åĿı":2780,"æĪĳä¸įçŁ¥éģĵ":2781,"çļĦæĥħç»ª":2782,"é¢Ŀ":2783,"ä¸ºäºĨ":2784,"çīĻ":2785,"ç¾İä¸½çļĦ":2786,"å¯¹æĸĩæľ¬éĶĻè¯¯è¿Ľè¡Įä¿®æĶ¹":2787,"ä¸ŃæĢ§":2788,"å¯¹è¯Ŀ":2789,"å§ĵ":2790,"åľ¨ä¸ŃåĽ½":2791,"åī¯":2792,"çĹħæ¯Ĵ":2793,"ç»ľ":2794,"å·Ŀ":2795,"è¡Įä¸ļ":2796,"åĪ°è¾¾":2797,"ä»Ĭå¹´":2798,"äººå·¥æĻºèĥ½æĬĢæľ¯":2799,"ä¸įçĶ¨è°¢":2800,"éŀĭ":2801,"ä¸ĭæĸĩä¸ŃåŃĺåľ¨åĵªäºĽå®ŀä½ĵ":2802,"å®ļä¹ī":2803,"å¤§è±¡":2804,"çĦ¦":2805,"æ³ķåĽ½":2806,"ç¼ĵ":2807,"è¯ĨåĪ«åĩº":2808,"GPTæ¨¡åŀĭ":2809,"ä»ħ":2810,"ä¸įæĸŃ":2811,"æ´Ľ":2812,"é¸£":2813,"åĪ©çĶ¨":2814,"æıĲåĪ°çļĦ":2815,"ä¸ºä½ł":2816,"åĩºåİ»":2817,"ä½ĵéªĮ":2818,"å¦Ī":2819,"åĽ½éĻħ":2820,"è¡¨è¿°":2821,"âĢĶâĢĶ":2822,"åı¤ä»£æĢİä¹Īè¯´":2823,"æŃ£å¼ı":2824,"åĢŁ":2825,"çĬ¯":2826,"äººçī©":2827,"æĥħèĬĤ":2828,"ä¹ĭåīį":2829,"è½¬åĮĸ":2830,"åģ¥åº·çļĦ":2831,"å¹¿æ³Ľ":2832,"æĽ¿æį¢ä¸º":2833,"å¾Ħ":2834,"æĭħ":2835,"ä¹¦ç±į":2836,"çĶŁæĪĲä¸Ģä¸ªåĮħåĲ«":2837,"çģ¯":2838,"äº¡":2839,"å¯Ł":2840,"å¾ĪæĬ±æŃī":2841,"æ¡ĥ":2842,"ä½¿åħ¶æĽ´ç®Ģæ´ģ":2843,"ç§»":2844,"æĭĤ":2845,"æłĩçŃ¾":2846,"è¿Ľè¡ĮåĪĨç±»":2847,"æĢĿèĢĥ":2848,"ç»ĦæĪĲ":2849,"çľŁå¥½":2850,"åªĴ":2851,"åĽ¾ä¹¦é¦Ĩ":2852,"æĺ¯è°ģ":2853,"ä¸įåĸľæ¬¢":2854,"ä¸įçŁ¥éģĵ":2855,"åıªæľī":2856,"æĹ©é¤Ĳ":2857,"çĬ¬":2858,"éĻĦè¿ĳ":2859,"çĽĸ":2860,"è¯·çĶ¨ä¸Ģåı¥è¯Ŀ":2861,"è°Ī":2862,"æĦŁåıĹ":2863,"ä»Ĭå¤©çļĦ":2864,"è±Ĩ":2865,"åªļ":2866,"åŃ¤çĭ¬":2867,"ä¹±":2868,"åĩºæĿ¥":2869,"èĽĭç³ķ":2870,"ä¸Ģå¤©":2871,"æ´ŀ":2872,"å±Ĥ":2873,"æ¸©æļĸ":2874,"æķĪçİĩ":2875,"çĶŁæĢģ":2876,"å¯¿":2877,"æĦģ":2878,"æ±¤":2879,"çĮ®":2880,"æĽ´å¥½åľ°":2881,"å°Ĭ":2882,"æĬĺ":2883,"è´§":2884,"å¿ĥæĥħ":2885,"éĨī":2886,"éĩĩåıĸ":2887,"ä»Ļ":2888,"æĸĩåŃ¦":2889,"ä¸ĭæĸĩä¸ŃçļĦå®ŀä½ĵ":2890,"äººçĶŁ":2891,"æľĢè¿ĳçļĦ":2892,"æĬ½åıĸåĩºä¸ĭæĸĩä¸ŃçļĦå®ŀä½ĵ":2893,"çīĪæľ¬":2894,"éĢĹ":2895,"èį£":2896,"ĠâĢľ":2897,"éĢĢ":2898,"é£İéĻ©":2899,"ä»£è¡¨":2900,"åįģåĪĨ":2901,"å²Ľ":2902,"ä¸įåı¯":2903,"æĿ°":2904,"åİ¿":2905,"åİ»çľĭçĶµå½±":2906,"è¿Ļä¸ªåŁİå¸Ĥ":2907,"ä¸ĭéĿ¢è¿Ļåı¥è¯Ŀ":2908,"ç¥ĸ":2909,"æ¥ļ":2910,"æĺ¯çıłç©ĨæľĹçİĽå³°":2911,"ä¸įè¦ģ":2912,"çĽ®çļĦåľ°":2913,"èĢģå¸Ī":2914,"ç»Ļä½ł":2915,"æ¬£":2916,"ä¹łæĥ¯":2917,"å¸®æĪĳåĨĻè¯Ĺ":2918,"æīĢä»¥æĪĳ":2919,"é©¾é©¶":2920,"æī¬":2921,"çĶŁäº§":2922,"ç«¥":2923,"æ»ĳ":2924,"äºĮåįģ":2925,"æĸ¹éĿ¢çļĦ":2926,"ç³Łç³ķ":2927,"¡èĲ":2928,"è¡¡":2929,"èµ¢":2930,"æŁ³":2931,"ç»ıåİĨ":2932,"æīĵç®Ĺ":2933,"è¯·å¸®æĪĳ":2934,"æĭŁ":2935,"èĩªè¡Į":2936,"å¤ªå¥½":2937,"ç½ª":2938,"åħ³éĶ®åŃĹ":2939,"ç¬¦åĲĪ":2940,"æĳĦæ°ı":2941,"æĸĹ":2942,"æī¿":2943,"åĢĳ":2944,"çĳľ":2945,"åįı":2946,"æĿ¨":2947,"ä¸Ĭæĸĩä¸ŃçļĦå®ŀä½ĵ":2948,"æĸĩæľ¬ä¸ŃçļĦå®ŀä½ĵ":2949,"è¯ĨåĪ«åĩºä¸Ĭæĸĩä¸ŃçļĦå®ŀä½ĵ":2950,"åĬ±":2951,"ä¼½":2952,"æĽ´æĶ¹":2953,"æĤ¨å¥½":2954,"èĭĹ":2955,"åīįå¾Ģ":2956,"åĽłä¸ºæĪĳ":2957,"ä½¿åħ¶æĽ´åĬłæµģçķħ":2958,"åı¯èĥ½ä¼ļ":2959,"ç½ĳç»ľ":2960,"éĩįæĸ°ç¼ĸåĨĻä»¥ä¸ĭåı¥åŃĲ":2961,"ç»Ļå®ļæĸĩæľ¬":2962,"æĥ³æ³ķ":2963,"å¿ĥçĲĨ":2964,"èĬ±åĽŃ":2965,"ä¿®æŃ£":2966,"åķĨåĵģ":2967,"å±ĭ":2968,"ä¸ŃçļĦè¯Ńæ³ķéĶĻè¯¯":2969,"ä»ĬæĻļ":2970,"è¯¥è¯Ħè®º":2971,"éŁµ":2972,"åģ¥åº·é¥®é£Ł":2973,"848":2974,"å¥Ĺ":2975,"ç®±":2976,"æķ°éĩı":2977,"çĪ¬":2978,"åĪĽæĸ°":2979,"æĬ½åıĸåĩºæĸĩæľ¬ä¸ŃçļĦå®ŀä½ĵ":2980,"æľĢç»Ī":2981,"åĪĨåĪ«":2982,"æ¡Į":2983,"èµĦæºĲ":2984,"è½¯ä»¶":2985,"æĭľ":2986,"åĽŀçŃĶè¿Ļä¸ªéĹ®é¢ĺ":2987,"ç»ĻæĪĳæİ¨èįĲ":2988,"æİĴåºı":2989,"èįīèİĵ":2990,"æĸĩæľ¬ä¸ŃåŃĺåľ¨åĵªäºĽå®ŀä½ĵ":2991,"Ġå½ĵçĦ¶åı¯ä»¥":2992,"ä¸Ģåľº":2993,"å¼Ł":2994,"æĸĩæľ¬è¡¨è¾¾äºĨ":2995,"éĻĨ":2996,"é¡¾":2997,"ä½¿åħ¶æĽ´åħ·":2998,"è¿Ļç¯ĩæĸĩç«łä¸Ń":2999,"çļĦå¤©æ°ĶæĥħåĨµ":3000,"æĶ¾æĿ¾":3001,"å¤ıæĹ¥":3002,"å®ĮæĪĲäºĨ":3003,"çĩķ":3004,"èģļä¼ļ":3005,"èĨ":3006,"éĴĪå¯¹":3007,"çļĦæĹ¶éĹ´":3008,"å°¤":3009,"æĢ¥":3010,"å¿ł":3011,"å¾Īæ£Ĵ":3012,"è°ľ":3013,"åº¦åģĩ":3014,"ç´«":3015,"æºª":3016,"æ²³æµģ":3017,"è·Ŀç¦»":3018,"éĢĹåı·":3019,"ä¸Ģå¹´":3020,"å°ĺ":3021,"ç«¯":3022,"æĶ¹åĸĦ":3023,"è¡¨æł¼":3024,"å¹´è½»":3025,"é»ĺ":3026,"åĵªä¸ªåŁİå¸Ĥ":3027,"çģ«è½¦":3028,"ä¸Ģä¸ªäºº":3029,"è¯Ńæ°Ķ":3030,"ä½Ĩå¥¹":3031,"è°¢è°¢ä½łçļĦå»ºè®®":3032,"åĩºèī²":3033,"èµŀ":3034,"ä»Ģä¹ĪæĥħæĦŁ":3035,"çĤº":3036,"æ®ĭ":3037,"åķĨåºĹ":3038,"æĸĩæľ¬è¡¨è¾¾äºĨä»Ģä¹ĪæĥħæĦŁ":3039,"æ°§":3040,"åºŁ":3041,"èĬ³":3042,"åĲİçļĦ":3043,"æīĵå¼Ģ":3044,"æĪĳåĴĮ":3045,"æķ¢":3046,"æİĮ":3047,"çıį":3048,"é¼ĵ":3049,"çĳľä¼½":3050,"ä»¥ä¸ĭéĹ®é¢ĺ":3051,"æĸ¹åĲĳ":3052,"èĤ¯":3053,"è®©æĪĳä»¬":3054,"èİ·åıĸ":3055,"æ©ĻåŃĲ":3056,"çµ":3057,"è¿ĩäºĨ":3058,"äººåĲįåĴĮ":3059,"æĴ°":3060,"ä¸Ģæł·":3061,"è¿Ļé¡¹":3062,"æµ®":3063,"åı¯ä»¥å¸®åĬ©":3064,"è¯Ńæ³ķåĴĮ":3065,"èĭ±åĽ½":3066,"åĭ¤":3067,"èĮĥåĽ´":3068,"å·¦åı³":3069,"å¤ķ":3070,"åį·":3071,"è¾ŀ":3072,"åĵªç§į":3073,"åĢ¾":3074,"èĲ§":3075,"åİĭåĬĽ":3076,"30":3077,"æľµ":3078,"åįĸ":3079,"æĤł":3080,"éĢļé¡º":3081,"è¡¨è¾¾çļĦæĥħç»ª":3082,"åł¡":3083,"é¼ł":3084,"å¡ĳæĸĻ":3085,"ä¸Ŀ":3086,"è¯ļ":3087,"å¿§":3088,"å¦Ļ":3089,"çī¹çĤ¹":3090,"ä¼ĺç§Ģ":3091,"ä¸Ĭä¸ĭæĸĩ":3092,"è¯¥è¯Ħè®ºè¡¨è¾¾çļĦæĥħç»ª":3093,"è¯¥è¯Ħè®ºè¡¨è¾¾çļĦæĥħç»ªæĺ¯ä»Ģä¹Ī":3094,"çĴ":3095,"çļĦè¯Ŀ":3096,"æĪĳè®¤ä¸º":3097,"è¿Ļåıª":3098,"å¹ħ":3099,"å¾ĪåĨ·":3100,"è¿ĩç¨ĭ":3101,"äºĭæĥħ":3102,"çĪ½":3103,"è¿¹":3104,"åĨĻä½ľ":3105,"æľĢæĸ°":3106,"éľĩ":3107,"è½½":3108,"å¹¶æıĲä¾Ľ":3109,"çĽ¸åºĶ":3110,"æĬĢèĥ½":3111,"åĶ¯":3112,"èĪªçıŃ":3113,"åªĴä½ĵ":3114,"æĪĲç»©":3115,"æ¶ī":3116,"çļĦæĦıæĢĿæĺ¯ä»Ģä¹Ī":3117,"çļĦåĲįåŃĹ":3118,"çĶ³":3119,"çº¸":3120,"ä¿Ŀåģ¥":3121,"éĤ£éĩĮ":3122,"éħ¸":3123,"åıĹæ¬¢è¿İ":3124,"å°Ĩä»¥ä¸ĭåı¥åŃĲæĶ¹åĨĻä¸º":3125,"æ¹¿":3126,"è¿Ļä¸¤ä¸ª":3127,"èĩ£":3128,"æĺİåªļ":3129,"åĮ»åŃ¦":3130,"ä¼łç»Ł":3131,"èģĮä¸ļ":3132,"èĩªè¡Įè½¦":3133,"ä½łä¼ļ":3134,"æĻĭ":3135,"ç¼©":3136,"æľºä¼ļ":3137,"åıĺæĪĲ":3138,"ä¸Ģæ®µæĸĩåŃĹ":3139,"åĸĿåĴĸåķ¡":3140,"åĢ¼å¾Ĺ":3141,"æĳĦæ°ıåº¦":3142,"åĲī":3143,"æĪĳå·²ç»ı":3144,"ä¸ªåŃĹ":3145,"ä¸ĬéĿ¢":3146,"å¼Ģåıĳ":3147,"åĽłä¸ºä»ĸ":3148,"ä¸ĢäºĽåħ³äºİ":3149,"è¯»ä¹¦":3150,"ç§ĭé£İ":3151,"ä¾ĭåŃĲ":3152,"è®²è¿°":3153,"çļĦå»ºè®®":3154,"æĪĳæľĢè¿ĳ":3155,"åĽŀçŃĶéĹ®é¢ĺ":3156,"Ġåħ¶äºĮ":3157,"çĨĬçĮ«":3158,"æĪĳçľĭ":3159,"æĤ£":3160,"æĥ³åİ»":3161,"çİ¯å¢ĥä¿ĿæĬ¤":3162,"åħ±åĲĮ":3163,"ç»¿èī²":3164,"è®Ńç»ĥ":3165,"ãĢį":3166,"æľīæĦıä¹ī":3167,"æıĲéĨĴ":3168,"å¼ĥ":3169,"æ³Ĭ":3170,"å¸¸è§ģ":3171,"çĶµå½±éĻ¢":3172,"å§Ķ":3173,"ç®Ĺæ³ķ":3174,"ä½łèĥ½å¸®æĪĳ":3175,"ãĢĮ":3176,"çļĦå¥½":3177,"å¥¹å¾Ī":3178,"ä¼¦æķ¦":3179,"ä¸§":3180,"ä¹ı":3181,"åºĨ":3182,"æī¼":3183,"ä½łéľĢè¦ģ":3184,"åı¯æĮģç»Ń":3185,"å°Ĩå®ĥä»¬":3186,"åĬ¨ä½ľ":3187,"æ½®":3188,"æĵį":3189,"çĶµåŃĲéĤ®ä»¶":3190,"è¡¥":3191,"åħ³æ³¨":3192,"éĽĦ":3193,"ç¾İæĻ¯":3194,"æĻļé¤Ĳ":3195,"æľīæīĢ":3196,"æł¹æį®ä»¥ä¸ĭæĸĩæľ¬":3197,"å²¸":3198,"ç¿ł":3199,"è¢ĭ":3200,"éª¨":3201,"é¸¡èĽĭ":3202,"åľ¨è¿Ļä¸ª":3203,"è¯·å¯¹":3204,"éķ¿åº¦":3205,"æİ¢è®¨":3206,"ç»ĨèĬĤ":3207,"æ¢¦æĥ³":3208,"çľĭçľĭ":3209,"æµ·è¾¹":3210,"çĥ§":3211,"éļıæľº":3212,"æĿİæĺİ":3213,"æ¼Ķè®²":3214,"çļĦéĩįè¦ģæĢ§":3215,"ä¼Ĭ":3216,"ç§ģ":3217,"èµµ":3218,"åĽłç´ł":3219,"å®ĥæĽ´åĬł":3220,"æĪĳä»¬éľĢè¦ģ":3221,"æ²¡æľīè¯Ńæ³ķéĶĻè¯¯":3222,"è¯´æĺİ":3223,"æ¶¦":3224,"ç²ī":3225,"æ¦Ĥå¿µ":3226,"|>âĢľ":3227,"æľĢä½³":3228,"è´Ŀ":3229,"å¸®å¿Ļ":3230,"å¥¹åĸľæ¬¢":3231,"ä»Ĭå¤©æĺ¯":3232,"åĽłä¸ºå®ĥ":3233,"å¿«éĢŁ":3234,"ç¦ģ":3235,"å¤įæĿĤ":3236,"åĳ³éģĵ":3237,"åĮ»çĸĹä¿Ŀåģ¥":3238,"èĵĿèī²":3239,"è°ĵè¯Ń":3240,"æī¼è¦ģ":3241,"çŀ":3242,"åİļ":3243,"çĲ´":3244,"æ·±åº¦":3245,"æİĴæĶ¾":3246,"æĪĳå¾Īåĸľæ¬¢":3247,"èĩ³å°ĳ":3248,"é½Ĳ":3249,"æĺ¯ç¾İåĽ½":3250,"æľĢåĲİ":3251,"é©¬æĭī":3252,"ä¸Ģç¯ĩåħ³äºİ":3253,"æ²Ļæ»©":3254,"çĸĳéĹ®åı¥":3255,"æĿĲæĸĻ":3256,"ç®Ģæĺİæī¼è¦ģ":3257,"æĹ¢":3258,"æĸĩç«łåĨħå®¹":3259,"éĥ½ä¼ļ":3260,"è®©ä½ł":3261,"èĦļ":3262,"è¦ģæ±Ĥåħ·æľī":3263,"åĮ»çĸĹé¢ĨåŁŁ":3264,"è´£ä»»":3265,"çļĦå°ı":3266,"çļĦéŁ³ä¹Ĳ":3267,"ä¸Ģä»¶":3268,"åıĸå¾Ĺ":3269,"å¸®ä½ł":3270,"éĥİ":3271,"åįİçĽĽ":3272,"Ġåħ¶ä¸Ģ":3273,"çļĦåıĳå±ķ":3274,"åŃĻ":3275,"åľ°åĲį":3276,"è¯Ĺäºº":3277,"ç»ıéªĮ":3278,"å¢¨":3279,"çĭĹçļĦ":3280,"æĶ¿çŃĸ":3281,"éº¦":3282,"çļĦä¸»æĹ¨":3283,"æİ§åĪ¶":3284,"éģ¿åħį":3285,"çļĦæĸ¹å¼ı":3286,"ä¸ĢæŃ¥":3287,"å°į":3288,"å°Ĩä¸ĭéĿ¢çļĦåı¥åŃĲ":3289,"éĩįå¤į":3290,"çĶŁæĪĲä¸Ģåı¥":3291,"æıĲä¾ĽçļĦ":3292,"ç»ıåħ¸":3293,"æĮĩåĩº":3294,"çº¢èī²çļĦ":3295,"é¾Ħ":3296,"æĹı":3297,"éĢĶ":3298,"æĤ¬":3299,"æĸ°äº§åĵģ":3300,"é«ĺåº¦":3301,"èĪ¹":3302,"âĦ":3303,"çļĨ":3304,"è¿ª":3305,"å¥Ķ":3306,"ä¼ŀ":3307,"ä½ľè¯Ĺ":3308,"æĪĳä»¬åı¯ä»¥":3309,"åİŁå§ĭåı¥åŃĲ":3310,"åįİçĽĽé¡¿":3311,"âĦĥ":3312,"ç¶":3313,"ä¸įåıĺ":3314,"æĿŁ":3315,"æĢķ":3316,"æģ©":3317,"æŁĶ":3318,"éĩįåĨĻä¸ĭéĿ¢çļĦåı¥åŃĲ":3319,"éĥ½åı¯ä»¥":3320,"ä¸ŃåĽ½çļĦ":3321,"å¡ŀ":3322,"ç©¿çĿĢ":3323,"æľīä»»ä½ķ":3324,"ä¾Ĩ":3325,"æĿ¥è¶Ĭ":3326,"å®ŀæĹ¶":3327,"é¥¼":3328,"æĳĩ":3329,"äºĶè¨Ģè¯Ĺ":3330,"è¹":3331,"æĺ¯æĪĳ":3332,"æĺ¯åĵªä¸ª":3333,"åĴĮæĪĳ":3334,"ä½ĵèĤ²":3335,"åĪĨéĴŁ":3336,"å¤ªç©º":3337,"çĿ¡è§ī":3338,"èĪĴéĢĤ":3339,"è½¬åĮĸä¸º":3340,"çļĦæķħäºĭ":3341,"è¯·ä»İ":3342,"ç§įç±»":3343,"ä¸ºä¸Ģç¯ĩæĸĩç«ł":3344,"ç®ĢåĮĸ":3345,"æĪĳåĸľæ¬¢åľ¨":3346,"çĹĩçĬ¶":3347,"æĸ¼":3348,"æľ¬æĸĩ":3349,"å¥½çľĭ":3350,"åİ»å¹´":3351,"çľĭèµ·æĿ¥":3352,"éĽ·":3353,"å®Įåħ¨":3354,"éĢłæĪĲ":3355,"ä¸¤ä¸ªåı¥åŃĲåĲĪå¹¶":3356,"æŀ«åı¶":3357,"åı¹":3358,"æľĥ":3359,"åħļ":3360,"å®ĭ":3361,"ç»ķ":3362,"ä¸ĭåĳ¨":3363,"èĢ³":3364,"åĬłåħ¥":3365,"æł¹æį®æīĢ":3366,"èģĶç½ĳ":3367,"é¢Ħè®¢":3368,"æŁ¥æī¾":3369,"åı¯èĥ½æĺ¯":3370,"æīĢåľ¨çļĦåŁİå¸Ĥ":3371,"ä¸ĢåĲį":3372,"ä¼¯":3373,"ä¿ĥ":3374,"å¾Īä¸įéĶĻ":3375,"ç¾İå¥½çļĦ":3376,"ç¼ĸåĨĻä¸Ģä¸ª":3377,"è¶ĬæĿ¥è¶Ĭ":3378,"æł¹æį®æıĲä¾ĽçļĦ":3379,"è¯·æĤ¨":3380,"è¿Ļä¸ªé¡¹çĽ®":3381,"å¹¶ä¸į":3382,"ç¾İçļĦ":3383,"ç¨į":3384,"éŁ©":3385,"ä¸ŃæıĲåıĸåĩº":3386,"éĺ³åħīæĺİåªļ":3387,"éĹ®çŃĶ":3388,"éķľ":3389,"ç¡Ģ":3390,"èĲ½åı¶":3391,"è¿Ļæ®µè¯Ŀ":3392,"ãĢĳ":3393,"çĽĺ":3394,"è¯·ç»ĻæĪĳ":3395,"å°Ĩåľ¨":3396,"å¤§å®¶":3397,"çľĭäºĨ":3398,"éĿŀå¸¸æľīè¶£":3399,"çĿ£":3400,"å°±åĥı":3401,"ç£":3402,"æĥł":3403,"è¯·ä»İæĸĩç«łä¸ŃæıĲåıĸåĩº":3404,"åĸľåī§":3405,"çĪĨ":3406,"åĲĥé¥Ń":3407,"çĸ«èĭĹ":3408,"é¬":3409,"ãĢĲ":3410,"å¾Īæľī":3411,"è°±":3412,"åħ¬éĩĮ":3413,"å®ŀä½ĵæĬ½åıĸ":3414,"åįķè¯įçļĦ":3415,"ä¹Łæĺ¯":3416,"æĥħæĦŁåĪĨç±»":3417,"æĺ¥å¤©":3418,"å¤±è´¥":3419,"åŁºç¡Ģ":3420,"ç¢³":3421,"å«":3422,"åĨ²":3423,"ä¸Ģä¸ªéĹ®é¢ĺ":3424,"æī¹":3425,"æĺ¯ä¸Ģä½į":3426,"åį³ä½¿":3427,"çĦ¦èĻĳ":3428,"åĲ´":3429,"å·¥åħ·":3430,"çĳŀ":3431,"èļ":3432,"æĺ¯æĮĩ":3433,"æľīåħ¶ä»ĸ":3434,"è¿Ļåľº":3435,"åĴª":3436,"æľĢä½İ":3437,"æ·¡":3438,"è¯ķè¯ķ":3439,"é£ŀæľº":3440,"æĥ«":3441,"éĢı":3442,"è¯·çĶ¨":3443,"ï¼ģ\"<|":3444,"éĻįä½İ":3445,"äº¿":3446,"ä½Ľ":3447,"å°¾":3448,"å¥ı":3449,"å¤§éĩı":3450,"çī¹å¾ģ":3451,"202":3452,"æĺ¾ç¤º":3453,"çĸ²æĥ«":3454,"å¯¹ä»¥ä¸ĭåı¥åŃĲè¿Ľè¡Į":3455,"ä¸Ĭè¿°æĸĩæľ¬":3456,"ä¸ºåħ¶":3457,"æĦŁåħ´è¶£":3458,"åĪĨäº«":3459,"åĲĮä¹ī":3460,"åĽłå¤©æ°Ķ":3461,"æıĲåıĸä¸Ģä¸ĭ":3462,"æĭĽ":3463,"é²¸":3464,"æĪĳéĿŀå¸¸åĸľæ¬¢":3465,"çļĦä¹¦":3466,"åºĵ":3467,"å¹ķ":3468,"æĭį":3469,"æİĪ":3470,"äºĭå®ŀ":3471,"å±±èĦī":3472,"äººå·¥æĻºèĥ½çļĦåºĶçĶ¨é¢ĨåŁŁ":3473,"å®ĥä»¬çļĦ":3474,"ç«ŀ":3475,"æĦıè¯Ĩ":3476,"ä¸ĭéĿ¢çļĦæĸĩæľ¬":3477,"èĤ¥":3478,"ç¨³":3479,"çĮľ":3480,"æ¯ıä¸ªäºº":3481,"éº»":3482,"å¤©ä¸ĭ":3483,"ï¼Ł\"":3484,"å¾Ĺå¾Ī":3485,"ç¾İå¥½":3486,"å½ĵæĪĳ":3487,"çĻĮ":3488,"çĪ±å¥½":3489,"éĢļè¿ĩèĢĥè¯ķ":3490,"å®£ä¼ł":3491,"äºĨå¾Īå¤ļ":3492,"éľĢè¦ģå¸®åĬ©":3493,"æľºåľº":3494,"ç»Ļåĩºä¸Ģä¸ªåı¥åŃĲ":3495,"ç®ĢåįķçļĦ":3496,"ä¸Ĭè¿°æĸĩæľ¬è¿Ľè¡ĮçºłéĶĻ":3497,"æ°´å¹³":3498,"æĮĩä»¤":3499,"åĪĨç±»ä¸º":3500,"ä»ª":3501,"æĬĹ":3502,"å¼¹":3503,"è¯ŃéŁ³":3504,"å°Ĩä¼ļ":3505,"å¦ĤæŃ¤":3506,"ä»·åĢ¼":3507,"åĪļåĪļ":3508,"æĤ²ä¼¤":3509,"åĴĮä¸Ģä¸ª":3510,"èĥ½ä¸įèĥ½":3511,"èĢĢ":3512,"ç»Ļå®ļåı¥åŃĲ":3513,"ç»Ļå®ļä¸Ģåı¥è¯Ŀ":3514,"è½®":3515,"éĥ½æľī":3516,"åłª":3517,"éĵ¶è¡Į":3518,"ä»¥ä¾¿æĪĳ":3519,"å©ļ":3520,"è¯¸":3521,"æĺ¯åħ³äºİ":3522,"è¿Ļæ¬¡":3523,"ä¸ºæĪĳ":3524,"å¯Ħ":3525,"æĸ°åĨł":3526,"å¹¶æ²¡æľī":3527,"å¤ªæ£Ĵ":3528,"æ»¡æĦı":3529,"å¼ķèµ·":3530,"çļĦè¯Ńæ°Ķ":3531,"è¿Ļé¦ĸè¯Ĺ":3532,"æ£®æŀĹ":3533,"ä¸²":3534,"çļĦä¸īä¸ª":3535,"åĲįè¨Ģ":3536,"éļĶ":3537,"å¥³åŃ©":3538,"é¹ħ":3539,"å®£å¸ĥ":3540,"ç¤¾äº¤åªĴä½ĵ":3541,"å¤ªæ£ĴäºĨ":3542,"éĹª":3543,"æĿ¥èĩª":3544,"å¤ļäºĳ":3545,"çĿĽ":3546,"åĲĪçĲĨ":3547,"å£®":3548,"éĴ¢":3549,"çĮ«åĴª":3550,"åĪ¶éĢł":3551,"åĮĹäº¬çļĦå¤©æ°Ķ":3552,"åŁºæľ¬":3553,"åİŁå§ĭæĸĩæľ¬":3554,"ç§¦":3555,"å¾Īéļ¾":3556,"åĬłä¸Ĭ":3557,"ä½¿åħ¶æĽ´æĺĵäºİçĲĨè§£":3558,"æĺ¥é£İ":3559,"åįļçī©":3560,"å¥¥è¿Ĳ":3561,"åĲĪéĢĤçļĦ":3562,"ä¸ĵä¸ļ":3563,"ï¼ĮâĢľ":3564,"è¿Ļä»¶":3565,"ä¸įè¶ħè¿ĩ":3566,"æ³ª":3567,"éĻµ":3568,"å·¥ç¨ĭ":3569,"å®¢æĪ·":3570,"ç¤ºä¾ĭ":3571,"æİ¥ä¸ĭæĿ¥":3572,"å£°éŁ³":3573,"éģĩåĪ°äºĨ":3574,"ä¸ĸçķĮä¸ĬæľĢé«ĺçļĦå±±å³°æĺ¯çıłç©ĨæľĹçİĽå³°":3575,"Ġå½ĵçĦ¶":3576,"ä¸¹":3577,"ä¸ĢåĢĭ":3578,"å®Ļ":3579,"ä¸ŃæľĢ":3580,"æĿľ":3581,"æĮ¥":3582,"åıĳå¸ĥ":3583,"æ²¡éĹ®é¢ĺ":3584,"ç¡®ä¿Ŀ":3585,"èĪŁ":3586,"æŃĮè¯į":3587,"åĮ»éĻ¢":3588,"è§ĦåĪĻ":3589,"å®¾è¯Ń":3590,"ä¸Ģå¼ł":3591,"æ³ī":3592,"èĢį":3593,"ä½¿ä¹ĭ":3594,"åĢ¦":3595,"èį¡":3596,"åĲĪä½ľ":3597,"çļĦé¦ĸéĥ½æĺ¯":3598,"15":3599,"éĢĬ":3600,"åŁĥ":3601,"è¡¨æĺİ":3602,"ç¾İåħĥ":3603,"ä¹Łå¾Ī":3604,"åı£åĳ³":3605,"å¤ıå¤©çļĦ":3606,"æĪ¿åŃĲ":3607,"ä¸įçĶ¨å®¢æ°Ķ":3608,"åį°åº¦":3609,"å®ĩå®Ļ":3610,"åºĦ":3611,"è¯·åĽŀçŃĶ":3612,"åı¯è¯»":3613,"åİ»ä¸ĬçıŃ":3614,"æĹ¶ä»£":3615,"å¯¹å¯¹èģĶ":3616,"æĪĳä»¬åĨ³å®ļ":3617,"é£İæĻ¯":3618,"èı²":3619,"ä¸¾è¡Į":3620,"æĬķèµĦ":3621,"è¯·éļıæĹ¶åĳĬè¯īæĪĳ":3622,"ä¸ªåįķè¯į":3623,"æı¡":3624,"ä½łæĥ³":3625,"æĻĵ":3626,"æ¢ģ":3627,"ä¸¥éĩį":3628,"çĶ²":3629,"é¢Ĺ":3630,"æĺİç¡®":3631,"é¡¶":3632,"å¹´çļĦ":3633,"åĲİçļĦåı¥åŃĲ":3634,"åıĹåĪ°":3635,"çº½çº¦å¸Ĥ":3636,"ä¸°å¯Į":3637,"æ¬§æ´²":3638,"18":3639,"ä¸ªæľĪ":3640,"æĺ¯çĶ±":3641,"äººæ°ĳ":3642,"çº¦ä¸º":3643,"ç¦»å¼Ģ":3644,"éģĩåĪ°":3645,"å°¤åħ¶":3646,"ĠæĪĳ":3647,"å®½":3648,"æľīæ²¡æľī":3649,"æķ¬":3650,"çĶµå½±è¯Ħè®º":3651,"çŃīé¢ĨåŁŁ":3652,"äººå·¥æĻºèĥ½åºĶçĶ¨":3653,"èµ¢å¾Ĺ":3654,"ä¸įèµ·":3655,"æĿ¥è¯´":3656,"çĭ®":3657,"è®¾å¤ĩ":3658,"æİ¥åıĹ":3659,"æħ§":3660,"çİ©èĢį":3661,"æ½ľ":3662,"çľ¼çĿĽ":3663,"è¯įè¯Ńæĺ¯ä»Ģä¹ĪæĦıæĢĿ":3664,"è°ľè¯Ń":3665,"éĢĻ":3666,"åŁ¹":3667,"æľºç¥¨":3668,"ä½¿åħ¶æĽ´ç®Ģæ´ģæĺİäºĨ":3669,"åŀĤ":3670,"çģ¾å®³":3671,"çļĦå¤§":3672,"ä¹ĥ":3673,"æĺ¯æŃ£ç¡®çļĦ":3674,"ä½łåĸľæ¬¢":3675,"åĸľé©¬æĭī":3676,"åĬłå¼º":3677,"ç¾Ĭ":3678,"åĬĽéĩı":3679,"åĢį":3680,"ç»ĥä¹ł":3681,"åĸľé©¬æĭīéĽħ":3682,"æª":3683,"ä¸ĢåĪĻ":3684,"ä»¥ä¸ĭåı¥åŃĲä¸Ń":3685,"éĩĬä¹ī":3686,"çĿ¡çľł":3687,"èĥĮæĻ¯":3688,"çī©çĲĨ":3689,"çĽ¸ä¿¡":3690,"èĻ«":3691,"åģļåĩº":3692,"äºĨä¸Ģåıª":3693,"æ±īåł¡":3694,"åĲĪéĢĤçļĦæłĩé¢ĺ":3695,"åĨĴéĻ©":3696,"æ¶īåıĬ":3697,"8848":3698,"çļĦåħ·ä½ĵ":3699,"åŃ¸":3700,"å¹¶ç»Ļåĩº":3701,"ç³»åĪĹ":3702,"æļ®":3703,"å°Ĩä»¥ä¸ĭåı¥åŃĲéĩįåĨĻä¸º":3704,"ï¼īãĢĤ":3705,"æ¯ıå¤©æĹ©ä¸Ĭ":3706,"åı¯è¯»æĢ§":3707,"çļĦåĲĹ":3708,"äºĪ":3709,"äººå¿ĥ":3710,"éľŀ":3711,"å¹´é¾Ħ":3712,"èİ±":3713,"å¸®åĬ©ä½ł":3714,"100":3715,"è¿Ļæ®µæĸĩåŃĹ":3716,"ä»Ĭå¤©å¤©æ°ĶçľŁå¥½":3717,"çļĦè¯ĹæŃĮ":3718,"çļĦåıįä¹īè¯į":3719,"ä¿Ĺ":3720,"éĺµ":3721,"å¸®åĪ°":3722,"å½¢æĪĲ":3723,"è¯Ńæ³ķæŃ£ç¡®":3724,"æĿİåĽĽ":3725,"åħĪçĶŁ":3726,"å¢ŀéķ¿":3727,"èĲ¥åħ»":3728,"å¾Ĳ":3729,"ä¸įè¿ĩ":3730,"éĿł":3731,"åĨĻçļĦ":3732,"åİ»è·ĳæŃ¥":3733,"å»ºç«ĭ":3734,"åİŁæĸĩ":3735,"æĢİæł·":3736,"é¹¿":3737,"çļĦæŃĮæĽ²":3738,"ï¼Ł\\":3739,"æĽ´å¥½çļĦ":3740,"éĿ¢ç§¯":3741,"çī©è´¨":3742,"åºĶå¯¹":3743,"è¿Ļç¯ĩæĸĩç«łä¸ŃçļĦ":3744,"åħ´å¥ĭ":3745,"èĢģèĻİ":3746,"è·¯ä¸Ĭ":3747,"ç¥ŀç§ĺ":3748,"é²ģ":3749,"éŃĶ":3750,"åĶ±æŃĮ":3751,"åĳ¼åĲ¸":3752,"ä¸ĢèĪ¬":3753,"ä¸Ĭåįĩ":3754,"æįŁ":3755,"èµ¶":3756,"éľĢè¦ģæıĲä¾Ľ":3757,"è¯¥æĸĩæľ¬":3758,"åĲ«æľī":3759,"ä¹ĲæĦı":3760,"çĨŁ":3761,"ĶåŃĲ":3762,"çļĦåİŁåĽł":3763,"çļĦç¬ĳè¯Ŀ":3764,"ä»ĸéĿŀå¸¸":3765,"å¾Īæľīè¶£":3766,"æ³ķå¾ĭ":3767,"åıĳæĺİ":3768,"ä¹ĭåĲİ":3769,"éĥģ":3770,"å¤ªåĨ·":3771,"æĪĳä¸įèĥ½":3772,"çĭ¬ç«ĭ":3773,"å°Ĩä»¥ä¸ĭä¸¤ä¸ªåı¥åŃĲåĲĪå¹¶":3774,"è¿Ļæ®µæĸĩæľ¬":3775,"çĵ¶":3776,"ç¬¬ä¸Ģä½į":3777,"äºĴèģĶç½ĳ":3778,"åįļçī©é¦Ĩ":3779,"åĽº":3780,"ä½łåľ¨":3781,"çĥ¦":3782,"æµģè¡Į":3783,"ä¸ĸçķĮæĿ¯":3784,"å¤įåĲĪ":3785,"è£Ļ":3786,"ç¤¼çī©":3787,"12":3788,"±ä¹Ĳ":3789,"æľīä¸Ģ":3790,"åĩ¡":3791,"äººåľ¨":3792,"ä¾¯":3793,"æľĢå¥½":3794,"åı¯ä»¥åĳĬè¯īæĪĳ":3795,"ç©·":3796,"ç¼ĺ":3797,"æ²¡æľīæıĲä¾Ľ":3798,"èį·":3799,"ä»Ĭå¤©æĹ©ä¸Ĭ":3800,"æĢĿæĥ³":3801,"å¸®åĬ©æĤ¨":3802,"æĹłæ³ķåĽŀçŃĶ":3803,"èĳ¡èĲ":3804,"èľľ":3805,"åĨłåĨĽ":3806,"èĳ¡èĲĦ":3807,"åĩºä¸Ģä¸ª":3808,"éĢĽ":3809,"æĸ°çļĦåı¥åŃĲ":3810,"æ¸¯":3811,"æĪĸçŁŃè¯Ń":3812,"è¡¨è¾¾æĸ¹å¼ı":3813,"æŁ¥çľĭ":3814,"åĲ¬éŁ³ä¹Ĳ":3815,"æĿİåįİ":3816,"ç²¾ç¥ŀ":3817,"æī§è¡Į":3818,"æ¡ĮåŃĲ":3819,"åĸľé©¬æĭīéĽħå±±èĦī":3820,"æīĺ":3821,"æĻĴ":3822,"èµĭ":3823,"éĩįæĸ°æİĴåĪĹ":3824,"è²Į":3825,"è§Ī":3826,"å¿½":3827,"çĶ¨çļĦ":3828,"æĺİæľĪ":3829,"å®¶å±ħ":3830,"æĹłèģĬ":3831,"ä¿ĿéĻ©":3832,"èĥ¡":3833,"åķĨä¸ļ":3834,"çİĽä¸½":3835,"çĩĥ":3836,"åģ¥èº«æĪ¿":3837,"å¥¥è¿Ĳä¼ļ":3838,"è¯º":3839,"è¿ģ":3840,"åĲ¾":3841,"ç»ĺ":3842,"æĺ¯ä¸ŃåĽ½":3843,"å°º":3844,"åĩºåıĳ":3845,"æľĢå¤ļ":3846,"åĸľå¥½":3847,"å¸¸å¸¸":3848,"æ²¡æľīéĶĻåĪ«åŃĹ":3849,"åĵģç§į":3850,"è¾¾åĪ°":3851,"è¯»èĢħ":3852,"åºĶçĶ¨ç¨ĭåºı":3853,"æĹ©æĻ¨":3854,"è®²ä¸Ģä¸ª":3855,"åĵĪåĪ©":3856,"èĿ¶":3857,"ä¼ĳæģ¯":3858,"\"ãĢĤ<|":3859,"æĸľ":3860,"å°Ĩä¸ĭåĪĹåı¥åŃĲ":3861,"éĿ¢ä¸´":3862,"è¿Ľè¡Įæĳĺè¦ģ":3863,"ä¸ĭéĿ¢çļĦ":3864,"æŀģæĢ§":3865,"ä¸»é¢ĺæĺ¯":3866,"ä¸¤ä¸ªåįķè¯į":3867,"è®¾ç½®":3868,"ç¬¬ä¸ī":3869,"åĮĹäº¬å¸Ĥ":3870,"æľªæĿ¥çļĦ":3871,"èģĬèģĬ":3872,"ç¾İåĽ½æĢ»ç»Ł":3873,"èĩªåĬ¨é©¾é©¶":3874,"æ¼Ĥäº®çļĦ":3875,"è¿Ļä½į":3876,"è¿Ļä»½":3877,"åĪ¶å®ļ":3878,"é¸Łç±»":3879,"èĵĿèī²çļĦ":3880,"åŀĥåľ¾éĤ®ä»¶":3881,"èĸĦ":3882,"æ·±åº¦åŃ¦ä¹ł":3883,"é³":3884,"æĪĳè¦ģ":3885,"æľīåĬ©":3886,"æĤ¨çļĦéĹ®é¢ĺ":3887,"èī³":3888,"è¯Ĺåı¥":3889,"æ²¡æľīéĶĻè¯¯":3890,"èĤº":3891,"æİ¨è¿Ł":3892,"çĽ´æİ¥":3893,"ä½Ĩæĺ¯æĪĳ":3894,"ä¿®æĶ¹ä»¥ä¸ĭåı¥åŃĲ":3895,"è§£åĨ³æĸ¹æ¡Ī":3896,"è§Ĵèī²":3897,"ä»ĭç»įäºĨ":3898,"éĻĪè¿°åı¥":3899,"éī":3900,"è¾Ľ":3901,"æĮĩåįĹ":3902,"éĩįæĸ°è¡¨è¿°":3903,"æĪĲè¯ŃéĩĬä¹ī":3904,"æĦīæĤ¦":3905,"è¯ı":3906,"è¿ħ":3907,"çĶļ":3908,"ä¸ĭçļĦ":3909,"æ²Ł":3910,"æĹ¶æľŁ":3911,"åĬĽçļĦ":3912,"èĭį":3913,"å»·":3914,"åĿĢ":3915,"æĻ¯èī²":3916,"ä½Ĩä»ĸè¿ĺæĺ¯":3917,"ä¸ºä¸Ģåı¥è¯Ŀ":3918,"æĪĲä¸Ģåı¥è¯Ŀ":3919,"åĴĮæĺĵäºİçĲĨè§£":3920,"å½¼":3921,"æ¯ķ":3922,"å®ŀéĻħ":3923,"çľĭçĶµè§Ĩ":3924,"éĵ¾":3925,"å¤ľæĻļ":3926,"æıĲä¾Ľä¸Ģä¸ªæłĩé¢ĺ":3927,"èħ¾":3928,"è¯·éĹ®æĤ¨éľĢè¦ģ":3929,"ä»¥ä¸Ĭ":3930,"æĹĹ":3931,"å¸Ń":3932,"ä½łæľīä»Ģä¹Ī":3933,"äºİæĺ¯":3934,"æĺİçĻ½":3935,"å¹¶è¦ģæ±Ĥ":3936,"æĶ¹è¿Ľ":3937,"åŃĹç¬¦":3938,"ä¸ĸçķĮä¸ĬæľĢå¤§çļĦ":3939,"ä½łèĥ½åĳĬè¯īæĪĳ":3940,"è¯·æıĲåıĸåĩº":3941,"ç¼ºä¹ı":3942,"åĽ¢éĺŁ":3943,"æľīå¤ļå°ĳ":3944,"ä¸įå¾Ĺ":3945,"ç»ĻæĤ¨":3946,"å¯º":3947,"çĽŁ":3948,"åĳĨ":3949,"å¦»":3950,"èĤ´":3951,"å°½åĬĽ":3952,"åĬ©æīĭ":3953,"æĳ©":3954,"äº¤æµģ":3955,"è¶³å¤Ł":3956,"åºĶè¯¥æĺ¯":3957,"äºļæ´²":3958,"æĺ¯æŃ£éĿ¢":3959,"éĢ¢":3960,"è¯·æ±Ĥ":3961,"ä¿Ħ":3962,"å¤§çº¦":3963,"çĤ¸":3964,"è¿Ľåħ¥":3965,"æģĴ":3966,"çĸı":3967,"èįĴ":3968,"ä¸ĩçī©":3969,"æīĢä»¥ä»ĸ":3970,"è®¸å¤ļäºº":3971,"ä¹°äºĨä¸ĢäºĽ":3972,"æµªæ¼«":3973,"25":3974,"åĩĢ":3975,"éĢ»":3976,"ç»ĦåĲĪ":3977,"å°½ç®¡ä»ĸå¾Ī":3978,"è¿½æ±Ĥ":3979,"éŃĤ":3980,"åįļå®¢":3981,"æł¸å¿ĥ":3982,"|>\"":3983,"æĪĳè§īå¾Ĺ":3984,"å¤ļä¸ª":3985,"éĩĮéĿ¢":3986,"è·ĥ":3987,"åįģäºĮ":3988,"æĪĳæĥ³è¦ģ":3989,"å¾®é£İ":3990,"ä¸ģ":3991,"ä¸Ģé¡¹":3992,"åįľ":3993,"éĢĴ":3994,"æĢĸ":3995,"è¡ĮæĶ¿":3996,"æłĩè¯Ń":3997,"éļľ":3998,"çĭĤ":3999,"çĪ¸":4000,"æĢ§éĹ®é¢ĺ":4001,"èĪį":4002,"æ¨ª":4003,"ãĢĭï¼Į":4004,"æĺİå¤©çļĦå¤©æ°Ķ":4005,"æĳĺåıĸ":4006,"ä¸ĢçĤ¹":4007,"å®¡":4008,"è¿Ļåº§":4009,"éģ£":4010,"ç»ıè¿ĩ":4011,"çĭĹçĭĹ":4012,"ä»ĸä»¬åľ¨":4013,"å®īæİĴ":4014,"èĮ«":4015,"æķ´ä¸ª":4016,"è®°å½ķ":4017,"æ¯ĶèµĽä¸Ń":4018,"æŀĦéĢł":4019,"æĸĩç«łä¸ŃæıĲåĪ°çļĦ":4020,"çĺ":4021,"æĪ´":4022,"ä¹Į":4023,"çĶĺ":4024,"æĽ¼":4025,"éĶ¦":4026,"ä»Ģä¹Īæł·çļĦ":4027,"æĦıè§ģ":4028,"çľĭäºĨä¸Ģ":4029,"æĺ¯ä¸Ģéĥ¨":4030,"éĩįåĨĻä»¥ä¸ĭåı¥åŃĲä»¥":4031,"æ»¡è¶³":4032,"ä½Ĩä»ĸä»įçĦ¶":4033,"çľŁçļĦå¾Ī":4034,"å¼ĢæĶ¾å¼ı":4035,"å¤įåĲĪåı¥":4036,"ä¸Ģçīĩ":4037,"åĲŁ":4038,"æĪĳçĪ±":4039,"æĪĳæĺ¯ä¸Ģä¸ª":4040,"ä¸įä½³":4041,"è¯·æĬĬ":4042,"ä»¥ä¸ĭæĺ¯":4043,"çĶ¨æĿ¥":4044,"è¿Ļä¸ªçĶµå½±":4045,"æıĲä¾Ľä¸ĢäºĽ":4046,"ç¾½":4047,"ä¸¤åı¥è¯Ŀ":4048,"å²©":4049,"åıĤä¸İ":4050,"å¿ħè¦ģ":4051,"ï¼ī<|":4052,"éħĴåºĹ":4053,"ç»Ļå®ļä¸Ģä¸ªéĹ®é¢ĺ":4054,"åĵĪåĵĪ":4055,"çĶ·åŃ©":4056,"è¿ŁåĪ°äºĨ":4057,"åĨľä¸ļ":4058,"èĤ¯å®ļ":4059,"éĢ»è¾ĳ":4060,"çļĦæııè¿°":4061,"çļĦåĬ¨çī©":4062,"æľ±":4063,"éĹ¹":4064,"æĥľ":4065,"ä¾į":4066,"æľĢå¤§":4067,"æłĩåĩĨ":4068,"çİ°å®ŀ":4069,"å°ıçĮ«":4070,"æģ°":4071,"çŃīå¾ħ":4072,"ä¸ĸçºª":4073,"èĩªçĦ¶çģ¾å®³":4074,"æĹħæ¸¸æĻ¯çĤ¹":4075,"AIè¯Ńè¨Ģæ¨¡åŀĭ":4076,"ç¾İåĳ³çļĦ":4077,"éĿŀå¸¸æĦŁè°¢ä½łçļĦ":4078,"æģĲæĢĸ":4079,"éī´":4080,"æĺ¯ä¸ª":4081,"åİ¨":4082,"åĮ¹":4083,"å¦ĩ":4084,"è´«":4085,"æĮº":4086,"å¥¹åľ¨":4087,"ä¸īç§į":4088,"éĥ¡":4089,"èĬ±å¼Ģ":4090,"ä½¿åħ¶æĽ´åĬłæ¸ħæĻ°":4091,"è¿Ļåı¥è¯Ŀåľ¨ä¸ŃåĽ½":4092,"æ¢¨":4093,"ä¸ĩéĩĮ":4094,"åĲĮä¹īè¯įæĪĸ":4095,"ç®Ģåįķåı¥":4096,"è°ĥæŁ¥":4097,"æĸĩæľ¬ä¸ŃçļĦéĶĻè¯¯":4098,"æ±¤å§Ĩ":4099,"æĴ°åĨĻ":4100,"çĭ®åŃĲ":4101,"è¿Ļåı¥è¯Ŀåľ¨ä¸ŃåĽ½åı¤ä»£æĢİä¹Īè¯´":4102,"æĸĩæĺİ":4103,"çĶŁçĹħ":4104,"å°ĨåĨĽ":4105,"èĩªæĪĳ":4106,"çĻ¼":4107,"èĤ¤":4108,"æĢĿå¿µ":4109,"æİ¨åĩº":4110,"ãĢĭãĢĤ<|":4111,"èĦı":4112,"éļ¾ä»¥":4113,"çĭ¬çī¹":4114,"åĬŀåħ¬":4115,"ä¸ĸçķĮä¸ĬæľĢé«ĺçļĦå±±å³°æĺ¯ä»Ģä¹Ī":4116,"å®Įæķ´çļĦåı¥åŃĲ":4117,"ç°":4118,"äºŃ":4119,"åį§":4120,"åįł":4121,"è¡«":4122,"åĩºçĶŁ":4123,"éĢĨ":4124,"éĺ¶":4125,"æģ¨":4126,"éķ¿åŁİ":4127,"ç¨İ":4128,"æĻļé¥Ń":4129,"è§Ĩé¢ĳ":4130,"äººç±»çļĦ":4131,"åĦ¿ç«¥":4132,"çªģçĦ¶":4133,"æĪĳæĺİå¤©":4134,"æĹĭ":4135,"å¸ģ":4136,"ä»ĸè¯´":4137,"åĵ²":4138,"å°Ĩç»Ļå®ļçļĦ":4139,"å¦¹":4140,"æĤ¨æĥ³è¦ģ":4141,"åľ°ä¸Ĭ":4142,"éģ¥":4143,"æ¶Īæģ¯":4144,"æĶ¾åľ¨":4145,"çĻ½äºĳ":4146,"æĸ¯åĿ¦":4147,"æĦŁåĪ°å¾Ī":4148,"å¾·åĽ½":4149,"ä¼ģé¹ħ":4150,"ä¹Ķæ²»":4151,"å¾¡":4152,"ä¸įéľĢè¦ģ":4153,"å±ı":4154,"æ±ģ":4155,"åıĳéĢģ":4156,"è¡¨æ¼Ķ":4157,"ç¨¿":4158,"åĽłä¸ºå®ĥä»¬":4159,"é¢Ĩå¯¼":4160,"å¥³æĢ§":4161,"æľīåĬ©äºİ":4162,"çļĦåĽŀçŃĶ":4163,"èĢĲ":4164,"éĩįçĤ¹":4165,"æĹ¥å¸¸":4166,"å¹³è¡¡":4167,"å¸®æĪĳæĬĬè¿Ļåı¥è¯Ŀç¿»è¯ĳæĪĲæĸĩè¨Ģæĸĩ":4168,"çĽ¸åħ³çļĦéĹ®é¢ĺ":4169,"çİ¯å¢ĥæ±¡æŁĵ":4170,"çĶŁæ´»æĸ¹å¼ı":4171,"ä¿ĿæĬ¤çİ¯å¢ĥ":4172,"è½¬æį¢æĪĲ":4173,"åı¬":4174,"ä¸Ģæ¬¾":4175,"æĪĳæĺ¯":4176,"è¿Ļä¹Ī":4177,"äººåĳĺ":4178,"è¯·æł¹æį®":4179,"æĽ´åħ·ä½ĵ":4180,"åı¯ä»¥åľ¨":4181,"è°ĭ":4182,"æĦŁåĨĴ":4183,"å¤ļæł·":4184,"ä¸ŃçļĦéĶĻåĪ«åŃĹ":4185,"éĴĵ":4186,"è¥¿çĵľ":4187,"é£ŀè¡Į":4188,"åħĥç´ł":4189,"çĳŁ":4190,"æ¯ıå¤©éĥ½":4191,"åī§æĥħ":4192,"æĺ¯åĵªéĩĮ":4193,"åį¢":4194,"æıĲåįĩ":4195,"æĢĴ":4196,"æ²®":4197,"åģ¶":4198,"éģŃ":4199,"å¹¶å°Ĩåħ¶":4200,"åı¤èĢģ":4201,"çĮª":4202,"å£ģ":4203,"æŁ¥ä¸Ģä¸ĭ":4204,"ç¬¬ä¸Ģä¸ª":4205,"æīĵç¯®çĲĥ":4206,"ä¸ľäº¬":4207,"åĭķ":4208,"å¾Īå¥½åĲĥ":4209,"è½»æĿ¾":4210,"çĶ±äºİå¤©æ°Ķä¸įå¥½":4211,"æł¹æį®æıĲä¾ĽçļĦæĸĩæľ¬":4212,"èĴĻ":4213,"æĵįä½ľ":4214,"ä¸Ńæī¾åĪ°":4215,"äººåı£":4216,"ä¸»ä¹ī":4217,"æĹ¥åŃĲ":4218,"åıĤè§Ĥ":4219,"çļĦè¯Ńåı¥":4220,"èĥľåĪ©":4221,"é¼»":4222,"åŀĥåľ¾åĪĨç±»":4223,"éĻĲåĪ¶":4224,"æ·»åĬłä¸Ģä¸ª":4225,"æĪĳå¾Īé«ĺåħ´èĥ½å¤Ł":4226,"å°Ĩä¸ĭéĿ¢åı¥åŃĲç¿»è¯ĳæĪĲæĸĩè¨Ģæĸĩ":4227,"çļĦåİĨåı²":4228,"çļĦæĳĺè¦ģ":4229,"å¤®":4230,"ä»ĸè¿ĺæĺ¯":4231,"æĻĤ":4232,"æĥħå¢ĥ":4233,"çī©ä½ĵ":4234,"å¼Ģå¤´":4235,"åı¤æĸĩ":4236,"åįģå¹´":4237,"æļĤ":4238,"é¢Ħéĺ²":4239,"å¸®æĪĳæĥ³":4240,"çļĩå¸Ŀ":4241,"è®¿éĹ®":4242,"16":4243,"çļĦä¸Ģä¸ª":4244,"åħĦ":4245,"åİĮ":4246,"æī©":4247,"å°Ĩç»Ļå®ļçļĦåı¥åŃĲ":4248,"è´¡":4249,"åī©":4250,"å½ĵæĹ¶":4251,"èµ·åºĬ":4252,"åıªæĺ¯":4253,"åŃ¦ä¹łç¼ĸç¨ĭ":4254,"æ¼«æŃ¥":4255,"æĽ¾ç»ı":4256,"çĽĳçĿ£":4257,"è°·æŃĮ":4258,"å°Ĩä¸ĭéĿ¢åı¥åŃĲç¿»è¯ĳæĪĲçİ°ä»£æĸĩ":4259,"è«":4260,"çļĦé¤Ĳåİħ":4261,"æľīäºº":4262,"åı¥åŃĲä¸Ń":4263,"éĢĥ":4264,"æĢª":4265,"ç®Ģç»ĥ":4266,"æĪĸä¸ŃæĢ§":4267,"æľºæŀĦ":4268,"å¢Ļ":4269,"æľªçŁ¥":4270,"ä»ĸä»¬æŃ£åľ¨":4271,"åģļä»Ģä¹Ī":4272,"è±ª":4273,"ç²®":4274,"åķĨåľº":4275,"é¥®æĸĻ":4276,"____":4277,"çļĦäºĭå®ŀ":4278,"è³":4279,"æĺı":4280,"æĪĳæľī":4281,"çĽĲ":4282,"åīĳ":4283,"çĮİ":4284,"ç»Ļåĩºä¸ĭèģĶ":4285,"åıĭå¥½":4286,"è£ģ":4287,"è¯·æıĲä¾ĽæĽ´å¤ļ":4288,"çģ«æĺŁ":4289,"çĬ¶æĢģ":4290,"èĲ¥éĶĢ":4291,"å¿ĺè®°":4292,"æĶ¹æŃ£æĸĩæľ¬ä¸ŃçļĦéĶĻè¯¯":4293,"å§ĵåĲį":4294,"è¿«":4295,"åĩ¤":4296,"å¥½åĲĥ":4297,"æŀ¯":4298,"è´¸":4299,"ç®Ģè¦ģ":4300,"éĿŀæ´²":4301,"æ¶¯":4302,"ç¿»è¯ĳæĪĲåı¤æĸĩ":4303,"æŃ»äº¡":4304,"åĨ¬å¤©":4305,"åĪĽä½ľä¸Ģé¦ĸ":4306,"ç¼ĵè§£":4307,"åĲĮä¹īåı¥":4308,"æ²®ä¸§":4309,"å¤·":4310,"ä¸ĭä¸Ģä¸ª":4311,"åĩĮ":4312,"å¾Ĵ":4313,"æĿ¥äºĨ":4314,"æĤ¨æĥ³":4315,"è¿Ľè¡ĮæĥħæĦŁåĪĨæŀĲ":4316,"è¿ĺéľĢè¦ģ":4317,"è¢ĸ":4318,"æĻºèĥ½å®¶å±ħ":4319,"çŁŃåı¥":4320,"æĺ¯åĲ¦ä¸º":4321,"ä¸Ģæ®µè¯Ŀ":4322,"æĽ´åĬłç®Ģæ´ģ":4323,"æķ°åŃ¦éĹ®é¢ĺ":4324,"åĪ·":4325,"ä¸įå¤ª":4326,"ä½łæľĢåĸľæ¬¢çļĦ":4327,"åİ»æ¸¸æ³³":4328,"ä¸ŃçļĦæīĢæľī":4329,"æĹłéĻĲ":4330,"è¯¥éĹ®é¢ĺ":4331,"å§Ĳ":4332,"æ¼ł":4333,"å½¢çļĦ":4334,"èĬĤçº¦":4335,"æĦ¿æĦı":4336,"å¯¹ä»¥ä¸ĭåı¥åŃĲè¿Ľè¡ĮæĶ¹åĨĻ":4337,"âĢ¦âĢ¦":4338,"çļĦæĥħåĨµ":4339,"åŃĿ":4340,"æĪĳçİ°åľ¨":4341,"æĺ¯æľĢ":4342,"å¾ª":4343,"æıŃ":4344,"ä¼°":4345,"æŀ¶":4346,"æ®Ĭ":4347,"ç»Ļåĩºä¸Ģåı¥è¯Ŀ":4348,"æľŁéĹ´":4349,"è¯·æıĲä¾ĽéľĢè¦ģ":4350,"æĪĺäºī":4351,"è§£åĨ³éĹ®é¢ĺ":4352,"åį³åı¯":4353,"è¿Ļå®¶é¤Ĳåİħ":4354,"æ°¸è¿ľ":4355,"çļĦåĲ«ä¹īæĺ¯ä»Ģä¹Ī":4356,"å¤ªå¥½äºĨ":4357,"ä»°":4358,"ä»ĸæŃ£åľ¨":4359,"å¤§çĨĬçĮ«":4360,"ç»Ļå®ļä¸Ģç¯ĩæĸĩç«ł":4361,"ç¿Ķ":4362,"ä½¿åħ¶æĽ´åĬłç®Ģæĺİæī¼è¦ģ":4363,"èĦ±":4364,"æĪĳçļĦæľĭåıĭ":4365,"æĹ¶éĹ´åĴĮ":4366,"éª¤":4367,"èħ¿":4368,"æ½º":4369,"å¯¹æĸĩæľ¬éĶĻè¯¯è¿Ľè¡ĮçºłæŃ£":4370,"åŃĹæ¯įé¡ºåºı":4371,"æĦıå¤§åĪ©éĿ¢":4372,"å¤ªéĺ³ç³»ä¸Ń":4373,"æİĮæı¡":4374,"åİĺ":4375,"çĽĪ":4376,"å¼±":4377,"ç»Ļå®ļä¸Ģæ®µæĸĩæľ¬":4378,"ä½ľå®¶":4379,"è¿Ľä¸ĢæŃ¥":4380,"çľĭåĪ°äºĨ":4381,"è¿Ľè¡Įè¯Ńæ³ķ":4382,"æĻºæħ§":4383,"ç¿»è¯ĳæĪĲä¸Ńæĸĩ":4384,"é¸Ń":4385,"å¸®æĪĳæĬĬè¿Ļåı¥è¯Ŀç¿»è¯ĳæĪĲçİ°ä»£æĸĩ":4386,"åĲ¬åĪ°":4387,"è¾ĵåħ¥æĸĩæľ¬":4388,"åı¯èĥ½çļĦ":4389,"èľĤ":4390,"ä½ĨæĪĳè¿ĺæĺ¯":4391,"å¥ī":4392,"ä¸ºä»¥ä¸ĭæĸĩæľ¬":4393,"æ°Ľ":4394,"è¯·æĶ¹åĨĻä»¥ä¸ĭåı¥åŃĲ":4395,"è¾£":4396,"æĺİæĺ¾":4397,"å·¥ä¸ļ":4398,"æĶ¹æĪĲ":4399,"æĺ¯ä¸ĢåĲį":4400,"åĳĺå·¥":4401,"é¸ŁåĦ¿":4402,"å¨±ä¹Ĳ":4403,"æ³¢çī¹":4404,"ä½įäºİåĸľé©¬æĭīéĽħå±±èĦī":4405,"è·³èĪŀ":4406,"è·ŁæĪĳ":4407,"çļĦé£Łçī©":4408,"æĪĳåĨ³å®ļ":4409,"ç»Ļä»¥ä¸ĭåı¥åŃĲ":4410,"å°Ĩè¿Ļä¸ªåı¥åŃĲ":4411,"æĸ°åŀĭ":4412,"èĬĴ":4413,"åĬĽåĴĮ":4414,"åĪ«äºº":4415,"éĩįåĨĻä¸ĭéĿ¢è¿Ļä¸ªåı¥åŃĲ":4416,"çģŃ":4417,"çĻ½è¯Ŀ":4418,"åĽ¾åĥı":4419,"èµ°äºĨ":4420,"æĲŃ":4421,"æĪĲåĬŁçļĦ":4422,"ä»ģ":4423,"åľ¨æŃ¤":4424,"ä¸įåĪ°":4425,"å¤§èĩªçĦ¶":4426,"å¤ļç§į":4427,"å®¶äºº":4428,"å°ıçº¢":4429,"ä»İä»¥ä¸ĭ":4430,"åħ¬åħ±":4431,"æĹłäºº":4432,"ç¿»è¯ĳæĪĲçĻ½è¯Ŀ":4433,"é¢Ħç®Ĺ":4434,"è¿Ļåı¥è¯Ŀåľ¨":4435,"æ¨¡æĭŁ":4436,"æķ°æį®éĽĨ":4437,"å¼ºçĥĪ":4438,"ä¸¾åĬŀ":4439,"ç²¾å½©":4440,"åİ»åħ¬åĽŃæķ£æŃ¥":4441,"åıĹæ¬¢è¿İçļĦ":4442,"ç¿»è¯ĳæĪĲçĻ½è¯Ŀæĸĩ":4443,"çļĦè¯Ńæ³ķ":4444,"çļĦçīĪæľ¬":4445,"å¤º":4446,"åŃĲçļĦ":4447,"ä¸įä»ħ":4448,"æĹ¶åħī":4449,"èĬ¬":4450,"å®ĥæĺ¯":4451,"çķª":4452,"æĢ§åĴĮ":4453,"ç¡¬":4454,"æ¸ħåįķ":4455,"åĪĨåĪ«æĺ¯":4456,"åı¯æĮģç»Ńåıĳå±ķ":4457,"è¿Ļåı¥è¯Ŀåľ¨åı¤ä»£æĢİä¹Īè¯´":4458,"æľīçĽĬ":4459,"æĹģ":4460,"ä¼Ł":4461,"æıĲéĹ®":4462,"åİ»æķ£æŃ¥":4463,"éĽ¾":4464,"èī²å½©":4465,"è¯´è¯Ŀ":4466,"åĽŀçŃĶä»¥ä¸ĭéĹ®é¢ĺ":4467,"åĲ¦å®ļ":4468,"åŁİå¸ĤçļĦ":4469,"èĬĤçĽ®":4470,"å°½ç®¡å¥¹":4471,"èıľèĤ´":4472,"åłµ":4473,"æĪ·å¤ĸæ´»åĬ¨":4474,"å¦Īå¦Ī":4475,"çļĦå°ıè¯´":4476,"å®¿":4477,"æĺ¯äººç±»":4478,"æĸ°é²ľ":4479,"èī¾":4480,"éĤĢ":4481,"æıĲåıĸæĸĩç«łä¸ŃçļĦ":4482,"ï¼ģâĢĿ":4483,"çĶŁæĪĲä¸Ģä¸ªç®ĢçŁŃçļĦ":4484,"åħ¨åĽ½":4485,"åĨįçĶŁ":4486,"æĸĩç«łä¸ŃæıĲåıĸåĩº":4487,"è¿Ļæĺ¯ä¸Ģæ®µ":4488,"èº«ä½ĵåģ¥åº·":4489,"èİ·å¾ĹäºĨ":4490,"æ´¾å¯¹":4491,"æľīæĦıä¹īçļĦåı¥åŃĲ":4492,"ç¨³å®ļ":4493,"çļĦé¢ĨåŁŁ":4494,"ä¸Ģéģį":4495,"æĺĤ":4496,"è¿Ļä¸Ģ":4497,"è¿Ļæľ¬":4498,"åĴ¨":4499,"æĪĲéķ¿":4500,"æĿī":4501,"ç«Ł":4502,"ä¸ĬäºĨ":4503,"çŁ¶":4504,"çĶŁæĪĲä¸ĢæĿ¡":4505,"åīįæĻ¯":4506,"ä¿ĿçķĻ":4507,"å»ºè®¾":4508,"èĤł":4509,"çľŁæŃ£":4510,"å¤ĸå¥Ĺ":4511,"åºĶçĶ¨é¢ĨåŁŁ":4512,"åĲĳæĪĳ":4513,"éŁ³ä¹Ĳä¼ļ":4514,"æĪĳå¾Īä¹ĲæĦı":4515,"æĪĳåı¯ä»¥å¸®æĤ¨":4516,"æĸĩè¨Ģæĸĩç¿»è¯ĳ":4517,"ä¸ĭéĽ¨äºĨ":4518,"çĶ¨ä¸Ģåı¥è¯Ŀæııè¿°":4519,"æł¹æį®ä»¥ä¸ĭè¾ĵåħ¥":4520,"è¯·ä¸ºæĪĳ":4521,"æĶ¹æŃ£æĸĩæľ¬éĶĻè¯¯":4522,"æĴŃæĶ¾":4523,"çļĦç»ĵæŀľ":4524,"ä¸ºé¢ĺ":4525,"æĬĵ":4526,"æķı":4527,"ä¸ĬåŃ¦":4528,"æĽ´æ¸ħæĻ°":4529,"éĺģ":4530,"ä½Ĩä¸į":4531,"ç¿©":4532,"è·µ":4533,"äºĭçī©":4534,"è§£è¯»":4535,"æ¸ħé£İ":4536,"å¤ĸéĿ¢":4537,"åİ»äºĨè¶ħå¸Ĥ":4538,"å¼ºè°ĥ":4539,"éŃı":4540,"èį¯çī©":4541,"æĽ´ç®ĢåįķçļĦè¯Ńè¨Ģ":4542,"èĬ±åĽŃéĩĮ":4543,"é¬¼":4544,"æŃ§":4545,"æķĮ":4546,"è¾ī":4547,"éĶħ":4548,"æĭĴ":4549,"èµł":4550,"æľĢæĸ°çļĦ":4551,"åıĸåĨ³":4552,"è´¤":4553,"ä¸»äºº":4554,"é«ĺæķĪ":4555,"æ®¿":4556,"æ¶¨":4557,"æ··":4558,"åħ³éĶ®ä¿¡æģ¯":4559,"é¥°":4560,"ç»ĵæĿŁ":4561,"é¢Ħè®¡":4562,"åºĶçĶ¨äºİ":4563,"èĢģé¼ł":4564,"å°¼æ³Ĭ":4565,"çĪ¶äº²":4566,"åģıå¥½":4567,"å¸¸è§ģçļĦ":4568,"è¯·åľ¨":4569,"åĳĪ":4570,"æĿ¥çļĦ":4571,"å¤§å¤ļ":4572,"æ¬¢ä¹Ĳ":4573,"ä»İèĢĮ":4574,"èİİ":4575,"åı£æĦŁ":4576,"æĺİå¤©æĹ©ä¸Ĭ":4577,"åĽ¾çīĩ":4578,"æĪĳåı¯ä»¥ä¸ºæĤ¨":4579,"æ²Ļæĭī":4580,"æ¯įäº²":4581,"æľĢåĸľæ¬¢çļĦçĶµå½±":4582,"æľ¨æĺŁ":4583,"...":4584,"ç´§å¼ł":4585,"ä¿ĥè¿Ľ":4586,"å°¼æ³Ĭå°Ķ":4587,"åħ¼":4588,"è¦Ĩ":4589,"ä»Ģä¹Īç±»åŀĭçļĦ":4590,"åķ¼":4591,"èĦ¸":4592,"èĭ¹æŀľåĴĮ":4593,"æłĳåı¶":4594,"æĲº":4595,"ä¼ĺçĤ¹":4596,"åĤ¨":4597,"æĺ¯åĵªåº§":4598,"éŀĭåŃĲ":4599,"ä¸Ģéģĵ":4600,"åİĤ":4601,"å¾Īå¥½çļĦ":4602,"æĹ¶æĢģ":4603,"éĻª":4604,"æģĭ":4605,"éĤ»":4606,"æĹłè®º":4607,"å¿ĥä¸Ń":4608,"çĶŁæĪĲä¸Ģä¸ªåħ³äºİ":4609,"å°±ä¼ļ":4610,"æķĪæŀľ":4611,"åĬªåĬĽå·¥ä½ľ":4612,"å¦ĤæŀľæĤ¨è¿ĺæľīåħ¶ä»ĸéĹ®é¢ĺ":4613,"çŃĸçķ¥":4614,"è¿Ļé¦ĸæŃĮ":4615,"è¯¾ç¨ĭ":4616,"éķ¿çļĦæ²³æµģ":4617,"åıĸåĨ³äºİ":4618,"Ġ'":4619,"æĪĳè¿ĺ":4620,"ä¸ºç»Ļå®ļçļĦåı¥åŃĲ":4621,"åı¥åŃĲä¸ŃçļĦ":4622,"åĴı":4623,"è®¯":4624,"åĴĮä½ł":4625,"è®©GPTæ¨¡åŀĭ":4626,"åĪĹä¸¾":4627,"å®Įç¾İ":4628,"æ¸ħæ¥ļ":4629,"æĥħæĦŁæŀģæĢ§":4630,"å²Ĺ":4631,"åĲĮä¹īè¯įæĽ¿æį¢":4632,"ç¥ŀç»ı":4633,"é¹¤":4634,"æĻ´å¤©":4635,"éĩįæĸ°åĨĻä¸ĭ":4636,"ä¸ºä¸Ģç¯ĩåħ³äºİ":4637,"å¤ķéĺ³":4638,"çĻĮçĹĩ":4639,"å®´":4640,"æĪĲå°±":4641,"åºĻ":4642,"çĤĴ":4643,"çĶŁæĪĲä¸Ģä¸ªåı¥åŃĲ":4644,"ä¸»é¢ĺä¸º":4645,"éħ±":4646,"çĥŃéĹ¨":4647,"åħ±æľī":4648,"æĸĩç«łä¸ŃæıĲåĪ°äºĨ":4649,"å¢ŀå¼º":4650,"é»ĳèī²":4651,"å¯Įæľī":4652,"åĿĲåľ¨":4653,"ä¾ĿçĦ¶":4654,"è¿Ļå®¶é¤ĲåİħçļĦé£Łçī©":4655,"æ´ĽæĿī":4656,"éĻĦè¿ĳçļĦ":4657,"é²¸é±¼":4658,"è¿ħéĢŁ":4659,"æ´ĽæĿīçŁ¶":4660,"åĩ¯":4661,"ä¸įè¶³":4662,"åİī":4663,"åĩºäºĨ":4664,"ä½łçŁ¥éģĵ":4665,"å¤§åľ°":4666,"æ²¡èĥ½":4667,"ä¸īè§Ĵ":4668,"çĥĤ":4669,"èĤĸ":4670,"å°½å¿«":4671,"æŃ¥éª¤":4672,"æļĳ":4673,"æĺĵè¯»":4674,"æĢģåº¦":4675,"çİĭæĺŁ":4676,"å°Ĩä»¥ä¸ĭåı¥åŃĲæĶ¹åĨĻæĪĲ":4677,"å¤±æľĽ":4678,"æĲŀ":4679,"åĭĩæķ¢":4680,"æĸĳ":4681,"ä¸ĭéĻį":4682,"è¡¬":4683,"æĸĩæľ¬åĨħå®¹":4684,"èĢĹ":4685,"æ²¿":4686,"ç»Ļå®ļä¸Ģç»Ħ":4687,"è´¯":4688,"è´´":4689,"åĪĨä¸º":4690,"æłĩè®°":4691,"çİ°è±¡":4692,"æĪĳä»¬åºĶè¯¥":4693,"éĥĳ":4694,"æĺŁçĲĥ":4695,"è¿ĳæľŁ":4696,"å±ķç¤º":4697,"æĺ¨å¤©æĻļä¸Ĭ":4698,"åĦ¿åŃĲ":4699,"æŀĦå»º":4700,"éĢĤå½ĵçļĦæłĩçĤ¹ç¬¦åı·":4701,"è¿Ļåľºæ¯ĶèµĽ":4702,"ä¸ĳ":4703,"åľ¨ä¸Ģä¸ª":4704,"ä¸įçŁ¥":4705,"è§¦":4706,"æł¹æį®çĶ¨æĪ·":4707,"åĮĸåŃ¦":4708,"ç¼ĸåĨĻä¸Ģä¸ªæłĩé¢ĺ":4709,"å¼ķäºº":4710,"å¯¼æ¼Ķ":4711,"ç´¯äºĨ":4712,"å²ģæľĪ":4713,"èĭ±æĸĩæĸĩæľ¬":4714,"çĽ¸åıįçļĦåı¥åŃĲ":4715,"åĴ¨è¯¢":4716,"çļĦè¡¨è¾¾æĸ¹å¼ı":4717,"åį¿":4718,"å¥½äºĨ":4719,"åĵĩ":4720,"è¾ħ":4721,"å¾Īå¤§":4722,"å¯¹ä»¥ä¸ĭ":4723,"çī©ç§į":4724,"çĽ¸å¯¹":4725,"åĽŀæĶ¶":4726,"é£İéĽ¨":4727,"éĤ£è¯·ä½ł":4728,"é¥¿":4729,"çī¹èī²":4730,"ç©ºéĹ´":4731,"ãĢĭãĢĤ":4732,"å»ºè®®æĤ¨":4733,"è¿ĺæľīä»Ģä¹Ī":4734,"ä¼ĺåĮĸ":4735,"ç»Ħç»ĩåĲį":4736,"åĲįè¯įçŁŃè¯Ń":4737,"æľºåĻ¨åŃ¦ä¹łçļĦ":4738,"çĸ²åĢ¦":4739,"ä¸ĢçĽ´åľ¨":4740,"è¸ı":4741,"å¹½é»ĺ":4742,"çļĦæĬĢæľ¯":4743,"åŃĶ":4744,"åĨ¥":4745,"åľ¨ä¸Ģèµ·":4746,"ä¸ºç»Ļå®ļçļĦæĸĩæľ¬":4747,"æĪĲä¸Ģä¸ªåı¥åŃĲ":4748,"å¯¸":4749,"æ´ª":4750,"æ³ķè§Ħ":4751,"è¿ĽæŃ¥":4752,"çĥ¹":4753,"ç¿»è¯ĳçļĦ":4754,"è¢«åıĸæ¶ĪäºĨ":4755,"æľĪäº®":4756,"ä¹Łåĸľæ¬¢":4757,"ä¸Ģä¸ĭåĲĹ":4758,"å¹³æĸ¹":4759,"è£¤":4760,"éĻ¤äºĨ":4761,"ç½Ĺæĸ¯":4762,"æľīæīĢå¸®åĬ©":4763,"Ŀåįľ":4764,"çļĦä½įç½®":4765,"æľīè®¸å¤ļ":4766,"åĨĻä¸Ģç¯ĩ":4767,"æ°Ķè±¡":4768,"çĶŁæĪĲä¸Ģåı¥è¯Ŀ":4769,"çĦ¶èĢĮ":4770,"é¡µ":4771,"å¿ĥèĦı":4772,"éĤ£äºĽ":4773,"ãĢĤâĢĿâĢľ":4774,"ç¨ĭåº¦":4775,"æľŁå¾ħ":4776,"åİ»äºĨåħ¬åĽŃ":4777,"é»Ħèī²":4778,"éĿĴå±±":4779,"éĶ»çĤ¼èº«ä½ĵ":4780,"åĪĽéĢłä¸Ģä¸ª":4781,"éĩİé¤Ĳè®¡åĪĴ":4782,"èģĶç³»æĪĳ":4783,"å°¤åħ¶æĺ¯":4784,"´èĿ¶":4785,"åľĭ":4786,"æľīçĿĢ":4787,"æ°Ķä½ĵ":4788,"å¯¹ä¸ĭéĿ¢çļĦæĸĩæľ¬":4789,"è°Ĭ":4790,"èĬĿ":4791,"è¿Ľè¡Įåı¤è¯Ĺç»ŃåĨĻ":4792,"çĶŁæĪĲä¸Ģä¸ªéĹ®é¢ĺ":4793,"çģ°":4794,"éļıçĿĢ":4795,"èıľåįķ":4796,"èĽĩ":4797,"Ġåħ¶ä¸ī":4798,"è¿½éĢĲ":4799,"èĿ´èĿ¶":4800,"åĹ¯":4801,"ç¬¬äºĮä¸ª":4802,"åŃĹç¬¦ä¸²":4803,"çļĦåħ³ç³»":4804,"ç»µ":4805,"äººç§°":4806,"ä½łæĺ¯":4807,"æĬµ":4808,"ä½¿å®ĥ":4809,"æĮĤ":4810,"å¹¶ä¿ĿæĮģ":4811,"ä»İä»¥ä¸ĭæĸĩæľ¬":4812,"å¾ĹåĪ°äºĨ":4813,"è¢Ń":4814,"ä¸ļåĬ¡":4815,"åĪĽå§ĭ":4816,"çº¢æ¥¼":4817,"åĮĹäº¬çļĦ":4818,"éĢīæĭ©ä¸Ģä¸ª":4819,"æĸĩç«łä¸ŃæıĲåĪ°":4820,"æŁĲäºĽ":4821,"æĪĲä¸ºä¸Ģä¸ª":4822,"èĿī":4823,"åĪºåı²":4824,"å¯¹ä¸ĭéĿ¢çļĦæĸĩæľ¬è¿Ľè¡ĮçºłéĶĻ":4825,"çļĦä¸ľè¥¿":4826,"åľ¨åĳ¨æľ«":4827,"åĴĮæľĭåıĭ":4828,"åĨĻåĩº":4829,"è¯·ä»İæĸĩç«łä¸ŃæıĲåıĸ":4830,"åħ³éĹŃ":4831,"æĶ¹éĿ©":4832,"æ¡£":4833,"åĽŀå¤į":4834,"å¤ªå¤ļ":4835,"ç¥Ī":4836,"èĬ±é¦Ļ":4837,"çı¾":4838,"äºĮé¦ĸ":4839,"åĨįæĿ¥":4840,"çĽ¸åħ³ä¿¡æģ¯":4841,"èĻ½çĦ¶ä»ĸå¾Ī":4842,"çłĶç©¶è¡¨æĺİ":4843,"æĶ¯ä»ĺ":4844,"å°¼åħĭ":4845,"è¶³çĲĥæ¯ĶèµĽ":4846,"ä¸ºæĤ¨æıĲä¾Ľå¸®åĬ©":4847,"åĺī":4848,"æĭĤéĿ¢":4849,"ä¼ĺç§ĢçļĦ":4850,"çļĦä»»åĬ¡":4851,"æľīæĹ¶":4852,"åĩŃ":4853,"æı´":4854,"äººéĹ´":4855,"å¾Īåĸľæ¬¢":4856,"å¾ĪçĥŃ":4857,"å¯¹ä¸įèµ·":4858,"è¿Ļä¸ªæķħäºĭ":4859,"å®ŀè·µ":4860,"ä¸»æĹ¨":4861,"éĶĻè¿ĩäºĨ":4862,"å¸Ĥä¸Ńå¿ĥ":4863,"åĵģå°Ŀ":4864,"æ¶Ľ":4865,"ç¡®è®¤":4866,"åĽŀçŃĶä¸Ģä¸ª":4867,"åĽŀçŃĶæĤ¨çļĦéĹ®é¢ĺ":4868,"ç¥¥":4869,"åĮĹæŀģ":4870,"æº¢":4871,"å¡ĺ":4872,"åĥ§":4873,"èĻ½çĦ¶ä»ĸ":4874,"æĪĳä¸įåĸľæ¬¢":4875,"è¿ŀæİ¥":4876,"å¥Ķè·ĳ":4877,"24":4878,"Ġä»ĸ":4879,"åħĶåŃĲ":4880,"æĪĳæľĢåĸľæ¬¢çļĦ":4881,"âĢĻ":4882,"æĥĳ":4883,"æĽ¹":4884,"æ³½":4885,"æĿ¥æııè¿°":4886,"ä¹ĭæĹħ":4887,"ç¨Ģ":4888,"æ»ļ":4889,"ä½łçļĦéĹ®é¢ĺ":4890,"åıįåºĶ":4891,"å¾®ç¬ĳ":4892,"èĤ¡ç¥¨":4893,"æ¬£èµı":4894,"ç¨įçŃī":4895,"åĪĽå§ĭäºº":4896,"ä¸Ńå¤®":4897,"åľ¨ç»Ļå®ļçļĦ":4898,"ä½łä»¬":4899,"è¯·åĨį":4900,"æ¸´":4901,"åĸľçĪ±":4902,"è¿Ļä¸ªè¯įè¯Ńæĺ¯ä»Ģä¹ĪæĦıæĢĿ":4903,"éĽģ":4904,"æ»´":4905,"åıĹä¼¤":4906,"å²Ĥ":4907,"ç»Łè®¡":4908,"æħ°":4909,"çĭ¬èĩª":4910,"æŃ£éĿ¢æĥħæĦŁ":4911,"è´ŁéĿ¢æĪĸä¸ŃæĢ§":4912,"çļĦä¸»è¦ģè§ĤçĤ¹":4913,"çªĹæĪ·":4914,"è¸ª":4915,"å¡«åĨĻ":4916,"æĺİçĻ½äºĨ":4917,"åįĵ":4918,"âĢĺ":4919,"çĶŁåŃĺ":4920,"ä¾µ":4921,"æį·":4922,"æĿ¥åĪ°":4923,"éĤ¦":4924,"æıĲåıĸæĸĩç«łä¸Ń":4925,"åº¦è¿ĩ":4926,"çĪµ":4927,"å¹³åı°":4928,"èĦĤ":4929,"è¯·æıĲä¾Ľä¸Ģä¸ª":4930,"ç±»åŀĭçļĦçĶµå½±":4931,"äºļé©¬":4932,"çĶ±äºİå¤©æ°Ķæģ¶åĬ£":4933,"æ©ĺ":4934,"çĶ·åŃĲ":4935,"åĨ¬åŃ£":4936,"åĪĽä½ľä¸Ģä¸ª":4937,"ç³ĸæŀľ":4938,"æ¾³":4939,"å¯Ĥå¯":4940,"é¼ĵåĬ±":4941,"13":4942,"æĪĳåĢĳ":4943,"ä¸ºä¸»é¢ĺ":4944,"ä¸įæĥ³":4945,"åİ¦":4946,"æįķ":4947,"ä¼ļæľī":4948,"è´¦":4949,"ä»¥ä¸ĭåı¥åŃĲä¸ŃçļĦ":4950,"éĺ»":4951,"éĺĶ":4952,"åĵģè´¨":4953,"é£Łè°±":4954,"å·´è¥¿":4955,"çĳ°":4956,"æĮīçħ§é¢ĺçĽ®":4957,"è¿Ļæĺ¯ä¸Ģç¯ĩåħ³äºİ":4958,"å¿łè¯ļ":4959,"æ°§åĮĸ":4960,"çº¢æ¥¼æ¢¦":4961,"äºļé©¬éĢĬ":4962,"XX":4963,"æĨ":4964,"æĪĳå¸ĮæľĽ":4965,"åľ¨äºİ":4966,"åĩºçīĪ":4967,"ä½łåºĶè¯¥":4968,"åĮĨ":4969,"çİĦ":4970,"æ³¥":4971,"æľĢé«ĺçļĦ":4972,"å¤§å°ı":4973,"å¹´æĿ¥":4974,"ç¨®":4975,"èģĶåĲĪ":4976,"ä¸İä¹ĭ":4977,"æĢĿç»´":4978,"ç¡®å®ŀ":4979,"è®©æ¨¡åŀĭ":4980,"æİ¨å¹¿":4981,"çħ®":4982,"æ·±åħ¥":4983,"éĵº":4984,"èĭ±éĽĦ":4985,"è®°å¾Ĺ":4986,"æ±ŁåįĹ":4987,"æĩĴ":4988,"æ¤Ĵ":4989,"ä½ľä¸ºä¸Ģä¸ª":4990,"æµªè´¹":4991,"çł´åĿı":4992,"è¯ŃéŁ³è¯ĨåĪ«":4993,"éĴ¢çĲ´":4994,"æĮīçħ§é¢ĺçĽ®åĨĻè¯Ĺ":4995,"28":4996,"Ġæııè¿°":4997,"çļĦå·¥ä½ľ":4998,"ä¸ĭä¸ªæľĪ":4999,"åľ¨çº¿":5000,"é¢Ī":5001,"è¿Ļæ¬¾":5002,"å¤©åľ°":5003,"æĢľ":5004,"éĩįå¤§":5005,"æ´¥":5006,"åİ»æĹħè¡Į":5007,"åı¯ä»¥æĺ¯":5008,"æĮ¤":5009,"æ¡Ĥ":5010,"åıĳæĮ¥":5011,"ä»İæĸĩç«łä¸Ń":5012,"è®©å®ĥ":5013,"æ¶ĪéĻ¤":5014,"å¦Ĥä½ķåľ¨":5015,"èĥģ":5016,"éĩįæĸ°ç»Ħç»ĩ":5017,"æĺ¥å¤©çļĦ":5018,"æ·±åĪ»":5019,"æħĪ":5020,"è°ģæĺ¯":5021,"æĵİ":5022,"ä¿Ħç½Ĺæĸ¯":5023,"çļĦçŁŃè¯Ń":5024,"çļĦè¯Ŀé¢ĺ":5025,"è¿Ļéģĵ":5026,"ä¸Ģä¸ªåįķè¯į":5027,"ä¼Ĳ":5028,"èĥ½éĩı":5029,"ä¸Ĭæĺł":5030,"éĶģ":5031,"éļĨ":5032,"å¤ªçĥŃ":5033,"ãĢĤâĢĿ\\":5034,"åĽłä¸ºä»ĸä»¬":5035,"å°±åı¯ä»¥":5036,"æīĭè¡¨":5037,"è¥¿çıŃ":5038,"åģļäºĨ":5039,"èº«å¿ĥ":5040,"èıľåĵģ":5041,"çİ¯ä¿ĿçļĦ":5042,"æĶ¶åĪ°":5043,"éļıæĹ¶åı¯ä»¥":5044,"æ¸ħæĻ¨":5045,"åľ°çĲĥçļĦ":5046,"å®¤åĨħ":5047,"çļĦé¦ĸéĥ½":5048,"åı¯çĪ±çļĦ":5049,"çĪ¬å±±":5050,"è¥¿çıŃçīĻ":5051,"ä¸Ģä¸ªæĸ°çļĦ":5052,"äººéĥ½":5053,"ä¸ĬåįĪ":5054,"åı¯åĨįçĶŁ":5055,"è¾°":5056,"æĽ´åĩĨç¡®":5057,"æ´Ĵ":5058,"å®ŀéªĮ":5059,"é¦Ģ":5060,"çľĭä¹¦":5061,"åĽŀæĿ¥":5062,"é£İæļ´":5063,"ä¸īå¹´":5064,"ä½¿åħ¶æĽ´æ¸ħæĻ°":5065,"éĤ£è¯·éĹ®":5066,"æııè¿°ä¸Ģä¸ª":5067,"å°±ä¸ļ":5068,"åįģäºĶ":5069,"åĽĽä¸ª":5070,"åķĨåĬ¡":5071,"æĢİä¹ĪåĬŀ":5072,"è®°èĢħ":5073,"åħ¶ä¸ŃåĮħåĲ«":5074,"çļĦæľĢå¤§":5075,"çĸ²åĬ³":5076,"èĸ¯":5077,"è¿ĩåİ»å¼ı":5078,"çĪ¶æ¯į":5079,"å·¨å¤§çļĦ":5080,"éĸĭ":5081,"éªĳèĩªè¡Įè½¦":5082,"ç¶ĵ":5083,"çĽĳçĿ£åŃ¦ä¹ł":5084,"å¤§å¤ļæķ°":5085,"æĪĳæĦŁåĪ°":5086,"åĪĢ":5087,"ä»ĸåĨ³å®ļ":5088,"ä»¥ä¸ĭåįķè¯į":5089,"çº¯":5090,"å¯¹åºĶ":5091,"å¤©æ°Ķä¸įå¥½":5092,"çľĭçĿĢ":5093,"éĩįåĨĻç»Ļå®ļçļĦåı¥åŃĲ":5094,"æ¶²":5095,"ç½ļ":5096,"çĮ´":5097,"ç©ºä¸Ń":5098,"éĩįæĸ°æŀĦéĢł":5099,"æŃ£åľ¨è¢«":5100,"å¤´çĹĽ":5101,"æĪĳä»Ĭå¤©æĹ©ä¸Ĭ":5102,"ä»Ĭå¤©å¤©æ°Ķå¾Īå¥½":5103,"è¸¢":5104,"å´ĩ":5105,"åĭĩæ°Ķ":5106,"å¯¿åĳ½":5107,"ä½¿åħ¶æĽ´åħ·åı¯è¯»æĢ§":5108,"å¥½çľĭçļĦçĶµå½±":5109,"åĵ²åŃ¦":5110,"è´¸æĺĵ":5111,"æ§":5112,"ä¸Ģåº§":5113,"è¿Ŀ":5114,"æĪĳç»ıå¸¸":5115,"æĪĳæĺ¨æĻļ":5116,"åĵŃ":5117,"å¾Īç´¯":5118,"åľ°åĿĢ":5119,"æ¯«":5120,"æĦŁæŁĵ":5121,"æĪĳä»¬åıĸæ¶ĪäºĨ":5122,"äºĭæķħ":5123,"æ²¡æľīæĭ¼åĨĻéĶĻè¯¯":5124,"çĸ¼":5125,"ç§įæ¤į":5126,"ä¹¦åºĹ":5127,"å±±æ°´":5128,"ç½¢":5129,"èĪĩ":5130,"èĢĮä¸į":5131,"åĨ³çŃĸ":5132,"æ¯ıå¹´":5133,"äº§ä¸ļ":5134,"çº¢åı¶":5135,"èĮĦ":5136,"è§Ĩè§ī":5137,"åĭĴ":5138,"è®°å¿Ĩ":5139,"å¸ĮæľĽæĪĳçļĦ":5140,"ä½łèĥ½ä¸įèĥ½":5141,"å¯Ĩçłģ":5142,"èģĬå¤©æľºåĻ¨äºº":5143,"å¨ģèĥģ":5144,"åĲİçļĦç»ĵæŀľ":5145,"æĤ¬çĸĳ":5146,"çī©çĲĨåŃ¦":5147,"è¤":5148,"çļĦé¢ľèī²":5149,"å®ı":5150,"åĩºçļĦ":5151,"ä»ĸæ²¡æľī":5152,"ä½łè®¤ä¸º":5153,"æĢ¨":5154,"è¯·çĶŁæĪĲä¸Ģé¦ĸ":5155,"æĬļ":5156,"åı¯ä¹Ĳ":5157,"æ³¡":5158,"ä½¿å®ĥæĽ´åĬł":5159,"åľ°éľĩ":5160,"æ±Ĺ":5161,"åĲįçļĦ":5162,"éĩĮæľī":5163,"æŁł":5164,"éĩįåĨĻæĪĲ":5165,"åıĺä¸º":5166,"åħ¨éĥ¨":5167,"æŃ¥è¡Į":5168,"æł¼å¼ı":5169,"è¯ĦåĪĨ":5170,"å¦Ĥä½ķæıĲé«ĺ":5171,"æĶ¾å¼ĥ":5172,"è±¹":5173,"èĳ£":5174,"æİ¥ç§į":5175,"åĸĿä¸ĢæĿ¯":5176,"å°ģéĹŃ":5177,"çº·çº·":5178,"æ³°åĿ¦":5179,"è¯·å¯¹ä¸Ĭè¿°æĸĩæľ¬è¿Ľè¡ĮçºłéĶĻ":5180,"æģ°å½ĵ":5181,"èĺ":5182,"æĪĳèĥ½":5183,"æľīçļĦ":5184,"ä»ĸèĻ½çĦ¶":5185,"èĥ½åĳĬè¯īæĪĳ":5186,"èĥ½å¸®æĪĳ":5187,"æµ©":5188,"èµ¤":5189,"æ¸¡":5190,"çĽ¸å½ĵ":5191,"åıªèĥ½":5192,"æĺ¯åĲ¦æľī":5193,"é¦Ļæ¸¯":5194,"æĽ´åĬłç®Ģæ´ģæĺİäºĨ":5195,"åĭĥ":5196,"æĹħæ¸¸çĽ®çļĦåľ°":5197,"åĸĦèī¯":5198,"è¡¨çİ°åĬĽ":5199,"å°ļä¹¦":5200,"æł¹æį®è¾ĵåħ¥çļĦ":5201,"å°½ç®¡å¤©æ°Ķå¾ĪåĨ·":5202,"åĢ¾åĲĳ":5203,"çĽ¸åºĶçļĦ":5204,"è¡¬è¡«":5205,"è¼":5206,"ðŁ":5207,"ä¸ĺ":5208,"åĲı":5209,"åĪĳ":5210,"åľĪ":5211,"æľīéĻĲ":5212,"å¸½":5213,"éĹľ":5214,"å¥½åĥı":5215,"ä»¥ä¸ĭæĺ¯ä¸Ģ":5216,"æĽ´åĸľæ¬¢":5217,"å¿į":5218,"åİ»è´Ńçī©":5219,"éĿ¢è¯ķ":5220,"å¯¹åħ¶":5221,"åľ°çĲĨ":5222,"æĮ¯":5223,"éģµ":5224,"èī°":5225,"è¿ĺæ²¡æľī":5226,"è¯¥åįķè¯į":5227,"é¥¥":5228,"æ£ĭ":5229,"éĩįæĸ°è¡¨è¾¾":5230,"éĵĥ":5231,"èµ°è¿Ľ":5232,"ä¼¼ä¹İ":5233,"ç»Īäºİ":5234,"æĪĳæĹłæ³ķæıĲä¾Ľ":5235,"åı¦ä¸Ģç§į":5236,"å°½ç®¡ä»ĸéĿŀå¸¸":5237,"2022":5238,"æª¬":5239,"è´¡çĮ®":5240,"æŁłæª¬":5241,"æ³°åĿ¦å°¼åħĭ":5242,")<|":5243,"è¯Ģ":5244,"å¤¸":5245,"åľ¨è¿ĻéĩĮ":5246,"ä¸įè§ģ":5247,"ï¼Ł\"<|":5248,"çĶŁåĬ¨":5249,"ä»ĸåİ»äºĨ":5250,"åİ»çľĭ":5251,"éĿ¢å¯¹":5252,"çĶŁæĪĲä¸Ģç¯ĩ":5253,"æĦıå¤ĸ":5254,"çĶµå½±çļĦ":5255,"æĻºèĥ½æīĭæľº":5256,"éķ¿æĹ¶éĹ´":5257,"æĺŁæĺŁ":5258,"ä¸ĸçķĮä¸Ĭ":5259,"åģļé¥Ń":5260,"åıįä¹ī":5261,"èĳ±":5262,"æİ¨èįĲä¸ĢäºĽ":5263,"åįĥéĩĮ":5264,"åıĤåĬłä¼ļè®®":5265,"è®©æĪĳæĦŁåĪ°":5266,"çĶ¨ä¸Ģåı¥è¯Ŀæ¦Ĥæĭ¬":5267,"è°¢è°¢ä½łçļĦå¸®åĬ©":5268,"åį«çĶŁ":5269,"åĶ¯ä¸Ģ":5270,"å°Ĩå®ĥä»¬åĲĪå¹¶":5271,"åļ":5272,"æĺĮ":5273,"å¸Ĩ":5274,"æłĸ":5275,"è¡°":5276,"æĦĪ":5277,"è¯·ä»İè¿Ļç¯ĩæĸĩç«łä¸ŃæıĲåıĸåĩº":5278,"æĽ´åħ·ä½ĵçļĦ":5279,"èµĲ":5280,"çŁ£":5281,"çĶŁæĪĲä¸Ģæ®µ":5282,"è¿Ļä¸ªäºº":5283,"éĻ¶":5284,"çľĭæ³ķ":5285,"ä»İç»Ļå®ļçļĦ":5286,"çĶµå½±åĲįç§°":5287,"åĢļ":5288,"å¼Ģè½¦":5289,"ä¸ĭéĿ¢çļĦéĹ®é¢ĺ":5290,"å°½åı¯èĥ½":5291,"é¥ª":5292,"èİ²":5293,"æĻ¯è±¡":5294,"æ¨¡å¼ı":5295,"æĹłæ³ķç¡®å®ļ":5296,"å°Ĩåħ¶è½¬æį¢ä¸º":5297,"åĬªåĬĽåľ°":5298,"å·ŀåĪºåı²":5299,"å¸ĥæĸ¯":5300,"å®³æĢķ":5301,"æ©Ł":5302,"åŃ¦çĶŁä»¬":5303,"è©±":5304,"çļ®èĤ¤":5305,"çĶŁæĪĲä¸Ģä¸ªä¸İä¹ĭ":5306,"è¶³å¤ŁçļĦ":5307,"çĥ¹é¥ª":5308,"è¿Ī":5309,"ä½©":5310,"äºĨè®¸å¤ļ":5311,"å¾Īå¿«":5312,"ä¼ļä¸ĭéĽ¨":5313,"æĺİæ²»":5314,"æ¯ģ":5315,"å¹¶åľ¨":5316,"æł¹æį®ç»Ļåĩº":5317,"æł¹æį®è¡¨æł¼":5318,"å°ıçļĦ":5319,"åįķä½į":5320,"è¿ĩæĿ¥":5321,"éĿŀå¸¸æ£Ĵ":5322,"ä»ĬæĹ¥":5323,"çķĶ":5324,"ç»ıçĲĨ":5325,"éĥĬ":5326,"éĩįåĨĻä¸ĭéĿ¢è¿Ļåı¥è¯Ŀ":5327,"ç»Ļåĩºä»¥ä¸ĭ":5328,"æ¼ı":5329,"æ¸ħæ´ģ":5330,"éĴ¥":5331,"èİº":5332,"åĳ¨åĽ´":5333,"åĩłä¹İ":5334,"è®¤è¯Ĩ":5335,"é»ĳæļĹ":5336,"ä¸Ńæĸĩåı¥åŃĲ":5337,"æĵħ":5338,"å¼ĢæĶ¾æĢ§éĹ®é¢ĺ":5339,"èĪĴæľį":5340,"æľīæķĪçļĦ":5341,"å¯ĤéĿĻ":5342,"éļĲç§ģ":5343,"åĭ¤å¥ĭ":5344,"éł":5345,"æĪĳå¯¹":5346,"æľīå¤ļ":5347,"æĺİå¹´":5348,"ï¼ģâĢĿ<|":5349,"æ·®":5350,"èĻ¹":5351,"æľĪçĲĥ":5352,"é©±":5353,"æŃĮæīĭ":5354,"æ¸ħåĩī":5355,"æ¶Īè´¹":5356,"çľŁå®ŀ":5357,"æĺİå¤©çļĦ":5358,"ç¼ĸè¾ĳä¸ĭéĿ¢çļĦåı¥åŃĲ":5359,"åĩıè½»":5360,"åİĨåı²äºĭä»¶":5361,"æĪĳåı¯ä»¥å¸®ä½ł":5362,"é¢ĺçĽ®æĺ¯":5363,"åį³å°Ĩ":5364,"å¦Ĥæŀľä½łè¿ĺæľīåħ¶ä»ĸéĹ®é¢ĺ":5365,"é£ĺèĲ½":5366,"çĶŁæĢģç³»ç»Ł":5367,"æĽ´åħ·ä½ĵçļĦä¿¡æģ¯":5368,"æ³°åĿ¦å°¼åħĭåı·":5369,"11":5370,"æĪĳæīįèĥ½":5371,"æľīä¸ĢäºĽ":5372,"äºĨä¸ĢäºĽ":5373,"æĥŁ":5374,"åĵĢ":5375,"åİ»è¶ħå¸Ĥ":5376,"æĹ¶åĪ»":5377,"å¤§éĽ¨":5378,"éĹ®é¢ĺçļĦ":5379,"åı¯ä»¥åĨį":5380,"æĸ¹ä¾¿":5381,"æĪĳä»¬å°Ĩ":5382,"åĽłä¸ºå¥¹":5383,"æµģæ°´":5384,"æĮĩç¤º":5385,"çļĦéĹ®é¢ĺåĲĹ":5386,"æł¹æį®ç»Ļå®ļçļĦéĹ®é¢ĺ":5387,"æ²Ļåıĳ":5388,"åŃ©åŃĲä»¬":5389,"éĿŀå¸¸æĦŁè°¢æĤ¨çļĦ":5390,"åī¯è¯į":5391,"æīĢä»¥æĪĳåĨ³å®ļ":5392,"ç«ŀäºī":5393,"æ¯ıä¸ªäººéĥ½":5394,"æ¯ķä¸ļ":5395,"åı¤èĢģçļĦ":5396,"åı¯åĨįçĶŁèĥ½æºĲ":5397,"æĺĨ":5398,"çĶ«":5399,"ä»¥åĲİ":5400,"åľ¨æĪĳ":5401,"åĩĿ":5402,"æıĴ":5403,"ä»ĸä»įçĦ¶":5404,"ç§Ł":5405,"çīµ":5406,"åİ»è¿ĩ":5407,"æľĢéķ¿":5408,"æĹ¶å°ļ":5409,"å¦Ĩ":5410,"ä¼ļåľ¨":5411,"åı¯ä»¥éĢļè¿ĩ":5412,"è°Ĳ":5413,"çĶŁæĪĲæĳĺè¦ģ":5414,"è¿Ľå±ķ":5415,"éĽķ":5416,"éĿŀå¸¸æľī":5417,"éĿŀå¸¸ç¾İåĳ³":5418,"ä¸īæĺİæ²»":5419,"æ¯ĶèĲ¨":5420,"èĢĮä¸įæĺ¯":5421,"éĢĤå®ľ":5422,"åįģåħ«":5423,"ç«ĭåį³":5424,"åĨįæ¬¡":5425,"å¼ķæĵİ":5426,"è°ģæĺ¯ç¾İåĽ½":5427,"é»ĳæ´ŀ":5428,"èħĬ":5429,"æ¤ħ":5430,"çļĦæľĢä½³":5431,"èĴĤ":5432,"è©ŀ":5433,"å¹¿åĳĬè¯Ń":5434,"æ¢ħèĬ±":5435,"å¤ªç©ºæİ¢ç´¢":5436,"å·¥ç¨ĭå¸Ī":5437,"åħĦå¼Ł":5438,"çļĦè¯į":5439,"ä¸ĢçĻ¾":5440,"äºĨä»ĸçļĦ":5441,"åĮĻ":5442,"çľī":5443,"å¯¹ä¸Ĭè¿°æĸĩæľ¬è¿Ľè¡ĮçºłéĶĻ":5444,"å®¶çļĦ":5445,"çĲĨè®º":5446,"æ¶µ":5447,"éĥ¨éĹ¨":5448,"æııè¿°æĢ§":5449,"åıªè¦ģ":5450,"å®ĮäºĨ":5451,"ãĢĭãĢģ":5452,"åĪĨç±»ä»¥ä¸ĭ":5453,"åıĬåħ¶":5454,"æł¹æį®ç»Ļå®ļçļĦä¸»é¢ĺ":5455,"å°Ĩä»¥ä¸ĭåı¥åŃĲè¿Ľè¡ĮæĶ¹åĨĻ":5456,"ä¼łæĴŃ":5457,"ä¸ĸçķĮä¸ĬæľĢéķ¿çļĦæ²³æµģ":5458,"åĴĸåķ¡åºĹ":5459,"éļıæĹ¶éĥ½åı¯ä»¥":5460,"è¿Ļä¸ªéĹ®é¢ĺçļĦçŃĶæ¡Ī":5461,"åį°è±¡":5462,"ä¹Ķå¸ĥæĸ¯":5463,"éĶĢåĶ®é¢Ŀ":5464,"å¹ħçĶ»":5465,"è¡ĮæĶ¿åĮº":5466,"çĶŁçĹħäºĨ":5467,"åİĺç±³":5468,"å¯¹ä¸Ĭè¿°æĸĩæľ¬è¿Ľè¡ĮçºłéĶĻåĲİçļĦç»ĵæŀľ":5469,"æĺĶ":5470,"æĪĳæīĵç®Ĺ":5471,"åľ¨ä»¥ä¸ĭåı¥åŃĲä¸Ń":5472,"é¢Ĥ":5473,"æĹ±":5474,"åĴĮå¹³":5475,"ä½łè§īå¾Ĺ":5476,"è¯·ä½¿çĶ¨":5477,"ä¸Ĭæĸĩ":5478,"è¡Įè¯Ĺ":5479,"è¿Ļä¸ªæĪ¿éĹ´":5480,"è¿Ľè¡ĮéĩįåĨĻ":5481,"ä½ķå¤Ħ":5482,"éĩįåĨĻè¿Ļä¸ªåı¥åŃĲ":5483,"æĢ§èĥ½":5484,"åħ¥èĥľ":5485,"èĤĮ":5486,"çŁŃä¿¡":5487,"å§¿":5488,"æİ¨åĬ¨":5489,"åģļçļĦ":5490,"å»ºè®®åĲĹ":5491,"è§Ĥçľĭ":5492,"çİ¯ä¿Ŀæİªæĸ½":5493,"åŁºåĽł":5494,"200":5495,"è´ŁéĿ¢è¯Ħä»·":5496,"ç¼ºçĤ¹":5497,"èªī":5498,"çī¹åĪ«æĺ¯":5499,"æľĢé«ĺæ¸©åº¦":5500,"éĸĵ":5501,"è¿Ļé¡¹ä»»åĬ¡":5502,"å¸®åĪ°ä½ł":5503,"å¼ķäººåħ¥èĥľ":5504,"ä¸įå¤Ł":5505,"ä»ĸç»ıå¸¸":5506,"çĽĹ":5507,"æĸĩç«łçļĦ":5508,"æĤ¨åĸľæ¬¢":5509,"å¯¹ä»¥ä¸ĭæĸĩæľ¬":5510,"å¤§æ°Ķ":5511,"è¿Ļä¸ªè¯į":5512,"ç¿ħ":5513,"éĽ¨ä¼ŀ":5514,"èĥ¡èĲ":5515,"åıĭè°Ĭ":5516,"çĥŃæĥħ":5517,"åĲ¬è¯´":5518,"è§Ĥå¯Ł":5519,"æĶ¶åħ¥":5520,"æĩĪ":5521,"æķ°åŃ¦é¢ĺ":5522,"ç¬Ķè®°":5523,"èªª":5524,"çĬ¯ç½ª":5525,"2021":5526,"è¿Ļæľ¬å°ıè¯´":5527,"æĭĴç»Ŀ":5528,"åİīå®³":5529,"ç¥Īä½¿":5530,"èĥ¡èĲĿåįľ":5531,"çļĦå®ļä¹ī":5532,"ä»²":5533,"äºķ":5534,"åħ®":5535,"æī«":5536,"çĶŁæ°Ķ":5537,"å¥½å¥½":5538,"çİ«":5539,"æµħ":5540,"æĿ¥æºĲ":5541,"å¤§æĪĺ":5542,"åŃ¦ä¼ļ":5543,"ç»Ļå®ļæĸĩæľ¬ä¸ŃçļĦ":5544,"å°ıé¸Ł":5545,"äºĽä»Ģä¹Ī":5546,"ä¸ŃçļĦåºĶçĶ¨":5547,"è¡¨éĿ¢":5548,"åĮĸçļĦ":5549,"æııè¿°ä¸Ģä¸ĭ":5550,"ãĢĤ\"\"":5551,"åı£è¯Ń":5552,"å²Ń":5553,"åħ¬åĽŃéĩĮ":5554,"åĴĸåķ¡é¦Ĩ":5555,"çĵ¦":5556,"è´ŁéĿ¢æĥħæĦŁ":5557,"çī¹å®ļçļĦ":5558,"è®¨è®ºäºĨ":5559,"æľīåħ¶ä»ĸéĹ®é¢ĺ":5560,"ãĢĤãĢĬ":5561,"ä¸ĢåĪĩ":5562,"æĪĳæīĢ":5563,"æĪĳè¦ģåİ»":5564,"ä¸ªæĢ§":5565,"äººä½ĵ":5566,"æī°":5567,"ç»Ļä»¥ä¸ĭ":5568,"å°Ĩç»Ļå®ļçļĦæĸĩæľ¬":5569,"å¾Īç³Łç³ķ":5570,"çĶŁæĪĲæłĩé¢ĺ":5571,"ç®ĢåİĨ":5572,"ä¸ŃçļĦéĶĻè¯¯":5573,"éĽĢ":5574,"ç¾İå¦Ļ":5575,"ç¿ģ":5576,"è·¨":5577,"éħ·":5578,"äº¤æĺĵ":5579,"å²³":5580,"æĺ¨å¤©æĪĳ":5581,"æł¹æį®ç»Ļå®ļçļĦè¾ĵåħ¥":5582,"ç¤¾åĮº":5583,"åıĤåĬłäºĨ":5584,"çĶ±äºİå¤©æ°ĶçĤİçĥŃ":5585,"ç¬¬ä¸Ģæ¬¡":5586,"åı¦å¤ĸ":5587,"éĹ®æĪĳåĵ¦":5588,"ãĢĭãĢģãĢĬ":5589,"åĲĲ":5590,"ä¸įåİ»":5591,"æī¶":5592,"ä»ĸæĺ¯ä¸Ģä¸ª":5593,"æĬ¼":5594,"èµĸ":5595,"æĤ¨æıĲä¾Ľ":5596,"çĶŁæĪĲä¸ĢåĪĻ":5597,"è¿Ļä¸ªæĪĲè¯Ń":5598,"å®ŀæĸ½":5599,"å¹¶ä½¿çĶ¨":5600,"æł¹æį®ä»¥ä¸ĭåı¥åŃĲ":5601,"çĽ¸äºĴ":5602,"ä½Ĩè¿ĺæĺ¯":5603,"åįģä¸Ģ":5604,"æĮĩå¯¼":5605,"èº«ä»½":5606,"æł·ä¾ĭ":5607,"æĿİçĻ½":5608,"é²¨":5609,"èĽĭçĻ½":5610,"000":5611,"å®ģéĿĻ":5612,"åįļå®¢æĸĩç«ł":5613,"23":5614,"èŁ":5615,"Ġ(":5616,"çļĦèĥ½åĬĽ":5617,"çļĦåĲįè¨Ģ":5618,"ä»ĩ":5619,"æĺ¯éĿŀå¸¸":5620,"åŃĲéĩĮ":5621,"è¿ĻæĿ¡":5622,"åĳĢ":5623,"æĶĢ":5624,"ä¾§":5625,"ä½ĵä¸Ńæĸĩ":5626,"æĤ¨æīĢåľ¨çļĦåŁİå¸Ĥ":5627,"åı¯ä»¥è¢«":5628,"å¹¶è¿ĶåĽŀ":5629,"é«Ķ":5630,"åīª":5631,"ä»İæľª":5632,"ä½Ĩå®ĥ":5633,"å¼Ģä¼ļ":5634,"çĶŁæĪĲä¸Ģä¸ªç±»ä¼¼":5635,"ç»ĵè®º":5636,"è¿Ļç¯ĩæĸĩç«łçļĦ":5637,"åģļä¸Ģä¸ª":5638,"æ£ķ":5639,"äºĨä¸Ģå®¶":5640,"åħ¶ä»ĸçļĦ":5641,"åĮºåŁŁ":5642,"ç¥ŀå¥ĩ":5643,"ä¿ĿæĮģåģ¥åº·":5644,"ä¸Ģç»Ħåįķè¯į":5645,"___":5646,"ç¼ºå°ĳ":5647,"å¸¦æĿ¥çļĦ":5648,"åı¦ä¸Ģä¸ª":5649,"ç©ºæ°Ķæ±¡æŁĵ":5650,"å°Ĭéĩį":5651,"æľĢä½İæ¸©åº¦":5652,"çļĦæŃĮæĽ²è¯Ħè®º":5653,"åİ¨æĪ¿":5654,"Ġåľ¨":5655,"çļĦæ´»åĬ¨":5656,"æĪĳè¿ĺæĺ¯":5657,"ä¹¾":5658,"è¡ĵ":5659,"åĴĮæĹ¶éĹ´":5660,"æĥ§":5661,"æĤ¨æīĢåľ¨":5662,"å¤§åĨĻ":5663,"ä»¥ä¸ĭåı¥åŃĲçļĦ":5664,"æıĲä¾ĽçļĦæĸĩæľ¬":5665,"æ¡ĳ":5666,"æĪĳä»¬å¿ħé¡»":5667,"ä½¿åħ¶æĽ´æµģçķħ":5668,"æµ·å¹³":5669,"çŁŃè¯Ĺ":5670,"ä¹Łä¸į":5671,"ç©ºæł¼":5672,"å¦Ĥä½ķåĪ¶ä½ľ":5673,"ç»ĻæĪĳä¸ĢäºĽ":5674,"åĶ¤":5675,"ç§¯æŀģçļĦ":5676,"æł¹æį®ç»Ļå®ļçļĦåħ³éĶ®è¯į":5677,"æĬĢæľ¯çļĦ":5678,"æľªæĿ¥åıĳå±ķ":5679,"åħ¨çĲĥæ°ĶåĢĻåıĺåĮĸ":5680,"è¶ħçº§":5681,"ä¸Ģèµ·åİ»":5682,"è§ĦåĪĴ":5683,"çķĻä¸ĭ":5684,"èģĮä½į":5685,"çĶ·äºº":5686,"æĪĳä¼ļå°½å¿«":5687,"å¼Ĥå¸¸":5688,"åĽłä¸ºå¤©æ°Ķä¸įå¥½":5689,"çģµæĦŁ":5690,"æľĢé«ĺæ°Ķæ¸©":5691,"åĪºæ¿Ģ":5692,"Ġä¸įå®¢æ°Ķ":5693,"çļĦæĦıä¹ī":5694,"çļĦä½ľèĢħ":5695,"åŃŁ":5696,"ä¸Ńæľī":5697,"ä»ĸæĺ¨å¤©":5698,"å¥½å¤Ħ":5699,"ä¸Ĭè¯¾":5700,"æ¸Ķ":5701,"å¯¹ç»Ļå®ļçļĦæĸĩæľ¬":5702,"å¤§åŀĭ":5703,"åıĳè¡¨":5704,"éĿŀå¸¸åĩºèī²":5705,"æķ°çļĦ":5706,"éĤ£åıª":5707,"éķ¿é¢Ī":5708,"åħ·å¤ĩ":5709,"ç½²":5710,"é©°":5711,"å°ĳå¹´":5712,"èĲ½æĹ¥":5713,"èıĬ":5714,"åħ¬åı¸åĲįç§°":5715,"èĬĤæĹ¥":5716,"æ¸©å®¤":5717,"ä¿®å¤į":5718,"éĢīé¡¹ä¸Ń":5719,"ä¸»è¦ģè§ĤçĤ¹":5720,"æİ¢ç©¶":5721,"åİĨåı²ä¸ĬæľĢ":5722,"åĩīçĪ½":5723,"å¥¥æĸ¯":5724,"è¯¦ç»ĨåĽŀçŃĶ":5725,"çĽ¸åıįçļĦæĦıæĢĿ":5726,"èī¯å¥½çļĦ":5727,"åıĺå¾ĹæĽ´åĬł":5728,"åį«æĺŁ":5729,"æľĢå¥½çļĦæľĭåıĭ":5730,"éĿ©åĳ½":5731,"å¿ĥçĲĨåŃ¦":5732,"ä¸ĬéĿ¢çļĦ":5733,"æł¹æį®æīĢç»Ļ":5734,"ç£¨":5735,"ç¬¬ä¸Ģä½įæĢ»ç»Ł":5736,"çļĦç®ĢçŁŃ":5737,"äºĨæĪĳçļĦ":5738,"å¸ĺ":5739,"æ°£":5740,"è¯·ç¨įçŃī":5741,"å¥½æľĭåıĭ":5742,"çī§":5743,"æĽ´å®¹æĺĵ":5744,"æĤ¨æľīä»Ģä¹Ī":5745,"çĽ¸æĢĿ":5746,"åĽŀå¿Ĩ":5747,"ä¹ĭå¤Ħ":5748,"æŁ¿":5749,"çŃīæĸ¹éĿ¢":5750,"éĥŃ":5751,"åĲĥäºĨä¸Ģä¸ª":5752,"èĢĮæĺ¯":5753,"æĮĩçļĦæĺ¯":5754,"å¦Ĥä½ķåľ¨å®¶":5755,"æĹłæ³ķæıĲä¾Ľ":5756,"ç§°ä¸º":5757,"å¤ıå¨ģ":5758,"å·²ç»ıè¢«":5759,"åįĹæŀģ":5760,"åħĭçļĦ":5761,"æİ¢éĻ©":5762,"èħĲ":5763,"å°¼äºļ":5764,"æĶ¹ä¸ºä¸»åĬ¨è¯ŃæĢģ":5765,"èĴ¸":5766,"éķ¿é¢Īé¹¿":5767,"çļĦæķ°æį®":5768,"æĺ¯æĪĳçļĦ":5769,"ä¸Ńåįİ":5770,"äºĨæĪĳ":5771,"çĶŁåĬ¨çī©":5772,"å¼Ĺ":5773,"æĤī":5774,"åĸľæĤ¦":5775,"è´º":5776,"å½±çīĩ":5777,"å®ŀçĶ¨":5778,"å¹¶è¿Ľè¡Į":5779,"å»ī":5780,"æĹ¥èĲ½":5781,"çĲĥéĺŁ":5782,"ä¹Łåı¯ä»¥":5783,"ä½¿çĶ¨çļĦ":5784,"èıĮ":5785,"å¤ĸåĩº":5786,"èĥŀ":5787,"æĹłæ³ķè¿Ľè¡Į":5788,"åĳ¨äºĶ":5789,"èĮĤ":5790,"ä»»åĬ¡ä¸Ń":5791,"é¾Ł":5792,"è§ĦèĮĥ":5793,"åıĤåĬłèģļä¼ļ":5794,"å±ŀäºİåĵªä¸ª":5795,"ç»Ļåĩºä¸Ģä¸ªéĹ®é¢ĺ":5796,"å±ħæ°ĳ":5797,"æĪĳæĹłæ³ķåĽŀçŃĶè¿Ļä¸ªéĹ®é¢ĺ":5798,"å¦ĤæŀľæĤ¨è¿ĺæľīåħ¶ä»ĸ":5799,"ï¼ŁâĢĿ<|":5800,"éĵģå¡Ķ":5801,"äººå·¥æĻºèĥ½åľ¨åĮ»çĸĹé¢ĨåŁŁ":5802,"å»ºçŃĳçī©":5803,"è´¢åĬ¡":5804,"æ¡ĥèĬ±":5805,"çĪĨåıĳ":5806,"èµ¢å¾ĹäºĨ":5807,"æ²ŁéĢļ":5808,"è¿Ļåº§åŁİå¸Ĥ":5809,"åĨ¥æĥ³":5810,"å¤ıå¨ģå¤·":5811,"åħģ":5812,"æĪĳæĦŁåĪ°éĿŀå¸¸":5813,"ä»¥åīį":5814,"å½»":5815,"æī£":5816,"ä½łæĥ³è¦ģ":5817,"è¯·çĶŁæĪĲä¸Ģä¸ª":5818,"å¼¦":5819,"æĽ´æľī":5820,"ä½ĵéĩį":5821,"çĶµåĬ¨":5822,"æ³ķè¯Ń":5823,"ç¿Ĵ":5824,"çĭĲ":5825,"æ¯Ķäºļ":5826,"åı¤åħ¸":5827,"åĿ¡":5828,"é£ŁæĿĲ":5829,"æľªèĥ½":5830,"èİī":5831,"èĥĨ":5832,"æĺİå¤©çļĦå¤©æ°Ķé¢ĦæĬ¥":5833,"å®īéĿĻ":5834,"çİ¯å¢ĥéĹ®é¢ĺ":5835,"çĶŁæ´»ä¸Ń":5836,"çĨ¬":5837,"è§Ħæ¨¡":5838,"éĢĤå½ĵçļĦæłĩé¢ĺ":5839,"çĶµè§Ĩåī§":5840,"ç§ĺè¯Ģ":5841,"åį±éĻ©":5842,"åĢ¼å¾Ĺä¸Ģ":5843,"èı²å°Ķ":5844,"éŃĶæ³ķ":5845,"éĢĽè¡Ĺ":5846,"éĴ¥åĮĻ":5847,"æĵħéķ¿":5848,"ç¥Īä½¿åı¥":5849,"çİ«çĳ°":5850,"åĨĮ":5851,"åľ¨åĵªä¸ªåŁİå¸Ĥ":5852,"ä¸įåłª":5853,"ä¸įæĩĪ":5854,"ä»ĸä¸į":5855,"ä½łæľī":5856,"ä½łä»Ĭå¤©":5857,"æľĢéĩįè¦ģçļĦ":5858,"ä»Ģä¹ĪæĹ¶åĢĻ":5859,"åīįè¿Ľ":5860,"éĥ½åľ¨":5861,"çĽ®çļĦ":5862,"åħ¨éĿ¢":5863,"æµģè¡ĮçļĦ":5864,"éŁ³é¢ĳ":5865,"åı·çłģ":5866,"æĺ¨å¤©æĪĳåİ»äºĨ":5867,"çĽ¸åħ³çļĦæłĩé¢ĺ":5868,"æħİ":5869,"ç®ĢåįķæĺĵæĩĤ":5870,"çİ©åħ·":5871,"ä¾¿å®ľ":5872,"çĻ¾å¹´":5873,"ç®ĢçŁŃçļĦæłĩé¢ĺ":5874,"Ġåħ¶åĽĽ":5875,"è¿ĲåĬ¨åĳĺ":5876,"èµĦæĸĻ":5877,"ç©¿è¶Ĭ":5878,"æľĿå»·":5879,"è®¡ç®Ĺæľºç§ĳåŃ¦":5880,"èªŀ":5881,"éĸĴ":5882,"æĪĳå¾Īé«ĺåħ´èĥ½":5883,"æĶ»åĩ»":5884,"è¯·çĶ¨ä¸Ģåı¥è¯Ŀæ¦Ĥæĭ¬":5885,"âĦĥï¼Į":5886,"éĺ¶æ®µ":5887,"ï¼ħ":5888,"çļĦæ®µèĲ½":5889,"æĺ¯æĺŁæľŁ":5890,"åľ¨åĮĹäº¬":5891,"é¢ł":5892,"ä¼ı":5893,"è¦ģçĤ¹":5894,"å¥½çİ©":5895,"ç®Ń":5896,"æ²Ī":5897,"å¯¹ç»Ļå®ļçļĦ":5898,"ç»Ļå®ļä¸¤ä¸ªåı¥åŃĲ":5899,"ç±»æ¯Ķ":5900,"æł¹æį®ä¸ĬèģĶ":5901,"éĤª":5902,"æķ°ä¸º":5903,"éģĵå¾·":5904,"è¯¥æĸĩç«ł":5905,"æ¶Į":5906,"åĿĽ":5907,"èĢħçļĦ":5908,"ç¥¸":5909,"è®©ä½łçļĦ":5910,"çī¹æľĹ":5911,"èıł":5912,"é¢ĨåŁŁçļĦåºĶçĶ¨":5913,"åıĬæĹ¶":5914,"å®ĥä»¬ä¹ĭéĹ´çļĦ":5915,"æĪĳæĥ³åİ»":5916,"æ¼ĶåĶ±":5917,"è½»è½»":5918,"çīĽèĤī":5919,"æ±īè¯Ń":5920,"æŁ¥è¯¢ä¸Ģä¸ĭ":5921,"è¢«åĬ¨è¯ŃæĢģæĶ¹ä¸ºä¸»åĬ¨è¯ŃæĢģ":5922,"çľĭåĪ°äºĨä¸Ģåıª":5923,"çľģä»½":5924,"ç§ĳå¹»å°ıè¯´":5925,"ç§ĳåŃ¦å®¶åıĳçİ°":5926,"çļĦåħ³éĶ®ä¿¡æģ¯":5927,"åį±æľº":5928,"è¿ĩç¨ĭä¸Ń":5929,"åºĨç¥Ŀ":5930,"æĪĳä»¬åĨ³å®ļåıĸæ¶Ī":5931,"æł¹æį®ä¸ĬèģĶç»Ļåĩºä¸ĭèģĶ":5932,"ä¸¦":5933,"ãĢĤãĢĤ":5934,"ä¸Ģè¾Ĩ":5935,"æīİ":5936,"ä¿Ĭ":5937,"åĽ½åĨħ":5938,"éĻ·":5939,"å®¶åĽŃ":5940,"å¤©æ°ĶæĢİä¹Īæł·":5941,"æĥ³è±¡":5942,"è¿ĩäºİ":5943,"éģĵè·¯":5944,"åĲİæĿ¥":5945,"æĢĿç»ª":5946,"æ»¨":5947,"é¸¿":5948,"ç»ĻæĪĳè®²ä¸Ģä¸ª":5949,"è¦ģæ±ĤGPTæ¨¡åŀĭ":5950,"è·ĳå¾Ĺ":5951,"æĪĳä¼ļåİ»":5952,"è¿Ļä¸ªåı¥åŃĲä¸Ń":5953,"çīĩæ®µ":5954,"çīĩåĪ»":5955,"å¼ķåıĳ":5956,"äº§åĵģçļĦ":5957,"è¾ĵåĩºä¸ĭèģĶ":5958,"æľįåĬ¡åĳĺ":5959,"ç»Ļå®ļä¸Ģä¸ªåįķè¯į":5960,"æ£Ģæµĭ":5961,"è¯·ä¸ºä»¥ä¸ĭ":5962,"åĲ¸å¼ķäºº":5963,"éĩįè¿°ä»¥ä¸ĭåı¥åŃĲ":5964,"åħħæ»¡äºĨ":5965,"æ°§æ°Ķ":5966,"è¯Ńæ³ķåĴĮæĭ¼åĨĻ":5967,"éŁ©åĽ½":5968,"å¤ļæł·æĢ§":5969,"14":5970,"çļĦæĦŁè§ī":5971,"ä¸Ģäºº":5972,"åľ³":5973,"é¢ĺæĿĲ":5974,"åĩºè¡Į":5975,"ä½łå¯¹":5976,"å¾Īä¹ħ":5977,"åı¯ä»¥æıĲé«ĺ":5978,"åľ°åĽ¾":5979,"æ±Ŀ":5980,"åĬ¨åĬĽ":5981,"æīĢéľĢ":5982,"ä»İä½ł":5983,"æķ°çĻ¾":5984,"çŃīäºİ":5985,"ä½ķæĹ¶":5986,"åĽŀçŃĶä½łçļĦéĹ®é¢ĺ":5987,"æ¸¸å®¢":5988,"åĨħå¿ĥ":5989,"æľĪä»½":5990,"è¥¿åĵ¥":5991,"èĥ¸":5992,"çĻ½èī²":5993,"æ·±åľ³":5994,"èĥľåľ°":5995,"ä¸ĢåıªçĮ«":5996,"éĺ²æĻĴ":5997,"æĪĳæĺ¨å¤©åİ»äºĨ":5998,"æĻ®éĢļ":5999,"åĩºçİ°äºĨ":6000,"è¡Ĺéģĵ":6001,"çĽ®æłĩè¯Ńè¨Ģ":6002,"æĪĳå°Ĩå°½åĬĽ":6003,"å¢¨è¥¿åĵ¥":6004,"éĴĵé±¼":6005,"è«ĭ":6006,"éĤĢè¯·":6007,"å°¼æ³Ĭå°ĶåĴĮ":6008,"çļĦå¹³åĿĩ":6009,"ä»¥ä¸º":6010,"è¿Ļè¾Ĩ":6011,"æĪĲæľ¬":6012,"ä¸įåĨį":6013,"çĶŁéķ¿":6014,"å¼Ħ":6015,"ä»¥ä¸ĭæ®µèĲ½":6016,"å®ļæľŁ":6017,"åĪ°çļĦ":6018,"çŁ¿":6019,"ä¼ļå¯¼èĩ´":6020,"è´¼":6021,"è¿Ļä¸ªä»»åĬ¡":6022,"åģ·":6023,"å¤©æ°ĶæĻ´æľĹ":6024,"å¥¹æŃ£åľ¨":6025,"æ²¡æľīç»Ļåĩº":6026,"ä¸īåįģ":6027,"ç½©":6028,"æŀģç«¯":6029,"çī¹æ®Ĭ":6030,"èĥĸ":6031,"éļ¾é¢ĺ":6032,"å¤´åıĳ":6033,"èĮ¨":6034,"åĳ½ä»¤":6035,"çłĶåıĳ":6036,"ä¼ĺç¾İ":6037,"åĲĦä¸ª":6038,"æľīä»Ģä¹ĪéĹ®é¢ĺ":6039,"çłĶç©¶åıĳçİ°":6040,"èħ°":6041,"æ²Ļæ¼ł":6042,"åľ°çĲĥä¸ĬæľĢ":6043,"çĶ±äºİå¤©æ°ĶåİŁåĽł":6044,"è°ĥæķ´":6045,"ç¨ĭåºıåĳĺ":6046,"åıĳçĶŁäºĨ":6047,"åı«åģļ":6048,"åľŁè±Ĩ":6049,"çĶľçĤ¹":6050,"å½ĵåľ°çļĦ":6051,"è®¾è®¡ä¸Ģä¸ª":6052,"çīĽå¥¶åĴĮ":6053,"ä¸ºä»¥ä¸ĭåı¥åŃĲæıĲä¾Ľä¸Ģä¸ª":6054,"èĻļæĭŁ":6055,"åĲ¬èµ·æĿ¥ä¸įéĶĻ":6056,"åĲĮä¹īè¯įæĪĸè¿ĳä¹īè¯į":6057,"çķªèĮĦ":6058,"åıįä¹īçĸĳéĹ®åı¥":6059,"17":6060,"æĪĳæľīä¸Ģä¸ª":6061,"æĺ¯æĪĳä»¬":6062,"æĺ¯å¤ļäºĳ":6063,"ä»¥æĿ¥":6064,"åľ¨åŃ¦æł¡":6065,"å¸ħ":6066,"è¯Ńä¹ī":6067,"æĭĵ":6068,"æĭĸ":6069,"èµİ":6070,"æİ©":6071,"ç»Ļå®ļä¸¤ä¸ª":6072,"è¿Ļä¸ªè®¡åĪĴ":6073,"åĬłæĭ¿":6074,"å¤©æ°ĶæĥħåĨµ":6075,"å¹¶æĽ´æŃ£":6076,"çĮĽ":6077,"æ»ĭ":6078,"çĪ±çļĦ":6079,"å½¢è±¡":6080,"åıįè½¬":6081,"ç§ĭæĹ¥":6082,"çİĭäºĶ":6083,"æĿ¡åħ³äºİ":6084,"å®ĮæĪĲä»»åĬ¡":6085,"åįİä¸º":6086,"ä¸ĩäºº":6087,"çħ§é¡¾":6088,"æ¦Ĥè¿°":6089,"çĶŁæ´»çļĦ":6090,"åĩıèĤ¥":6091,"é»Ħåı¶":6092,"ä¸ĭåĪĹæĸĩæľ¬":6093,"ä¸įéĶĻçļĦ":6094,"çĤİçĤİ":6095,"è¿Ļæĺ¯ä¸Ģä¸ªæµĭè¯ķ":6096,"è¯·æıĲåıĸæĸĩç«łä¸Ń":6097,"è®¡ç®Ĺæľºç¨ĭåºı":6098,"åĤ¬":6099,"éĵ¶æ²³":6100,"ç»ĻæĪĳä¸Ģä¸ªåħ³äºİ":6101,"ç¥Ŀç¦ı":6102,"æĽ´ç®Ģæ´ģçļĦå½¢å¼ı":6103,"ç§ĳå¹»çĶµå½±":6104,"çļĦæĸ°åı¥åŃĲ":6105,"çıįæĥľ":6106,"åĬ¨ä½ľçīĩ":6107,"åĬŀåħ¬å®¤":6108,"22":6109,"çį":6110,"çļĦè¯įè¯Ń":6111,"ä»Ķ":6112,"å®ħ":6113,"åı¥åŃĲçļĦ":6114,"äººå£«":6115,"åĴĮåıįä¹īè¯į":6116,"ä¼Ļ":6117,"ä»ĸåĢĳ":6118,"éĢ¼":6119,"éĢĿ":6120,"æĭ¯":6121,"å±Ĭ":6122,"å¯¹æīĭ":6123,"åŃ¦ç§ĳ":6124,"æıĲä¾Ľå¸®åĬ©":6125,"æĦŁæĥħ":6126,"ä»İæĿ¥":6127,"äºĭä¸ļ":6128,"ä¸īæľĪ":6129,"ä¸»é¢ĺçļĦ":6130,"éĩĳæĺŁ":6131,"æīĵçĶµè¯Ŀ":6132,"åĩłçĤ¹":6133,"æİĴåĲį":6134,"æľªæĿ¥ç§ĳæĬĢ":6135,"åıĤèĢĥ":6136,"æĶ¿æ²»":6137,"èįīæľ¨":6138,"åłĨ":6139,"ä¼ĺåĬ¿":6140,"åĨĽäºĭ":6141,"çĳ¶":6142,"è®¨åİĮ":6143,"è¯·æıĲåıĸæĸĩç«łä¸ŃçļĦ":6144,"å¯¹äºİç»Ļå®ļçļĦ":6145,"æĳĦåħ¥":6146,"æıĲåıĸåĩºæĿ¥":6147,"è¿·äºº":6148,"èŃ¦å¯Ł":6149,"é½¿":6150,"åĲ¯åıĳ":6151,"è¯Ńæ³ķåĴĮæĭ¼åĨĻéĶĻè¯¯":6152,"è®²è¿°äºĨ":6153,"çļĦå¥½å¤Ħ":6154,"è¯ķè¯ķçľĭ":6155,"é²¨é±¼":6156,"æ¸©å®¤æ°Ķä½ĵ":6157,"çĨ¬å¤ľ":6158,"60":6159,"¤éħĴ":6160,"çĢ":6161,"çļĦé£İéĻ©":6162,"æĪĳæİ¨èįĲ":6163,"ä¹Ļ":6164,"æĺ¯åĽłä¸º":6165,"æĸĩæ¡£":6166,"è¿Ļç»Ħ":6167,"è®¶":6168,"æĪĲç«ĭ":6169,"å¯ĵ":6170,"æĸĩæľ¬åĪĨç±»":6171,"åİ»ä¸ĸ":6172,"çº¤":6173,"å¤§èĦĳ":6174,"åŃ¦æľ¯":6175,"åľ°éĵģ":6176,"å¦Ĥä¸ĭ":6177,"ä¸»è§Ĵ":6178,"èĩªä¿¡":6179,"è¿Ľè¡ĮæĥħæĦŁåĪĨç±»":6180,"æľºéģĩ":6181,"èĲĿ":6182,"ç¥Ń":6183,"åİŁæĦı":6184,"æ¯ıåĳ¨":6185,"æĦıæĢĿä¸įåıĺ":6186,"åİĨåı²ä¸Ĭ":6187,"é»Ħæĺı":6188,"æ¹¾":6189,"åĲĦåľ°":6190,"è§Ħå®ļ":6191,"ä¸Ĭæµ·çļĦ":6192,"ä»İè¿Ļç¯ĩæĸĩç«łä¸Ń":6193,"ä»Ĭå¤©å¤©æ°ĶæĻ´æľĹ":6194,"éĩĩçĶ¨":6195,"ä¸ĵå®¶":6196,"çªģçł´":6197,"æĸ°åĨłçĹħæ¯Ĵ":6198,"éī´åĪ«":6199,"æµ·å¹³éĿ¢":6200,"å¥¥æĸ¯åį¡":6201,"ç»¼":6202,"åľ¨èĬ±åĽŃéĩĮ":6203,"æĹ¦":6204,"ä¼į":6205,"çĶŁç´ł":6206,"æĦ¤":6207,"å¼¯":6208,"å¾Īé«ĺ":6209,"å¾Īå·®":6210,"æĸĩç«łæłĩé¢ĺ":6211,"æĸ°åı¥åŃĲ":6212,"éĩįè§Ĩ":6213,"çĶŁæĪĲä¸Ģä»½":6214,"è¿Ļä¸ªåĳ¨æľ«":6215,"å¹¶çºłæŃ£":6216,"æģ¢":6217,"æģŃ":6218,"çĭ¼":6219,"è¯¥æĸĩæľ¬ä¸Ń":6220,"åķ¤éħĴ":6221,"æııåĨĻ":6222,"ä»»åĳ½":6223,"äººå·¥æĻºèĥ½çļĦåºĶçĶ¨":6224,"èĬ±æľµ":6225,"å·²çŁ¥":6226,"æĻ¯è§Ĥ":6227,"ç¦ħ":6228,"èĢģäºº":6229,"è§Ĥä¼Ĺ":6230,"æķħå®«":6231,"å¸¦ä¸Ĭ":6232,"èģĬèģĬå¤©":6233,"æķĻæİĪ":6234,"æīĢæľīçļĦäººåĲį":6235,"æľĭåıĭä»¬":6236,"çļĦäººåı£":6237,"çĽ´åĪ°":6238,"æ¹ĺ":6239,"åĬªåĬĽåŃ¦ä¹ł":6240,"é¥ŃåºĹ":6241,"ç²¾ç®Ģ":6242,"å¾ħåľ¨å®¶éĩĮ":6243,"çļĦä¸»è¦ģåĨħå®¹":6244,"æŀĿå¤´":6245,"çľŁæĺ¯å¤ª":6246,"ç§»åĬ¨":6247,"æľĢä½İæ°Ķæ¸©":6248,"è¯·åĽŀçŃĶä¸ĭéĿ¢çļĦéĹ®é¢ĺ":6249,"èĤºçĤİ":6250,"åľ¨æŃ¤ä»»åĬ¡ä¸Ń":6251,"ħåĬĽ":6252,"å¤¹":6253,"ç»£":6254,"ä¸Ńæī¾åĩº":6255,"è®Ĭ":6256,"å¹¼":6257,"å·¾":6258,"èµ´":6259,"åı¯ä»¥æıĲä¾Ľ":6260,"ç»Ļå®ļä»¥ä¸ĭ":6261,"è´·":6262,"æĥ³ä¸Ģä¸ª":6263,"æĥ³çŁ¥éģĵ":6264,"æĥ³äºĨè§£":6265,"çĲĨæĥ³":6266,"èį«":6267,"è¯¥åı¥":6268,"å¤ªç´¯äºĨ":6269,"æııç»ĺ":6270,"æµģæĦŁ":6271,"æµģæµª":6272,"éĢĤåºĶ":6273,"è¯Ħä¼°":6274,"åģļå¥½":6275,"é¢ĨåŁŁçļĦ":6276,"åħ¶ä»ĸéĹ®é¢ĺ":6277,"éĵħ":6278,"ä¸Ģç¯ĩæĸ°éĹ»æĬ¥éģĵ":6279,"åĮºåĿĹ":6280,"ä»¥ä¸ĭæĸĩæľ¬ä¸ŃçļĦ":6281,"è®¤çľŁ":6282,"çİ¯å¢ĥçļĦ":6283,"èįīåľ°ä¸Ĭ":6284,"æłĳæľ¨":6285,"æĩī":6286,"äººä»¬çļĦ":6287,"ä¸ĢåıªçĭĹ":6288,"éĽĨåĽ¢":6289,"é¸¡èĤī":6290,"åľ°åĮºçļĦ":6291,"åģľè½¦":6292,"è®¢åįķ":6293,"å®ľäºº":6294,"æľĢå¤§çļĦè¡ĮæĺŁ":6295,"åĨĻä¸Ģé¦ĸäºĶè¨Ģç»Ŀåı¥":6296,"ä¸ªåŃĹç¬¦":6297,"è¡¥åħ¨":6298,"æī¹è¯Ħ":6299,"èĢĲå¿ĥ":6300,"å¯Ĥå¯ŀ":6301,"åĮºåĿĹéĵ¾":6302,"çļĦä»·æł¼":6303,"æĪĴ":6304,"ç»½":6305,"å¥Ī":6306,"éĹ·":6307,"åĴ³":6308,"åĴĮè°Ĳ":6309,"èµ«":6310,"æľĢé«ĺçļĦå±±å³°":6311,"å±Ī":6312,"å¤§æµ·":6313,"éľį":6314,"æŃ£å¸¸":6315,"åĪĨåŃĲ":6316,"ä»İå°ı":6317,"çĲĥåĳĺ":6318,"èģĶçĽŁ":6319,"æ»¿":6320,"ç»ĵåĲĪ":6321,"çī¹åĮº":6322,"è¿Ļç¯ĩæĸĩç«łæĺ¯åħ³äºİ":6323,"æĳĨ":6324,"æ¨Ĥ":6325,"æľ¯è¯Ń":6326,"æ¶ĪèĢĹ":6327,"ç§ĭåı¶":6328,"å°½ç®¡å¥¹å¾Ī":6329,"èĢģæĿ¿":6330,"çİ¯ä¿ĿæĦıè¯Ĩ":6331,"ä¸Ńæĸĩæĸĩæľ¬":6332,"èĵĿå¤©":6333,"æĪĳéľĢè¦ģçŁ¥éģĵ":6334,"çļĦä¸»é¢ĺæĺ¯":6335,"çĶŁæĪĲä¸Ģé¦ĸäºĶè¨Ģç»Ŀåı¥":6336,"åĪļæīį":6337,"çĩ¥":6338,"åĿļæĮģå®ĮæĪĲäºĨ":6339,"ä½Ĩå¥¹ä»įçĦ¶":6340,"é³Ħ":6341,"èł":6342,"çļĦçĭĹ":6343,"çļĦè¯įæ±ĩ":6344,"åıĻ":6345,"åı¥åı·":6346,"ä¸įä¸Ģå®ļ":6347,"å½¹":6348,"ç»ĻäºĪ":6349,"çĽĴ":6350,"æĸĩæľ¬ä¸º":6351,"å°Ĩäºİ":6352,"é¦¨":6353,"åıĳå°Ħ":6354,"ä½Ĩä»ĸçļĦ":6355,"éĿŀå¸¸åĸľæ¬¢":6356,"å¹´ä»½":6357,"æ¡Īä»¶":6358,"æ°´çļĦ":6359,"é©»":6360,"ä¹Łä¼ļ":6361,"äºĨä¸Ģä»½":6362,"åĩłå¤©":6363,"åĨįç»ĻæĪĳ":6364,"å¹¿ä¸ľ":6365,"æķ£æĸĩ":6366,"æľĿä»£":6367,"å°Ĩä¸ĭéĿ¢è¿Ļä¸ªåı¥åŃĲ":6368,"ç®ĢçŁŃçļĦè¯ĹæŃĮ":6369,"åħįçĸ«":6370,"éĩįæĸ°åĨĻæĪĲ":6371,"å¤§åĪ©äºļ":6372,"æħ¢è·ĳ":6373,"è´§å¸ģ":6374,"å«Į":6375,"å°Ĩä»¥ä¸ĭä¸¤ä¸ªåı¥åŃĲåĲĪå¹¶æĪĲä¸Ģä¸ª":6376,"è£ĻåŃĲ":6377,"æ°ĽåĽ´":6378,"æĲŃéħį":6379,"æ¾³å¤§åĪ©äºļ":6380,"èĽĭçĻ½è´¨":6381,"æĭ¯æķĳ":6382,"500":6383,"nåı¥åŃĲ":6384,"ç·":6385,"åĴĮæ¸ħæĻ°":6386,"åĴĮèĶ¬èıľ":6387,"åĩºèī²çļĦ":6388,"æĻĸ":6389,"å°Ĩä¸Ģæ®µ":6390,"å¾Īå¿Ļ":6391,"å¾Īæ¼Ĥäº®":6392,"æľĢå°ı":6393,"åĽłæĸ¯åĿ¦":6394,"æĦıåĳ³":6395,"æķ°æĺ¯":6396,"é£İåħī":6397,"éĤ£å®¶":6398,"åįķè¯įçļĦåı¥åŃĲ":6399}